#version: 0.2
Ġ e
Ġ s
h t
n i
Ġ d
n a
r e
Ġ t
n o
Ġe ht
Ġ ,
n e
r o
Ġ y
r a
i t
l a
Ġ o
e r
Ġ f
Ġ .
Ġf o
Ġd e
g ni
u o
Ġd na
Ġ a
t s
Ġo t
Ġ gni
Ġ ni
t a
c i
Ġ re
Ġ no
o r
s e
Ġs i
Ġs e
l e
t i
h c
l i
Ġ ro
Ġs a
Ġ la
m o
Ġt a
s i
Ġ na
c e
c a
it a
l o
s a
h T
r u
Ġ m
Ġ ht
w o
e l
s u
Ġ ne
m a
i d
t ne
r i
h w
i s
Ġ l
Ġy l
m e
Ġe v
Ġ n
i r
n u
Ġta ht
Ġe hT
l p
b a
or p
Ġro f
i w
d a
h g
s o
i l
g a
t e
Ġt ne
no c
re v
l u
a h
d e
Ġe ra
Ġ k
e ht
x e
p o
Ġht iw
u s
r uo
mo c
s er
Ġsa w
e d
p a
ra e
ro f
no ita
Ġy b
Ġno ita
Ġ -
h s
n uo
9 1
Ġe c
r t
Ġe l
Ġe re
c o
m i
re t
d i
Ġt i
Ġ h
Ġ hc
Ġe b
a m
no it
e b
Ġm or
o o
e s
0 2
Ġmor f
re p
u q
o n
f f
Ġno it
c it
y a
c u
Ġs t
u b
p s
m u
l c
e n
Ġ p
Ġe ta
d na
Ġ ci
Ġs re
r ts
Ġre ht
Ġ )
ra p
r g
Ġy ti
ro w
Ġ ruo
d u
e t
Ġ ri
l la
Ġ wo
Ġd l
v e
Ġ w
a t
e m
Ġt uo
Ġev ah
Ġde t
d o
Ġo s
Ġ :
i h
Ġt on
g o
Ġna c
a r
Ġh ci
Ġ uo
v o
Ġe k
Ġl la
Ġ "
Ġy a
Ġde ta
Ġ ra
e c
Ġe no
ro p
Ġyl la
Ġre t
Ġhci hw
na m
Ġsi ht
Ġ g
hg uo
Ġri eht
v a
Ġn I
e w
e p
Ġdl uo
t o
l b
g na
s se
Ġuo y
Ġ 0
Ġe ro
g i
d ne
i c
t u
Ġere w
Ġe ru
Ġsi h
Ġsa h
si d
i v
Ġl li
i n
c er
Ġs tne
b o
Ġt se
Ġe mo
m it
Ġy eht
Ġt s
le v
h p
o p
h C
Ġos la
Ġe h
Ġe su
ni a
Ġt e
Ġs ti
p moc
a e
Ġy ra
Ġt na
Ġtne m
i g
Ġt so
er c
Ġs se
Ġreht o
n I
e f
cu d
Ġt ub
Ġe ga
0 02
Ġ A
er p
Ġero m
m rof
Ġe se
re d
m moc
Ġla ci
Ġe ni
u t
rev o
ts e
l le
Ġlli w
Ġel ba
l f
re ht
Ġe ma
i f
s sa
Ġe lp
Ġruo y
ser p
Ġt hg
e h
t noc
Ġec ne
y s
t S
Ġ I
Ġn wo
re s
Ġgni k
Ġ ;
it ne
Ġs uo
r p
Ġ hguo
ce b
Ġs u
Ġs d
l lo
ri f
l li
Ġgni t
rae y
8 1
Ġse i
Ġsi hT
Ġre d
Ġt I
ni m
h W
Ġd nuo
Ġo hw
f a
Ġd ah
Ġ le
z i
ca f
w t
tne m
b me
r d
ret ni
ne g
g ra
Ġtuo ba
Ġe s
n k
ts a
o b
ni f
h si
Ġg no
ro ts
i ra
re m
Ġ, )
Ġe so
Ġne eb
u p
Ġs noita
Ġd oo
Ġs k
u a
Ġt sa
Ġd i
Ġe w
Ġde su
l A
s t
rev e
f o
go lo
Ġla i
s na
Ġt su
lc ni
s re
Ġot ni
Ġtso m
se d
o c
n A
Ġs noit
c ne
1 02
r b
Ġne hw
Ġna ht
hc a
ra c
di v
Ġy e
y ti
Ġgni d
Ġd er
u d
ro c
Ġts rif
Ġ 2
Ġt ce
Ġy le
p e
te b
so p
l g
Ġec na
ce ps
ts i
p i
le h
du lcni
Ġy am
li a
Ġ 5
Ġ 1
Ġre ta
ce s
Ġev it
lo o
Ġe sa
c na
w a
Ġd ra
Ġe ti
ff id
Ġy na
du ts
ra m
t ta
ru t
p u
g no
nuo c
le s
e v
Ġp u
Ġyl no
Ġemo s
Ġhc us
Ġs no
Ġla noita
Ġs na
Ġdluo w
li m
er g
Ġk ca
Ġe d
hg ih
Ġd a
Ġse ta
no m
y t
Ġese ht
r ht
Ġm a
tne c
Ġl le
Ġ i
Ġelp o
r A
Ġe li
Ġesu a
it i
Ġ cit
Ġe ci
Ġ. )
Ġy nam
ru c
f e
Ġs la
er t
si r
l er
Ġde v
g ne
ir c
9 91
Ġgni ta
it s
t rop
ro t
Ġ li
Ġre vo
0 0
o m
Ġo wt
Ġe da
d ra
rem A
Ġgni ru
ci remA
e N
ti r
k a
' t
o d
e ta
y l
cud orp
Ġe H
Ġde sa
Ġe mit
Ġs ya
ce d
Ġelpo ep
er u
Ġgni n
Ġ 3
li hc
t ni
Ġh si
n E
r f
Ġ 4
si v
ff o
Ġere ht
ru s
t na
po lev
ca lp
Ġw en
e ts
Ġf i
i b
w or
Ġs gni
polev ed
e mo
re ta
a s
ci f
Ġe u
i m
e ni
Ġno is
Ġek il
Ġe g
e ra
Ġgni v
Ġde ti
Ġ x
hc s
p ma
t uo
Ġne ew
Ġe er
Ġm u
lo c
Ġde n
lo p
b us
no C
re ffid
b mu
ht iw
Ġta hw
s rev
k ca
i la
lb up
Ġ 6
Ġret fa
lo s
Ġneew teb
Ġ '
Ġre h
Ġev ita
p us
Ġne t
e R
Ġse v
Ġwo h
Ġm eht
Ġere hw
n U
gna hc
Ġt si
s y
cu rts
Ġy t
. .
s uo
v ni
ff e
Ġo d
ir p
ra M
Ġk oo
s ne
Ġel b
i co
g is
ht a
ir t
mo C
co l
Ġhguo rht
e k
Ġo n
o l
p m
el b
i rep
Ġd ne
c s
o g
re c
Ġre bme
o t
or P
d nuo
uq er
gra l
Ġy rev
no is
w e
Ġk row
Ġ 7
u g
Ġno i
Ġni a
ce p
ni at
u f
li ub
ra el
le b
k s
p pa
red nu
Ġre v
div orp
0 1
vo m
k row
Ġra lu
hg i
re neg
Ġya w
m s
Ġtne me
la eh
re f
Ġne ht
ri v
it ca
Ġe rof
Ġdluo c
Ġgniru d
u A
c orp
na lp
bmu n
dna l
s rep
si m
lla c
r F
la v
m ra
do m
noit id
ra ts
ce j
g er
ma f
g ro
ni l
Ġgni eb
Ġek am
v res
8 91
g re
Ġesua ceb
Ġd lo
Ġ S
Ġye hT
Ġeda m
me ht
c A
d ni
ro b
Ġ 8
Ġna ciremA
llo f
e ga
ya lp
Ġf I
Ġdluo hs
n revo
in U
ce le
Ġ mo
Ġ rae
no i
Ġre wo
po p
nu f
Ġt u
se i
Ġse l
is noc
p ec
a l
ra P
no p
trop mi
sa e
Ġy li
mu h
erc ni
pa c
Ġla u
da er
Ġe t
te d
m il
Ġe r
u m
n wo
li ba
p yt
ira v
Ġs ro
p ah
Ġt rap
lu c
loo hcs
Ġne ve
Ġy ro
y h
uo rg
c ca
Ġhc ae
ma n
y o
Ġl l
Ġlle w
u r
Ġt ca
Ġgni su
ro n
Ġec ni
re b
s or
i hs
me ts
reve wo
emo s
i ci
Ġnwo nk
lu ser
cit rap
tir w
ri a
dna ts
s noita
Ġro F
e no
rae ser
Ġeru t
Ġw eN
Ġ 9
ta d
Ġs ts
ne v
Ġna m
nu mmoc
er b
n na
d oo
Ġne v
Ġla cit
Ġgni wo
ce n
Ġeso ht
Ġni at
7 91
d ro
Ġgni ht
s tne
Ġtne reffid
. )
lev el
sna rt
Ġht ob
ic s
Ġde llac
cer id
rd lihc
Ġreta w
Ġs raey
hc et
o s
ni am
re h
Ġn re
Ġ" ,
Ġse it
g eb
su m
e g
i D
7 1
Ġde hsi
el pmoc
mrof ni
p ed
ec ne
Ġeli hw
Ġa i
Ġs A
rots ih
Ġt rop
n O
Ġdnuo f
Ġere hT
Ġtsu j
Ġ ?
Ġs m
Ġema s
Ġp leh
lu f
d is
k ci
ta n
Ġed is
Ġe m
is op
i L
ff a
t hg
Ġte g
Ġe f
Ġerof eb
" .
ir ts
Ġy r
na c
Ġgni dulcni
ro W
ro N
o J
Ġro t
e L
Ġ C
Ġhc a
orp pa
Ġeer ht
Ġhc um
Ġm rof
rev es
Ġd no
Ġe hs
Ġde l
na gro
ni op
gi sed
Ġs sa
b u
li f
Ġdna l
em it
ec na
g g
Ġsse l
do b
Ġre p
nop ser
lo h
nrevo g
n ret
c ita
or tnoc
Ġnet fo
i a
Ġe ca
nia ga
Ġhguo ht
Ġt f
re po
ni tnoc
Ġred nu
uq e
Ġl uf
Ġyl rae
Ġ po
Ġre bmun
Ġde en
s noit
ra hc
Ġs p
rg orp
Ġgni y
div id
6 91
p mi
Ġ %
Ġm ets
Ġylla u
lg nE
a c
Ġtna tropmi
ti l
sa b
Ġna i
Ġyl tne
Ġdeti nU
pa rg
ce ffe
ed i
s la
Ġde k
Ġe W
ruo c
Ġne hW
Ġy m
5 1
r ruc
Ġe es
srev inU
mets ys
or u
Ġek at
c ni
elb orp
e i
Ġd o
mo no
ta m
Ġya d
Ġwo n
te m
Ġdesa b
mo w
6 1
Ġht uo
d l
Ġs wo
Ġp e
ru b
de m
i ceps
er G
d A
ra w
Ġdnuo ra
Ġese hT
llo c
ci lp
Ġs er
e ro
t xe
c sid
Ġde re
Ġt o
Ġse ga
Ġ D
t orp
ti s
no d
it na
Ġp ihs
sa c
Ġs te
Ġel t
lu ci
is sop
Ġe si
h P
Ġse iti
no riv
hc S
x E
ne m
Ġy te
Ġ0 00
a i
me d
lo C
a rt
ir B
Ġ hgih
da el
tne serp
y e
re G
y lla
Ġd ae
l s
cu de
gni s
Ġe la
lu pop
id em
z a
Ġy golo
el er
c us
s ni
i nu
Ġsya w
h S
Ġev is
Ġkca b
wor g
de en
Ġeni l
ru tnec
Ġtu B
ru p
4 91
or b
Ġn O
f ni
s k
lp xe
gi ro
Ġyti la
ret ca
ig er
u lf
r O
Ġ, .
Ġts niaga
g el
Ġt hguo
Ġci f
ya d
Ġstne m
l ba
id nI
f A
h oJ
Ġt xe
p S
ico s
d da
t ro
revewo H
Ġ" .
Ġstne duts
n hcet
na r
e re
Ġta hW
Ġse mit
u gna
s ser
me t
Ġt es
Ġl it
Ġll its
Ġse k
Ġs ser
t rap
ne p
v da
h sa
lo v
ne s
e H
Ġla ru
m us
e u
pi hs
Ġd ni
Ġs eru
i ec
Ġef il
Ġmets ys
Ġtsu m
ni ht
Ġuo Y
2 1
d el
s gni
Ġne rdlihc
Ġe calp
l P
Ġs ni
5 91
Ġema ceb
Ġde zi
dne ped
Ġm ih
il li
lle c
Ġla itne
Ġnoit ce
Ġla reves
rae h
Ġdoo g
Ġt ro
Ġst na
ht ua
j am
le if
gno l
us si
i W
Ġd id
Ġ hs
ts u
nu m
ci v
Ġtce j
Ġlla ms
l C
Ġni htiw
Ġnoita mrofni
dna h
Ġreht e
Ġse od
Ġse c
h a
ts is
Ġyti liba
i e
ma xe
Ġe moc
Ġlit nu
Ġ raey
' re
Ġthg ir
ts ni
' d
lu m
Ġdi as
i p
se uq
co d
uo y
Ġe ri
noriv ne
Ġci lbup
f orp
il er
ra C
Ġ &
r c
oru E
reht o
na C
irep xe
se R
s ro
Ġla ni
r G
Ġa tad
ta ert
e D
se ta
i lop
o j
Ġe gral
or t
er P
Ġse su
Ġyra u
Ġlai co
gna r
Ġtuo htiw
Ġla ti
Ġeta ts
Ġev a
el c
Ġyti srevinU
d no
reta m
ts id
Ġde dne
Ġna muh
gre ne
mi na
Ġo T
divid ni
Ġdet ce
Ġri a
Ġht laeh
Ġlanoita n
Ġecni s
s A
Ġgno l
no srep
Ġe di
i uqer
mo t
ci rts
y na
Ġy duts
Ġy rt
no n
ugna l
Ġec ud
4 1
Ġre ve
l l
hca et
Ġ b
ca rt
Ġlanoita N
mono ce
c cus
bme m
su b
u ts
Ġgnid roc
3 1
l B
ar b
3 91
Ġe z
Ġemo ceb
sa er
ut its
Ġno t
ht em
Ġk ci
s I
Ġs ci
Ġla re
Ġy dob
Ġnwo d
Ġde if
c nuf
Ġred ro
re n
red isnoc
tne C
il lim
nuo C
ts et
Ġde wo
ne b
irc sed
k ram
Ġno s
p y
Ġy reve
or d
rae ppa
Ġret fA
sy hp
lle w
mo d
Ġni am
ir b
itne di
Ġw ef
Ġs n
h parg
Ġm si
te s
h ci
orp mi
Ġ, "
oo f
ar d
uo h
x o
Ġla tnem
Ġ T
Ġno mmoc
el ba
iec er
ef il
Ġ E
Ġthg il
oo b
Ġhc raeser
no t
Ġ0 0
Ġs ret
ts o
rt cele
ma rgorp
Ġhs it
Ġ loohcs
Ġreta l
Ġema n
Ġla noit
r T
Ġo g
Ġe gnahc
Ġwo nk
Ġthg im
el p
Ġgni re
Ġnoit id
Ġse cne
la na
ga nam
el pma
Ġrewo p
le d
ita p
ht o
s raey
ne t
ruo s
Ġrehto na
Ġe dulcni
Ġdno ces
Ġgniwo llof
ht laeh
la c
Ġs sor
ru f
sa em
sa es
Ġylla ci
Ġs o
e B
sse corp
Ġlaci golo
y c
se v
ir d
Ġe ud
lo vni
Ġe nO
e reht
Ġyle ta
Ġy lev
Ġd nA
k co
Ġtse b
Ġd nif
y ra
Ġsd ra
Ġ cita
Ġdl row
Ġf fo
ri b
wo p
u nitnoc
a M
Ġdl roW
id uts
f les
ta ef
Ġne k
e ew
cif in
e ci
ni rp
to p
Ġa era
Ġn reht
s no
Ġs le
ud ni
s serp
r P
e S
la t
ta p
Ġe tu
rb e
Ġp uorg
e G
hc ra
dl row
ma d
Ġemo S
Ġdoo f
lia va
Ġ u
Ġ. "
ne G
Ġta erg
Ġt A
ssa p
elpma xe
o v
ya w
Ã ©
Ġs ne
d lo
y S
uq es
ro F
Ġtsa l
na b
Ġruo f
Ġf les
ni hC
u S
e ca
Ġn rob
we iv
ir f
u J
la h
Ġ0 1
lba tse
Ġlaico s
ga m
su M
i B
Ġla col
Ġre n
s it
Ġt up
mi h
Ġtnem nrevog
ba l
Ġs rot
Ġgno ma
ni b
id a
p me
ve i
o N
Ġla noitid
w en
cifin gis
Ġsna em
uo s
Ġ P
ci rf
wo nk
te g
ra E
rut er
Ġe divorp
ce D
nuo y
s d
Ġyllau su
ra h
Ġgnik am
o hc
nu r
ma g
niam er
e es
lim is
no M
Ġy grene
ssa lc
e M
t on
k il
m si
li b
so lc
m A
Ġsse n
Ġhsit irB
er ut
ic na
itne ics
ep oruE
Ġgno la
Ġde p
Ġw e
Ġn hoJ
Ġs cit
tne me
ico ssa
Ġtne c
na J
li maf
Ġyli maf
Ġtrop pus
er ts
u G
v it
ub ir
r D
so l
na M
cirf A
Ġ loo
Ġht a
el po
r tnec
rts i
Ġe caf
re P
po c
ra lu
niat noc
yo lp
Ġ ru
ti m
Ġnev ig
ta ts
Ġde b
ro Y
se it
se l
oo l
re ted
hc raeser
Ġeh S
Ġnoit u
i cep
d nu
Ġ lo
t el
1 1
reta w
f ed
Ġla n
2 91
lu r
nia rt
co f
ri c
me hc
Ġro jam
go t
te n
Ġyl t
Ġse lp
wa l
Ġthg i
Ġ 02
cen noc
Ġ R
o B
fe neb
Ġesua c
Ġde i
nia p
re S
c O
p xe
ra H
g u
ruc co
Ġe uq
Ġla rut
Ġ L
Ġy cne
Ġyl ba
de t
Ġla tne
Ġemo h
na rt
retca rahc
da rg
Ġret teb
ni M
Ġ z
in go
Ġsse corp
mi a
ri ht
rts uA
Ġhtuo S
nuo ma
Ġwo H
I I
Ġkoo b
tsi xe
Ġl ortnoc
nif ed
Ġda er
cna c
d di
y golo
nu J
kca b
ni sub
y r
Ġtnem poleved
Ġ V
Ġ M
e rof
Ġt niop
Ġe pyt
lo P
ut ca
fa s
rep xe
c S
Ġya lp
Ġhsi lgnE
ic S
de ta
.. .
ra b
v erp
gg us
no s
Ġk sir
Ġsuo irav
da eh
nois se
v itca
ila rtsuA
Ġse ci
Ġgniv ah
Ġno illim
ff us
rep orp
Ġy B
sa ercni
Ġelb issop
cud er
rop er
Ġs dne
to m
o C
Ġde mrof
Ġdoo lb
Ġsno is
tu a
Ġtne serp
Ġ N
Ġlla b
Ġk a
iv ah
Ġse ni
Ġlaru tan
cit ra
ra B
irt nuoc
Ġno srep
vo N
Ġsi H
Ġtna w
ref er
Ġseta tS
Ġma et
Ġdra w
it lum
n ne
Ġne mow
i R
ro C
Ġelt til
pa J
Ġeru ta
curts noc
Ġn A
Ġyti c
e er
Ġna geb
Ġtf el
sir hC
Ġwe iv
ca rp
sae sid
Ġeli hW
no r
ne po
sse ccus
do t
Ġde sop
wo t
Ġstne me
e hT
Ġdna ts
Ġnoita zi
le t
Ġkoo t
Ġtxe n
bo t
Ġy re
revo c
ht nom
Ġs di
Ġ level
e W
Ġsei ceps
Ġm ret
ts op
ro h
hparg o
Ġn gi
Ġyle kil
Ġy rots
t pe
gni k
Ġy daer
y reve
elpo ep
Ġdeta ler
Ġht iW
Ġnoit ca
ci d
ni w
Ġne m
Ġs ta
f er
Ġde si
la s
si D
su R
m ron
Ġ pa
mi x
e P
id ar
Ġkoo l
Ġht roN
Ġtne dis
de M
ruo ser
a f
Ġwo hs
rec noc
Ġd lihc
icep se
pa p
del wonk
Ġst hg
et S
p A
Ġyl suo
Ġw or
Ġgni dnats
Ġo ot
ce S
Ġy f
ulf ni
Ġssor ca
mil c
Ġro ta
Ġev o
luci ffid
Ġ !
5 2
po t
Ġera c
Ġylla icepse
i H
s m
Ġgnik row
Ġk co
ne rF
y ts
Ġk niht
Ġde c
e ps
tu f
Ġev if
Ġd ro
ne r
ca r
Ġev ig
ts il
rep met
ivah eb
thg il
mo R
Ġnoi si
Ġsyaw la
ci M
h po
l F
u pmoc
Ġse hc
Ġelba liava
Ġya M
Ġnoit isop
rap moc
sse cen
Ġesa e
tpe S
iti ni
Ġrev en
ba h
Ġdehsi lbup
rp A
dnuo f
or tni
Ġnoita lupop
Ġema c
Ġeer f
la er
to t
tse retni
Ġl lA
g eta
Ġde hc
Ġra limis
S U
Ġpe ek
yolp me
ro m
w s
se iti
Ġeta erc
ci dni
Ġniat rec
ya s
Ġe zi
b A
ra hC
y m
ci lbup
Ġrebme m
cilp pa
u Q
Ġy rotsih
ig iler
Ġsgni ht
pm ys
se c
Ġt liub
Ġeti s
Ġhc rae
c or
Ġ O
Ġtsa el
Ġcif iceps
di ve
Ġel or
0 3
Ġgnin rael
Ġel gnis
ir P
su csid
Ġs lli
ce R
i retam
Ġsa era
Ġda el
di as
bot cO
Ġgni dne
Ġtne rruc
Ġesa ercni
li v
na em
x a
ht e
Ġhc raM
Ġse cna
Ġek a
mo ceb
s ti
iv itca
Ġgni p
sse n
Ġse no
Ġesa c
gi f
Ġrae n
gne lla
Ġgni og
d E
Ġsei res
go l
Ġde redisnoc
i ro
Ġyti ro
or ts
cej orp
ra W
Ġgnid liub
p irc
Ġgniht emos
Ġd leif
pi citrap
Ġt luser
s p
Ġsno i
Ġdeta erc
noit u
cej bo
2 2
Ġgniru D
y ro
Ġde poleved
e T
Ġnek at
ci m
Ġev il
Ġwo l
nuoc ca
Ġyra ti
Ġyna M
Ġs tsi
l E
Ġde yalp
Ġ *
Ġd row
Ġy el
r w
Ġyrau naJ
Ġgni s
Ġt pec
hguo rht
Ġsek am
m ma
g id
ne d
d er
Ġdev res
Ġye k
Ġd leh
Ġne es
ra hs
Ġe lo
1 2
rev a
Ġlacit ilop
lo ve
e rac
0 91
m is
Ġse u
revewo h
Ġre hgih
y rt
me da
Ġre mrof
Ġse moc
Ġe nuJ
ci ffo
Ġg nuoy
ubir tnoc
ci lop
s ci
Ġra W
t A
lia f
tneserp er
Ġ F
Ġde ir
Ġev ei
Ġev om
se D
it sirhC
Ġsre bmem
va rt
la eH
Ġdesa eler
rop pus
Ġreht ruf
uqer f
bo R
o R
Ġtnem taert
Ġde man
Ġpo t
iv erp
nwo d
gra hc
Ġrehte hw
s tnem
it ra
Ġreht ie
Ġnoi siv
mo h
c re
Ġn rael
nret nI
Ġe do
o M
Ġsk row
ni oj
Ġreht ar
revo csid
Ġhc nerF
Ġyl uJ
se ga
si rp
k na
Ġe i
Ġde ga
re wop
wo l
Ġli rpA
na pmoc
ta ht
Ġega ugnal
Ġt ra
Ġrebme tpeS
u dividni
hgi H
xe s
Ġde vom
Ġla reneg
re ts
Ġnam reG
Ġtso M
e su
Ġlani giro
Ġ0 3
Ġde calp
Ġgni ti
g uA
ae ps
cud ortni
rap es
we J
ub la
Ġre botcO
u tis
nib moc
cud noc
Ġe gnar
it ep
Ġtnec rep
S A
t tes
Ġs dna
Ġs ma
it se
et orp
Ġ B
is suR
Ġnoit cudorp
Ġel c
Ġse gnahc
Ġeta tS
illi W
ret nI
ed iv
Ġy hw
t its
t oof
ne rdlihc
Ġhc ru
ci dem
Ġ2 1
Ġla bo
cit carp
Ġde lli
n ga
Ġdnuo rg
Ġeta l
va D
t ca
do htem
k o
e la
c M
Ġsuo i
Ġy rutnec
rof fe
gnella hc
Ġyl ralu
Ġt nuoma
y te
Ġde id
pma c
Ġlaci syhp
y b
sse l
Ġde z
ri ps
mit se
so m
e ma
ir tu
na paJ
ci nummoc
re te
li s
Ġevit ca
Ġt rats
mot pmys
no rf
tse W
p so
is nopser
Ġya s
va el
sy lana
b orp
e z
ts er
0 5
Ġya wa
hc ys
re B
Ġmor F
lu da
nam rof
Ġec no
Ġrebme ceD
Ġsnoit id
la b
Ġno pu
ruo h
red ro
Ġnet tirw
Ġra f
y rutnec
Ġydaer la
le c
na hc
Ġtsom la
3 2
Ġre m
rbe F
Ġyrt nuoc
re H
Ġse pyt
Ġrewo l
Ġes uoh
Ġhguoht lA
Ġder u
Ġnois sim
Ġsya d
noita ler
ts ir
me m
Ġrehte got
gni n
Ġgni r
Ġgnidroc cA
9 81
Ġyro ta
Ġs me
r ga
Ġdeta icossa
Ġtsu guA
ro eG
t it
Ġl luf
Ġgni hc
Ġhguo ne
noisse forp
Ġo S
la W
ru j
e ti
Ġs level
mu cod
fo s
les meht
mia lc
dro cer
Ġev i
Ġnre dom
ingo cer
Ġrebme voN
Ġgnidroc ca
ri F
to hp
re g
Ġdae h
Ġtna lp
Ġtna cifingis
Ġgniv il
Ġesae sid
Ġyti nummoc
rtsi nim
lla ms
na p
Ġde dulcni
m I
Ġta hT
n ys
Ġci monoce
erg ed
me f
ci p
Ġna eporuE
Ġsse cca
Ġ5 1
Ġdnats rednu
re til
lo iv
Ġst luser
Ġser ut
r B
do irep
Ġma rgorp
Ġdo irep
e hc
Ġsya s
ru T
u P
Ġsre hto
la w
Ġtne w
Ġere h
Ġdi o
Ġm lif
i V
w S
Ġtse t
Ġlaci dem
Ġci sum
Ġf lah
Ġse ma
Ġytila uq
Ġevo ba
e a
va eh
Ġl u
n y
Ġema g
O C
cep xe
Ġne po
Ġd riht
ro ba
4 2
Ġtuo hguorht
_ _
Ġs mrof
Ġwo lla
ta c
Ġst rap
pme tta
nu trop
lia ted
to cS
Ġdeta col
ni giro
Ġde cudorp
dneped ni
x el
ra g
Ġyra m
na i
ce ip
Ġw al
Ġt ol
Ġse s
Ġlau dividni
Ġgnik at
v irp
uq s
d id
er ht
ta w
Ġy en
Ġeu ga
or cim
Ġton nac
Ġt raeh
Ġsemit emos
ar c
6 002
eni l
Ġnre ts
ruo j
l ortnoc
Ġloo hcS
Ġra w
ila C
Ġs llec
lli v
t er
Ġe po
ero m
f noc
yrt nuoc
w T
e da
Ġeti hw
u c
erc s
Ġ 81
s ita
Ġecne irepxe
Ġyrau rbeF
Ġygolo nhcet
Ġeg el
Ġnoita cude
lp pa
Ġk na
Ġylla er
mi T
Ġ poleved
Ġecud er
lu ger
Ġden gised
nu t
iv rus
l G
namrof rep
li W
Ġralu pop
Ġla tot
Ġgni l
Ġsd nuo
uo H
y le
seta tS
Ġs deen
Ġy ca
lu b
lla b
Ġn gised
Ġnoita cif
hca er
rt noc
wo n
Ġyna pmoc
Ġse dulcni
Ġ0 5
Ġ ]
n gi
w sna
tne ve
Ġno w
Ġdet rats
ic nirp
s te
uo S
mmoc er
Ġnoita ni
t f
eni gne
Ġ. ..
Ġdesa ercni
b rac
bo j
y dob
t hgi
u rf
Ġhta ed
Ġeta r
pu c
ro s
Ġeru s
o ib
si ht
nutrop po
Ġdev iecer
Ġyl luf
el s
v i
Ġk roY
Ġst ceffe
Ġylla utca
8 81
ta l
ru a
in hcet
dra w
ne tni
ps nart
tse ggus
r re
go d
ro htua
Ġyti lib
hc am
Ġed iw
i li
Ġe du
6 81
hg ua
Ġt re
Ġx is
itca rp
to b
ĠS U
n gis
ni F
rg im
Ġsm elborp
Ġtro hs
Ġlaitne top
rts udni
rg et
pah s
Ġlanoitan retni
Ġt el
Ġhguoht la
Ġdehsi lbatse
Ġdesu ac
Ġgni ne
Ġecud orp
Ġse divorp
d liub
Ġtcej orp
Ġse iduts
e ne
se ht
S I
in rof
Ġlai ceps
Ġeca ps
w ard
Ġse irtnuoc
Ġel ddi
Ġeno d
da naC
inrof ilaC
pm is
Ġt cirts
Ġel tta
Ġs metsys
Ġeg delwonk
Ġsd row
Ġti b
Ġnwo t
. "
Ġm elborp
Ġes rev
s le
a g
Ġni arb
ya l
li hC
Ġecne dive
irtu n
s cit
u B
Ġthguo ht
ce hc
s ret
Ġes ruoc
Ġeci vres
nrevo G
Ġlare de
Ġe n
h su
Ġeci v
u nam
nep pah
Ġeru tuf
Ġyrati lim
pa r
irts id
Ġssa lc
Ġk sa
Ġeso lc
ub irtsid
noita n
Ġsuo re
noitid noc
Ġnois rev
li caf
zi nagro
ar B
Ġ 91
Ġsp uorg
Ġkca lb
Ġtse gral
Ġerut curts
Ġs y
Ġt caf
Ġgno rts
w eN
Ġre te
ve D
Ġeu lav
Ġec ruos
Ġde nia
Ġre g
el cu
s noc
Ġst nalp
or w
Ġswo hs
Ġelo hw
Ġdo G
vei leb
es uoh
i led
ce B
Ġtne cer
nuo m
cer roc
er ga
uo d
0 102
er f
le B
Ġt en
is sa
Ġlu fe
Ġle ef
Ġtca pmi
Ġeta milc
cre xe
e hs
Ġyti ru
Ġn ur
Ġtnem trap
ni geb
Ġreht O
Ġgni hsi
Ġelba t
ici ffe
pa reht
Ġlanoita nretnI
ma s
b m
b ew
7 002
Ġla er
rep us
Ġsro ta
Ġ =
Ġtse W
Ġh sa
Ġecni S
Ġde cne
no h
Ġdlo h
ne tta
Ġde divorp
Ġ K
Ġgni ga
il rae
nam reG
Ġla nif
Ġre b
Ġder iuqer
Ġtne verp
Ġelp maxe
p er
er d
Ġne g
Ġs de
Ġralu citrap
Ġse id
g eR
Ġlabo lg
Ġec rof
p p
Ġde tne
Ġre ts
Ġstne itap
e sa
nim reted
no iger
mi repxe
no saes
Ġla nosrep
Ġsse nisub
ert xe
uo c
k i
mra f
ni t
Ġli o
c te
Ġtce ffe
n gised
Ġeni m
Ġs dnal
nahc em
0 4
noit ce
Ġa edi
T A
Ġecne ics
Ġgni te
tro hs
Ġtnedis erP
R A
li w
Ġht gne
hta ed
ser u
g il
eta ts
Ġh a
da or
Ġst ce
yti la
lf er
gra t
Ġevit ceffe
g orp
Ġdna b
pu r
se ni
e saesid
ar T
lo m
se cne
st na
8 002
d irb
Ġa ni
o P
Ġcit si
Ġnwo hs
Ġylralu citrap
Ġre k
Ġht worg
Ġde d
Ġde di
du j
t ra
Ġmo or
Ġeti p
emo h
no loc
ro M
ev it
va f
Ġde cna
Ġe p
Ġtse w
nu s
r ra
9 002
7 81
Ġgnidnats rednu
Ġsek at
Ġro i
6 2
e si
Ġ0 01
Ġlle c
Ġf e
Ġnia ga
Ġa na
Ġlai retam
Ġsre hcraeser
Ġle dom
Ġylla reneg
ruo C
cer p
ts isnoc
r rus
Ġci lo
Ġetu tits
du tS
vo l
Ġtrop er
ti b
Ġt ser
la V
Ġyl tna
pa C
tsa c
Ġdra h
Ġk e
mo or
Ġgni dael
Ġtsa p
Ġthgi ew
Ġgni K
e neg
me s
Ġsei ro
r ru
is A
ts bus
Ġre gnol
rget ni
g en
7 2
icos sA
Ġyte irav
retca b
ni dro
lu p
Ġecaf rus
ae ra
sa lp
Ġt luciffid
rap erp
1 102
so nga
tnem el
Ġdeb ircsed
l y
rop roc
se no
gni K
Ġde s
rt S
Ġez is
kci uq
Ġelp mis
Ġre i
p pah
Ġeso p
si M
oo t
Ġtne duts
tsu c
ya dot
Ġht laeH
id ua
lu a
Ġsnoitid noc
Ġsnoit ca
t ub
Ġruo Y
caf unam
e reh
Ã ¡
c xe
Ġy htlaeh
Ġev orpmi
2 102
rael c
Ġseta ts
Ġ1 1
Ġedis tuo
li hP
ti bah
la m
hcys p
ico S
i F
k sa
Ġsthg ir
ra l
Ġdet roper
ret ta
Ġlanoitid art
pe ts
suo h
Ġyti vitca
d iw
se s
uq ca
rts no
Ġgni de
loo t
hta C
Ġet elpmoc
Ġtsi l
Ġega reva
g e
Ġden gis
S E
k cu
ni rd
8 2
z il
Ġci r
o me
num mi
o ga
Ġlare neG
Ġevis ne
5 002
cud E
na w
dno ces
Ġla r
llo p
Ġna idnI
Ġgni tirw
dnuo rg
ci h
Ġs pihs
la P
ti mmoc
h eb
Ġ bu
Ġma illiW
Ġra elc
dis er
u h
ir ra
la M
li hp
g nu
lo H
Ġyra ssecen
Ġn wor
x im
Ġret upmoc
Ġs motpmys
Ġgni lle
Ġdni k
N A
R E
Ġna b
it u
s rehto
Ġs nia
Ġre cnac
Ġyti C
ma C
Ġdev lovni
Ġreta erg
Ġde unitnoc
Ġde deen
Ġeru tan
ra d
Ġa m
Ġs sol
u rt
no D
gni hsa
Ġnois serp
Ġsu ht
Ġyl pmis
di m
p moC
la ti
lb uP
ruo cne
ta erg
su lc
Ġst cudorp
Ġ G
ru B
Ġa iv
lla f
doo f
Ġru O
Ġtso c
dra h
su s
Ġtso l
ht gne
Ġet orw
Ġder i
gno s
c sa
rtsno med
Ġeso hw
no w
tsis er
Ġno saes
num moC
Ġgni niart
mu H
tsa w
itse vni
ed is
Ġdi a
Ġlatnem norivne
a w
Ġer itne
hta p
Ġtne s
Ġ /
Ġgni lli
ci xe
N I
na g
Ġnoita mrof
g itsevni
pec ca
gni t
no pmoc
i ca
Ġevei leb
0 002
Ġte y
Ġgni daer
Ġyram irp
ts us
Ġd liub
Ġec itcarp
Ġts riF
Ġla gel
ro ta
Ġla mron
Ġylba borp
Ġdo htem
Ġla v
Ġde ro
nuo nna
Ġeru sserp
e calp
re mmoc
ni g
o S
Ġye nom
Ġ5 2
mo hT
Ġsu cof
Ġthguo rb
reta l
tuo r
ruo f
ba b
rtnec noc
dni w
Ġseci vres
Ġseit ivitca
Ġsev lesmeht
Ġci no
Ġec it
Ġnoita ts
Ġla ic
Ġhcrae seR
a ciremA
Ġre tsa
e na
hc ru
Ġelb i
Ġs ra
ri V
curts ni
hc ti
nret la
se od
suo ht
nu h
cixe M
itep moc
idem mi
m E
so pmoc
z it
pi uqe
Ġla icna
noi pma
g A
Ġg ib
Ġla rtnec
Ġsdra wot
mu rts
us noc
Ġ4 1
Ġdro cer
Ġse ussi
Ġylev ita
gnihsa W
Ġlla c
m y
Ġm i
Ġsesu ac
irts udni
Ġsm ret
c nuoC
Ġta erG
Ġse sac
Ġn rut
Ġde krow
gna d
dne irf
k u
irp orppa
Ġsei ra
Ġnoitid da
Ġd rof
Ġci sab
ĠI I
y rotsih
Ġno iger
Ġro sse
Ġse tu
Ġgni worg
cit ilop
ra uq
civ ed
s ta
vei hca
Ġtneme ganam
Ġnoit cnuf
Ġst ca
Ġtse retni
elcu n
ra f
t I
tni op
ce xe
Ġsel ba
nu al
hguo ht
Ġeu nitnoc
ts om
songa id
tsir hC
Ġswo lla
Ġstne rap
Ġlanoitid da
Ġy lia
Ġo ediv
ev er
Ġw as
Ġs po
la S
Ġde m
ff O
ma h
Ġevit isop
na l
Ġsp leh
se mit
yl tne
puc co
gno C
Ġtsa E
Ġgnit ce
sor c
u la
Ġde niat
Ġnoit nev
lp moc
Ġesua ceB
Ġgnik ool
Ġre tsi
sse m
mu n
ni L
Ġdra ob
Ġtsi la
po da
ni k
Ġsa g
le ef
Ġdae tsni
Ġy no
ar sI
Ġtne icna
9 2
D I
3 102
Ġx elpmoc
k oob
Ġse moceb
Ġre dne
Ġes nes
lev on
Ġre pap
r co
s rot
ne ra
mi S
Ġda or
Ġhca orppa
Ġeru sne
Ġylt cerid
lf ni
Ġel citra
Ġre gral
b ed
h d
Ġe ne
Ġgni naem
Ġgni moc
ti n
ri g
Ġ6 1
Ġgni poleved
Ġt cerid
Ġgnit teg
se J
uo t
utits ni
so J
i M
Ġsec ruoser
ne mow
Ġna moR
na pS
da orb
Ġsk ca
gi b
Ġst niop
C A
cid erp
Ġht e
li M
lo S
Ġhsi f
Ġdewo llof
Ġde rapmoc
pa da
Ġeg roeG
rtsinim da
Ġsema J
cih ev
j a
Ġdra dnats
ni mod
i G
Ġeva g
tna vda
Ġst o
Ġdeti mil
Ġna lp
lo f
Ġsnoit seuq
ida naC
u D
tse vni
ruj ni
Ġde g
nois sim
ne H
a ew
orts ed
y d
on A
Ġs niatnoc
Ġs htnom
Ġy rot
doo w
co v
teg ev
Ġde dda
k eew
Ġna S
Ġyl gni
Ġralu ger
re J
cep ser
4 002
hc rA
Ġgnid nuo
u gni
Ġdni heb
Ġwo leb
Ġhci r
y el
sne s
Ġese napaJ
Ġde noit
Ġsuo igiler
' m
sse nisub
eu Q
ma ti
Ġgni od
mi nim
Ġel yts
ta L
Ġse nil
Ġse b
Ġeti uq
Ġelp itlum
ve let
ma c
tnem norivne
do G
wo llof
Ġs I
uo L
Ġkca l
o G
er tS
Ġtce torp
wo lf
g nA
Ġ H
er C
Ġsla udividni
m moC
hci R
Ġyl hgih
Ġeta virp
u lav
Ġgni m
o lf
li p
Ġ lia
Ġm ubla
Ġla noisseforp
Ġyl p
hc eT
Ã ¼
si ced
Ġnoit ces
Ġlaci mehc
Ġnre tseW
ere hw
Ġese nihC
Ġna cirfA
Ġera hs
la C
ic ne
ca M
Ġyltne rruc
Ġgnin nigeb
Ġeri uqer
Ġsi sylana
Ġsla mina
Ġnev E
Ġ U
Ġna em
e uq
i vo
cej bus
Ġenil no
Ġno brac
c nu
ord yh
i S
ĠA N
Ġdi vaD
Ġe rif
tsis sa
Ġ: )
la B
sse ssa
or c
ere hT
de v
Ġeu rt
Ġn ruter
f rep
s lli
Ġtce p
Ġy c
1 002
thg ir
Ġdna h
si me
Ġreht onA
murts ni
Ġev ol
wt fos
ne B
Ġg na
Ġfles ti
ca pac
Ġ3 1
se ci
Ġgni vom
Ġev res
Ġstne ve
Ġta e
e ka
Ġs serp
Ġcif itneics
mo m
er F
e man
ro ti
illi b
Ġ hgiH
dnu h
Ġy sae
dra g
Ġa es
Ġ ga
Ġtnemtrap eD
Ġo N
Ġedis ni
Ġf O
Ġmo d
noita mrofni
Ġni ks
k roY
Ġno os
Ġs loohcs
Ġdoo w
Ġde ne
Ġsuo iverp
hgi en
nim irc
tne v
ci lf
ici ffo
te ba
Ġylrae n
t erp
Ġse di
Ġdio va
Ġdewo lla
Ġsuo maf
Ġyllaci pyt
Ġt og
tom orp
roc s
noi siv
2 002
bm ys
va s
Ġsrot caf
pec noc
ve R
Ġseru taef
Ġnoit seuq
Ġte kram
u L
Ġt norf
o wt
ne S
Ġnoit curtsnoc
Ġ r
er T
y ek
4 102
y lana
Ġeruta repmet
rbe lec
C I
ta lp
n seod
Ġla ut
us sit
ti hcra
luci rga
C B
mus noc
rev noc
mix orppa
Ġes nopser
tsa p
zit ic
hc rup
rae L
ruo t
Ġsec rof
ruc ca
Ġsla iretam
Ġna ira
Ġta eh
0 991
k S
Ġe na
Ġs niamer
Ġ0 4
ts noc
ula ve
Ġslli ks
Ġenim reted
s di
le f
g E
sa m
Ġeno emos
Ġtca tnoc
Ġa idem
ya M
Ġlaicna nif
tir B
Ġe ussi
Ġgni rb
y limaf
Ġs ruoh
Ġlaitne sse
b O
3 002
Ġrae ppa
Ġde raeppa
nu S
s ts
Ġsev ita
le R
si pe
il c
v orp
Ġdezi la
Ġm ia
ni lc
so lihp
Ġsk oob
Ġevit ce
re V
ne mo
Ġero M
D A
Ġna itsirhC
ut S
00 1
n g
re z
sop xe
stne duts
5 102
Ġs rev
gno rts
Ġyti srev
Ġsts itneics
tsa E
Ġmu i
v on
de corp
Ġ xe
Ġlla f
te mo
ro ps
cca v
Ġtnem norivne
mo tua
me D
re de
Ġlarut luc
Ġde gnahc
Ġs l
Ġi a
Ġtcej bus
ts rif
cni tsid
Ġno saer
y rots
Ġs pah
mo tsuc
noit cnuf
Ġna e
Ġdlo t
Ġgno s
Ġlacit irc
gni ht
ro P
hca orppa
Ġre f
Ġhca E
e gnahc
Ġht ron
Ġm ah
ru S
lp pus
y eb
Ġla mina
y cne
Ġthg in
Ġli os
sim orp
e tis
Ġtneme vom
Ġtu c
Ġret tam
Ġe to
Ġgni yalp
ya p
u darg
Ġri ehT
p O
Ġna ilartsuA
Ġnoita ti
hsi f
0 8
Ġrev iR
Ġa ma
Ġret ca
0 6
Ġy ar
do M
ta M
a na
ir g
Ġder ut
yti c
Ġst I
pe ek
Ġred rO
ht raE
Ġf ei
nwo t
Ġyli sae
ba rA
e li
Ġne erg
Ġa t
Ġyl er
5 81
u M
yti liba
Ġ7 1
do T
Ġred isnoc
Ġ4 2
l snart
Ġt cA
s dra
loh oc
Ġluf sseccus
Ġyllau tneve
Ġo D
Ġo ga
a L
tne s
Ġse o
or f
Ġs dohtem
nev noc
nor hc
Ġs b
Ġ1 2
Ġnrets ew
ah S
s ma
ga mi
Ã Ń
Ġec namrofrep
rt xe
le D
ni ma
bo m
Ġdet niop
hgua d
yti srevinU
re ti
Ġsme es
Ġni w
yo R
n hoJ
re T
Ġylia d
su j
meda ca
Ġkca lB
luc lac
e vo
cilf noc
Ġre yalp
Ġs lle
Ġro op
Ġsei napmoc
nuo M
Ġwo lle
Ġhca er
Ġeuq inu
Ġsre bmun
Ġde dra
Ġecne icS
Ġtne tnoc
Ġsev ig
gu rd
ce lom
Ġsd ro
ila tI
Ġwo lf
Ġla ro
pu S
ira M
ir T
vres bo
Ġelb isnopser
Ġna idanaC
Ġse il
sa hp
re k
z ne
ta repmet
Ġetutits nI
le m
Ġecne ulfni
re ser
Ġpihs re
Ġwor g
Ġnoit netta
Ġega mi
Ġylno mmoc
Ġpo ts
Ġhsi weJ
Ġre ffo
Ġtxe t
Ġdek sa
Ġro htua
Ġes uoH
tnemel pmi
s yad
Ġsre k
lla w
va rg
Ġfles mih
s dnal
utits noc
rts u
re serp
geta c
Ġs margorp
ht rae
Ġhtuo s
Ġdev il
kca tta
a C
c ric
sd row
Ġsre n
Ġnev es
Ġreht af
e caf
Ġp ets
sa w
Ġden ruter
ir F
Ġere H
or ht
cna rF
Ġsna i
py gE
Ġmu e
e Z
na rb
6 102
Ġt cudorp
Ġa ta
e K
Ġsti feneb
Ġde drocer
Ġra los
Ġa id
tir ret
Ġde nepo
pso h
y eht
Ġrevo c
Ġecne reffid
ro lF
er iuqer
y C
Ġlai ciffo
ruo J
a tad
y duts
ne ht
Ġega mad
Ġa re
Ġlarede f
te M
Ġsre d
Ġhcru hC
le veD
Ġdaer ps
Ġy M
Ġh su
Ġy rtsudni
na v
Ġpihs noitaler
Ġra g
Ġg u
sei ceps
Ġe et
Ġgniv ig
xe T
Ġf f
lo V
Ġegel loC
no saer
f orP
Ġd nim
rut cafunam
Ġse mag
T S
0 891
h ne
Ġke erG
or B
Ġnoit i
Ġytiru ces
ivo S
Ġdnuo s
Ġela cs
Ġretca rahc
ev ita
Ġeno ts
Ġde dnuof
Ġyte fas
lu sni
ru ta
5 3
ci V
dna b
Ġro ti
Ġgni saercni
Ġelpo eP
kca p
Ġtne ve
ma S
Ġtsa e
la p
Ġdemrof rep
se da
z z
Ġylev it
t caf
tse rof
so R
Ġdet cepxe
Ġgnita erc
du B
Ġytiro jam
nret tap
Ġeti rw
n hceT
Ġre tneC
Ġlati gid
Ġyl tsom
Ġeta d
Ġssa m
Ġya dot
ih C
es ruoc
Ġsev il
om s
Ġgni da
Ġdec rof
Ġto N
Ġthg ie
Ġni geb
Ġsuoi res
Ġkrow ten
Ġerof ereht
a pmac
yle ta
se irtnuoc
l si
Ġyl kciuq
Ġse ti
Ġa ciremA
Ġl ua
Ġs rae
Ġec nO
Ġro loc
Ġyro eht
Ġecne ref
l lA
reht e
Ġde cudortni
Ġdelli k
xe t
4 81
ta P
tna lp
Ġse calp
Ġde revocsid
Ġre dna
Ġre llams
tu c
no L
Ġtce ffa
Ġlle t
Ġsel rahC
mu lov
stne me
sop rup
Ġse da
Ġs raeppa
Ġser iuqer
Ġse og
Ġsd oo
rae n
Ġnia p
lo ser
Ġde eps
noit ca
Ġe gna
n s
p leh
Ġ2 2
Ġte em
Ġgniy f
Ġtre boR
pi ci
Ġe erged
noitid da
x at
Ġhcru hc
Ġyf itnedi
Ġde veileb
Ġre l
du lc
7 102
Ġla og
Ġlar tneC
Ġsa edi
li ar
Ġnoisi velet
la ci
geta rts
ls I
r M
ci l
a idnI
Ġo wT
Ġ go
Ġy hW
Ġgni si
m elborp
ew s
Ġre tirw
Ġlaci rotsih
Ġde nioj
Ġe fas
y lev
Ġyl b
tu p
vres noc
mo ta
elb issop
Ġtse hgih
na D
Ġgni hcaet
Ġniat noc
ruo y
Ġd da
Ġdet naw
da ets
pm E
Ġdeir ram
sa B
ci de
Ġna issuR
is rev
Ġerut luc
Ġega ts
6 3
ef ed
meht am
Ġgnik a
id los
Ġya p
nia tsus
sa era
Ġnoitid noc
ae T
l it
uo rG
00 0
a ni
Ġevita gen
Ġa r
sm elborp
E R
Ġy cilop
a ht
Ġgni moceb
Ġgni divorp
Ġgni la
uqes noc
Ġstneme le
Ġ Y
Ġ; )
parg o
tu m
ma il
Ġgni zi
hg il
ni s
Ġno inU
ri m
Ġra c
se n
tnem poleved
Ġeta irporppa
Ġa idnI
Ġsec ruos
Ġyleta mixorppa
ni mo
de su
Ġeuga eL
lo hcs
d leif
Ġeta rapes
pm yl
po leveD
Ġ6 002
Ġre tnec
uo m
Ġe sir
Ġlla hs
t elpmoc
Ġt nuocca
ep er
ne hp
tse v
ah ciM
s metsys
A C
Ġdec nuonna
Ġ rucco
lov er
t no
Ġyc neg
Ġgnin nur
Ġesa b
Ġwo llof
Ġela mef
e sac
p uorg
so M
Ġde la
Ġk eew
Ġlati pac
Ġelt it
Ġega p
tsa l
di ug
Ġgni mrof
va w
Ġde ni
Ġeva el
ra K
m ertxe
ve le
Ġli cnuoC
Ġder refer
ĠC B
po h
meda cA
Ġnreht ron
le i
hp som
li k
id om
gni ta
Ġ) .
t tob
Ġkca rt
se lp
Ġev iecer
lohoc la
u H
lu fe
Ġsser dda
ser ut
p U
Ġde niamer
ro T
noita cude
gi F
cer iD
xel A
Ġdna lgnE
Ġylla nigiro
Ġevita n
Ġya D
ih xe
Ġylla itne
Ġhsi napS
Ġylp pus
Ġesa eler
Ġyt rap
Ã ³
loo hcS
9 991
Ġe ert
ga M
t ce
la u
is nes
Ġka erb
Ġkca tta
le H
tta b
Ġdeir rac
" (
Ã ¶
ka erb
si nagro
Â °
ic erp
e F
i x
Ġse uq
cif iceps
ser f
Ġnreht uos
Ġde sserp
ca s
ru F
0 791
it ua
dna lgnE
Ġtne dnepedni
Ġyt nuoC
Ġse sa
ni d
rts a
rof moc
va N
Ġde ssap
Ġdedi ced
Ġgni tsixe
Ġse tis
thg in
Ġdewo hs
Ġrehto m
I H
er if
s yas
Ġniam er
Ġgni b
y H
d erc
Ġgniy rt
Ġsre ht
Ġred lo
x ot
Ġe lu
Ġde revoc
0 7
Ġgni yl
se cna
Ġ W
Ġ X
la ew
Ġde nifed
weiv er
er B
0 9
s yaw
rg orP
v ic
o re
ĠV T
y lop
gre me
Ġte ef
3 3
ega ugnal
Ġylevita ler
hg if
d rof
ca ps
Ġyle telpmoc
Ġlla revo
Ġelddi m
Ġsa mohT
s E
Ġlufe su
r ps
na muh
Ġnoita lu
Ġd los
Ġye v
Ġht raE
Ġlua P
ah s
Ġtnem el
le w
Ġe eS
i P
Ġ5 002
ro ht
Ġden rut
ba L
a danaC
sser dda
Ġni etorp
ed u
Ġ0 002
tnem nrevog
o ps
im S
Ġte ivoS
ig eR
Ġlaic remmoc
ht ron
re tse
y hp
at ta
f if
de ec
nod noL
Ġla ed
Ġylla cit
re me
j da
ir ram
Ġeda rt
h er
mra w
ng erp
w w
mati v
pa hc
Ġdet tim
Ġa nihC
M A
Ġera wtfos
Ġyra rop
Ġe reves
Ġgnid ra
Ġdet cele
g ir
ro lpxe
Ġ +
Ġla yoR
Ġdra wot
eer f
lc yc
re tne
Ġsre hcaet
Ġsuore mun
a nihC
Ġes ne
Ġdno yeb
Ġtpec noc
Ġse g
ret fa
Ġdeif itnedi
Ġde dna
Ġega lliv
da r
Ġnoitce lloc
rd lihC
Ġecna tropmi
x if
rtsu lli
e se
Ġde ma
Ġde hcaer
is nart
tnec rep
Ġe ceip
Ġri A
nois serp
Ġsd oof
Ġro od
Ġk cor
s noi
Ġsdi k
sser ts
Ġgnit rats
Ġ ua
teba id
lu B
l uo
sac co
roba lloc
81 02
noit isop
Ġtf arc
yti nummoc
Ġdetce ffa
pa cs
Ġnoit rop
Ġrem mus
se sac
l row
ros ba
s noitidnoc
Ġsser ts
lla tsni
d ir
Ġluf rewop
mix am
N U
Ġym rA
Ġs us
Ġna mow
na elc
di cni
Ġre ilrae
ce lE
se id
Ġsna ciremA
Ġ00 5
Ġmo hw
y xo
Ġyl niam
Ġpe ed
Ġstne serp
P A
Ġesi w
bu S
me R
Ġecne serp
d nif
Ġtsa c
Ġht oB
rif noc
ral ced
ra D
hp e
Ġyrots iH
Ġe nummi
rehte got
Ġdeta mitse
uqes bus
a ma
Ġti siv
va n
g nE
llo C
Ġylsuo iverp
Ġevit u
d nim
Ġm ees
Ä ģ
Ġelba ti
Ġno r
Ġde cuder
8 991
t lu
Ġrev ir
s tsi
te p
Ġy rd
re M
Ġt em
Ġyr neH
Ġe ye
Ġk cehc
ri p
Ġnab ru
Ġgnita e
cart noc
Ġngi erof
n re
ci deM
Ġtne itap
Ġst roffe
D C
s llec
revo cer
ro loc
Ġdet cennoc
Ġgu rd
sna rT
Ġs loot
ce fni
Ġdep leh
pmyl O
u j
Ġtne ps
Ġsse ccus
e eps
Ġ3 2
Ġnreht roN
Ġdei lppa
tsa f
Ġniat niam
N E
fe i
pe ed
mi le
ici ffus
ler I
Ġse ka
Ġeso ohc
te R
r C
Ġdesi ar
Ġde R
H T
7 3
h pa
Ġn gis
ah C
Ġra elcun
Ġde dnuo
lum is
u los
s so
Ġden wo
ta N
re cnac
eru saem
ru tan
ta erht
Ġsei limaf
hpsom ta
wo hs
Ġt nia
Ġse lim
) .
cep S
t or
g ga
Ġesop rup
e so
Ġne d
ia f
Ġyte icos
el f
da M
a ilartsuA
rb il
noriv nE
Ġ boj
Ġnoita col
ht uos
Ġy vaeh
Ġsre ffo
8 3
dno L
Ġre erac
mu S
Ġep oruE
Ġya ts
ruo b
Ġrot cerid
Ġre wsna
u R
re bme
Ġa n
Ġyti nutroppo
Ġna ilatI
y M
nna hc
Ġgniht on
Ġyltne cer
tsa oc
is se
Ġs wen
Ġcit eneg
c ra
Ġsk na
Ġyle diw
Ġda b
Ġa inrofilaC
Ġcilo htaC
L A
uq il
4 3
Ġlau nna
itna uq
Ġno dnoL
ic sid
n did
ru m
y namreG
Ġk lat
cart ta
Ġhcrae s
ci hC
Ġno si
Ġdet roppus
Ġes U
Ġnoitce torp
Ġ0 02
Ġyti ci
Ġeru gif
Ġeru saem
Ġse vael
Ġ0 6
r E
Ġde tneserp
Ġti m
roproc ni
po ts
Ġne hT
y re
Ġse lur
Ġste g
o lpxe
Ġnoita cudE
te k
s ra
n ruoj
ram irp
Ġde divid
Ġdl O
Ġse t
Ġhtgne l
ni ar
Ġspah rep
Ġseiti nummoc
Ġera wa
Ġeci ffo
Ġwo N
Ġta ert
91 02
nut rof
gni S
Ġyt reporp
Ġe grahc
Ġnoita cilppa
Ġt ruoC
0 691
Ġela m
ih sa
b moc
7 991
tso h
li F
ne cs
Ġot no
Ġ id
Ġle ahciM
Ġnoita repo
e mag
r hT
Ġse la
sser P
ro H
Ġseta r
wo leb
pici num
no sirp
Ġnoisi ced
Ġti feneb
Ġ ca
hc rae
Ġk raP
issa lc
ro B
nep xe
Ġse ig
Ġtnedis erp
i k
Ġgni niat
Ġti nu
Ġsre krow
Ġeg dirb
elba t
ro l
ma H
Ġreve wo
s n
golo nhcet
noitu love
Ġrep orp
ĠAN D
Ġnoita icossA
sahp me
e hw
Ġgnit luser
Ġlanoita cude
de b
ri B
Ġdeta ert
Ġecna tsid
Ġse ert
le arsI
a inrofilaC
Ġgniht yreve
Ġdet elpmoc
i lo
us sa
Ġna r
llo F
da ol
Ġgni rae
lat I
na rg
emo S
Ġt pe
Ġgnisu ac
Ġe e
T I
n si
le tni
uo Y
Ġno illib
sne d
te P
Ġs rucco
Ġ4 002
hc na
de erf
Ġli vic
ics noc
Ġedo c
Ġdecalp er
Ġci rtcele
ri A
doo g
lo t
s sA
a cirfA
no b
Ġse man
te B
Ġgnik niht
Ġa l
ecna rF
gg e
s si
ce tihcra
nag rO
Ġsega mi
x is
ih S
Ġtcirts id
mu gra
Ġle uf
mit s
1 3
vi C
lp s
reb il
Ġda ol
Ġt id
oo B
yo j
y rev
e lo
Ġsu seJ
mo b
o h
Ġgniht yna
ni W
la g
noipma hC
Ġsi sab
Ġse si
y grene
u e
Ġy cna
cirts er
Ġselp maxe
oo c
e moc
von ni
i lp
Ġseit ic
Ġtse B
Ġs niat
Ġnoi su
Ġnoitu los
Ġs wal
la G
gnar ra
Ġseu lav
Ġtsa f
Ġo idar
v eler
ts oc
rob hgien
6 991
Ġ3 002
d lihc
Ġs ria
hsi lgnE
R O
yti C
Ġgni tset
ica P
Ġsya lp
eca ps
mra h
Ġeca r
Ġsdna suoht
le dom
Ġt ruoc
ne erg
ro bal
Ġla tem
Ġe tsaw
er ced
it er
Ġretsi niM
mit lu
noita lupop
Ġder ref
ci sum
Ġde solc
Ġse lu
Ġyle mertxe
Ġdet cudnoc
ne et
le S
cep sa
Ġla uqe
le M
nu l
Ġnoitazi nagro
el loc
Ġde mialc
Ġsk eew
Ġeti hW
cilp moc
Ġllab toof
k raP
Ġdro L
nim ret
Ġro ivaheb
Ġs li
it rap
Ġsna muh
__ __
Ġ, '
Ġte id
rap pa
at S
5 4
Ġs ht
Ġyro mem
5 991
s krow
Ġht rib
Ġe lur
Ġdra hciR
nu p
Ġgniwo lla
Ġpe els
Ġht row
ĠK U
Ġesi crexe
Ġnoita reneg
nam rep
y am
Ġsn gis
noita zi
02 02
Ġbu lc
Ġsecne reffid
Ġk ni
om orp
O R
te kram
rots iH
Ġla itini
Ġt pmetta
te pmoc
k e
lu v
Ġde ya
Ġsts et
Ġa danaC
Ġet on
niat rec
Ġre dael
st nalp
pm usnoc
Ġlaico S
me ne
eta rts
Ġtso p
Ġse d
Ġdetniop pa
r y
ti rips
Ġdesop orp
ni po
oru en
Ġyli ramirp
Ġto h
i uq
lo oc
pa ps
de ef
d liw
Ġlau xes
cirts id
Ġse ir
Ġeci lop
te id
Ġy hpargo
E L
Ġetip seD
cit irc
ca xe
Ġsetu nim
Ġemoc ni
Ġde ret
b ma
noit seuq
Ġmrof rep
Ġs pa
ra n
Ġtnem nrevoG
Ġy gre
Ġyti vit
co L
Ġdet on
Ġs it
SA N
le gnA
Ġ |
ci r
Ġyli ra
Ġde tsil
Ġyr rac
liv ic
u at
mu loC
Ġf fa
lo si
Ġ Ã©
Ġy ht
ru n
retta b
tu D
Ġrep pu
Ġtpe k
dl uo
ygolo nhcet
wa L
Ġp mu
Ġro irp
Ġdne t
nu lov
ti ug
lu geR
ta W
Ġde lle
Ġetip sed
Ġd uo
9 3
Ġev as
Ġ ir
Ġna muH
Ġeda rg
Ġweiv er
eer ht
Ġre hcaet
sp uorg
ma F
Ġyti capac
Ġthg if
Ġtcej bo
Ġro n
Ġevei hca
Ġnoita nibmoc
Ġrot cod
Ġnoita cinummoc
ila uq
a n
cita mehtam
lo raC
si retcarahc
Ġk ram
ffa rt
Ġtso h
c si
Ġdedne tni
Ġ â
y en
i red
Ġrete P
x ob
pac se
Ġre H
Ġtuo bA
Ġgniv res
de hsi
eru tuf
va l
Ġeciv ed
nig riV
dis erp
z arB
Ġdenoit nem
Ġegel loc
Ġdnal si
Ġli viC
u en
Ġ Ã
Ġti h
Ġre su
ita r
Ġci medaca
ht iW
Ġgni gnahc
mu cric
lsi gel
Ġht nom
Ġsu tats
Ġre tne
Ġelddi M
Ġerof eB
Ġeg uh
c rof
fles ti
ni arb
Ġci nagro
Ġret tel
li S
Ġsse ni
Ġse icne
se hc
n ni
de hcs
la eZ
Ġdere ffo
di cca
yna pmoc
O I
Ġst cejbo
Ġ6 2
na P
p ircsed
nopser roc
t luser
te N
t O
Ġffa ts
co lb
ll or
Ġnoita utis
di rolF
Ġsre dro
cilbup eR
Ġtpec xe
Ġdlo g
yte icos
Ġseuq inhcet
Ġ8 2
g rus
le ht
ni mile
pa ew
sse v
Ġx o
Ġyltne uqerf
Ġevita nretla
y ortsed
Ġla utca
Ġsd loh
Ġgnita repo
Ġt roffe
Ġyle gral
Ġna ici
Ġeka L
Ġecne refer
co D
Ġnot gnihsaW
Ġmia lc
Ġloo t
Ġsle dom
Ġt reb
ci N
P E
edu lcni
Ġk nil
Ġlan ruoJ
sita ts
Ġgnis U
Ġsna lp
Ġst hgi
de wS
Ġsd rib
t orP
wor c
Ġsts isnoc
ve L
Ġseru saem
v orpmi
rots er
oo G
Ġy k
se b
Ġci lbuP
t oo
mit po
Ġden rael
Ġreta W
Ġsu riv
Ġla no
Ġsts oc
ero K
Ġylla nif
Ġdnuo r
se lba
Ġsd raw
Ġdi ca
lu C
cide d
Ġek iL
ya wa
ra S
her pmoc
civ reS
Ġgni vael
eh S
Ġgnik ca
Ġdoo ts
sop po
Ġgni tseretni
Ġseid ob
Ġs tseggus
Ġyltna cifingis
ylla ci
doo lb
dnuo b
Ġk rad
i T
Ġsei rots
Ġyte icoS
itua eb
ts ug
Ġdevres bo
go la
Ġlaci nilc
Ġst cejorp
Ġe id
Ġlan retni
Ġeru sopxe
y ca
Ġne et
rd yh
Ġ J
Ġepo h
Ġni taL
a R
Ġssa p
ubir tta
Ġt ni
Ġla irtsudni
dni W
Ġe pahs
hc o
ti w
Ġs pets
dnuo F
evo ba
di k
Ġsre su
4 991
Ġde nimreted
Ġy rtsi
tro m
p il
ceps rep
Ġef iw
Ġlai ro
Ġyleta idemmi
tu B
e sab
paps wen
Ġ bo
py T
Ġ ih
elp pus
ort cele
Ġa ci
Ġtse ggus
Ġeru taef
ce lloc
ne D
en gam
Ġstne dutS
seit ivitca
ix na
Ġgni z
tnem taert
Ġecna rF
siv da
gni l
Ġrag us
S C
tim moC
Ġt cerroc
Ġle vart
Ġs dael
ga naM
Ġtsi golo
Ġma erts
Ġn ret
Ġdel lortnoc
Ġst rop
A N
Ġd loc
si V
Ġrot ca
Ġgnidra ger
s nois
trop er
Ġeno yreve
Ġse cived
sei res
vom er
ti p
o na
seta ts
Ġgni dneped
Ġla m
Ġd la
Ġdeta ts
Ġnia lpxe
g erg
Ġyl ppa
ne P
Ġdraw rof
d ub
mi ger
h K
se mod
Ġe neg
' s
wo ls
se u
Ġtse rof
ria f
Ġtse g
do ht
Ġdek nil
Ġecna hc
ba B
ka P
sir c
sro ta
sei ro
tsi m
Ġdni w
Ġ) "
ti L
Ġevom er
ces ni
ti f
Ġrev O
ma lsI
x O
mu t
Ġy mra
Ġgnit ca
ssa m
rb iL
la iceps
st cudorp
pirc s
Ġni l
hp so
Ġ7 2
erut curts
s red
er ces
dne mA
noitid art
Ġnreht uoS
Ġk cu
ps ni
à ¤
sa vni
di fnoc
va c
Ġgnite em
gni v
Ġeni hcam
Ġse saercni
Ġnrets ae
wa H
Ġai retcab
a H
s htnom
us serp
C P
hg ir
s level
Ġe tomorp
tne mucod
Ġs dnah
p mu
j aM
do g
txe t
sgni ht
i N
Ġdecna vda
pi p
mad nuf
ne go
dna rg
Ġrot caf
Ġnia g
Ġsi so
Ġynam reG
Ġeb ircsed
Ġdet cerid
Ġtneserp er
Ġcita rco
Ġse ssecorp
gni d
Ġtsu J
nem id
s pihs
pah C
or T
cit s
5 7
to h
mu loc
Ġgni g
noit cudorp
le vart
Ġeno b
Ġgni niatnoc
Ġecna lab
Ġ il
py to
ni mu
Ġsre dael
t cejorp
or C
ci n
gg u
erd nA
Ġst luda
me tnoc
Ġdna med
me T
yti vitca
pec xe
s de
ecne ics
er i
Ġci hpargo
Ġnoit ubirtsid
su h
no si
Ġde iduts
du J
ev rus
hpo solihp
Ġde nibmoc
nuo Y
y rtsudni
noita ts
Ġt luda
s to
Ġmue suM
Ġde tneserper
0 81
ma et
e po
ni v
redro sid
Ġgnir ps
Ġo r
lu mrof
pacs dnal
nal tA
Ġe a
Ġnoitce fni
Ġyl thgil
A R
li uB
i cif
Ġsev lovni
seci vres
ssa M
Ġseiti liba
sa g
Ġero c
ir ht
eru tan
Ġyt raP
0 591
Ġgni nepo
Ġdehsi nif
dlo G
Ġsre fer
Ġcilbup eR
so hc
k ni
Ġy oj
pe els
Ġsni geb
es le
ort noC
Ġdno ceS
Ġdecne irepxe
Ġlai ci
ema rf
ar G
lp icsid
Ġa ilartsuA
ingo c
Ġ0 102
Ġre fer
Ġeltta B
ir C
Ġsre yalp
ne txe
al s
3 991
o va
Ġst roper
lb me
hcru hC
erut luc
Ġgnidnuo rrus
Ġdetce les
Ġhc tam
utits noC
Ġyra ni
Ġeci ohc
Ġesi ar
Ġsti nu
cud ni
cif it
Ġcit salp
Ġd n
Ġgni cuder
g la
gni m
Ġgnid nif
se t
us rup
Ġeci rp
Ġna elc
Ġnre tsaE
Ġtnem piuqe
Ġ levon
Ġte grat
sulc noc
lle ta
el P
llo d
llec xe
Ġst cepsa
la f
Ġx at
Ġtna em
sla mina
Ġd raeh
lu s
srev inu
in ne
itne icS
Ġthg uat
reve S
Ġsgni dliub
Ġb ew
ta f
rgim mi
Ġhca et
2 3
htgne rts
Ġdesu cof
Ġdoo h
id ra
ret nuoc
za gam
ht rib
ya D
Ġsser gnoC
dna tS
Ġcif icaP
Ġelc sum
noc E
rot ciV
calp er
Ġsdne irf
Ġeli f
rev iR
g ooG
a hT
Ġde li
Ġti urf
Ġse citcarp
ro vaf
Ġlaci deM
e cit
Ġde irt
sa p
Ġde rahs
Ġkoo B
Ġa rtxe
Ġreht aew
Ġse unitnoc
t raM
Ġseiti la
z ah
lo ba
Ġret niw
2 991
s sorc
Ġt lef
Ġde tset
Ġgni peek
Ġ9 991
gni re
Ġe il
Ġret hguad
Ġe rA
do c
Ġa cirfA
mets yS
E C
uc ric
Ġgnit tes
it nA
gno leb
ida R
8 4
lu M
Ġy pareht
or tsa
Ġrosse forp
Ġde tseretni
Ġde tseggus
yoj ne
lle W
nu g
tne g
rev op
sa t
so c
Ġsno iger
Ġse saesid
yt nuoC
Ġev ird
Ġlau siv
op yh
uo rt
uqe da
Ġgni niamer
tna tropmi
s po
Ġeu lb
de p
cu rc
sita s
Ġy medacA
Ġera uqs
Ġdet ca
ta erT
re pap
A S
Ġsro ti
Ġ god
ugni tsid
Ġdia p
Ġa y
eu ga
Ġh sir
Ġlau su
rp S
ylev it
kca J
m lif
Ġlla w
o L
x elpmoc
Ġdez ingocer
Ġsno saer
tsi kaP
uo D
Ġsdro cer
Ġg iB
Ġla noiger
Ġsev it
Ġeltta b
1 991
Ġ xes
f noC
Ġlaci nhcet
Ġ ba
ts eb
mo nocE
Ġs ub
Ġnoit cennoc
Ġnoisiv iD
se su
Ġso L
se ussi
Ġla nret
Ġna paJ
Ġsnoita lugeR
tsug uA
Ġero ts
Ġyl nO
Ġtnem hsi
re C
Ġeciv reS
re neG
u gra
reh ni
Ġnoitu love
de ti
fe D
Ġdevom er
Ġyl raelc
Ġos lA
Ġgnip leh
Ġylt caxe
lo bmys
Ġgnin nalp
rru C
Ġhtuo m
utits nI
bu lc
erof erehT
Ġna C
wo b
Ġtse taerg
Ġte ertS
os lA
7 9
Ġ1 002
Ġnoit curts
C E
man yd
Ġgni tne
lo co
Ġs nur
b ba
da ed
Ġgni cna
hta erb
irts uA
ser P
Ġerut cip
Ġef iL
red nU
Ġsi r
Ġa L
Ġseit reporp
llab toof
Ġw ard
gni f
Ġhsir I
Ġy tne
nemo nehp
na e
re yalp
Ġto hs
Ġgni cudorp
Ġrebmem er
Ġei vom
O N
lia R
Ġh pe
iw s
Ġre tse
Ġht ruof
Ġy monoce
Ġgni ni
ma id
ek il
Ġg reb
Ġtne lav
i limaf
se k
slli ks
Ġgniwo lloF
Ġdoo F
Ġecna tsiser
Ġ7 002
Ġseiti nutroppo
v E
7 4
iv bo
Ġ1 102
tsi nim
Ġlarede F
Ġpu C
ig roeG
Ġevita ler
Ġega tnavda
ci mehc
Ġhpe soJ
tu O
me es
Ġsnoita repo
p orp
rev O
Ġnoita erc
ir A
Ġe B
Ġeni ram
Ġnoit cele
Ġyra M
ts ed
Ġmo ttob
Ġt oof
Ġ9 2
D P
ra lupop
Ġyra dnoces
y li
Ġelbi siv
Ġ c
Ġni mativ
Ġsd er
Ġri S
Ġsdra dnats
ecna tsni
ma rd
Ġdedne mmocer
.. ..
snoit ca
Ġcit eht
r hp
ru M
5 5
Ġeta lu
erp retni
Ġtcep ser
Ġde ve
se lo
Ġsnoita cilppa
lati pac
Ġo ni
to v
Ġdek ool
nu H
Ġeni n
Ġde ganam
Ġlaru r
Ġruo h
Ġs weiv
Ġlaci p
Ġten retnI
nera wa
Ġetis bew
ne erG
Ġ8 002
Ġrei sae
nim orp
Ġm e
Ġci norhc
a rts
sec ruoser
u l
we ner
nar T
gnin rael
reb iL
Ġtce frep
Ġx ob
i uqe
i le
Ġpo hsi
Ġe mulov
Ġlaci rtcele
e yolpme
hcrae seR
Ġra ts
sy hP
Ġsma et
Ġtne iciffe
not gnihsaW
tse T
li o
Ġs weJ
Ġdet poda
s loohcs
ya doT
Ġta f
l ys
Ġs gurd
Ġtna veler
z o
f nI
Ġgni di
va H
rep yh
Ġdedne txe
ut roP
Ġsk ool
s l
Ġylla cita
Ġhc uS
did nac
rep O
Ġdek ram
Ġtne dneped
nne P
dnuo s
ti ws
mail raP
Ġdesop xe
Ġytisrev id
Ġderu taef
Ġedi ug
re dom
Ġlaci pyt
vit om
Ġ it
Ġeta cidni
Ġeso hT
Ġssa lg
4 4
Ġ2 102
Ġyl hguo
Ġsnoit cnuf
P C
reht af
Ġse ton
M E
Ġs retcarahc
Ġnoita n
si mmoc
Ġyl raE
Ġgniwo hs
se tu
ci ped
Ġdna rG
Ġnoit cerid
s b
lc y
rra n
ht roN
Ġgni cne
f lah
Ġa k
se ira
pa P
Ġdev ired
rt uen
Ġlarut lucirga
Ġle n
Ġdelli f
Ġtfarc ria
di par
Ġylthgil s
dne t
Ġk aeps
ut riv
Ġs nrettap
p ord
to c
elba liava
na pxe
Ġeno yna
su hT
Ġt nirp
Ġsuo neg
Ġne erG
dna r
itne d
mo W
Ġtne iciffus
9 9
rehto na
Ġa tna
t erts
Ġdev orpmi
Ġda ed
Ġl lu
ir O
rev da
tro psnart
Ġelba pac
ha M
Ġ8 991
Ġy de
Ġnret tap
ra lC
Ġgnin niw
gil letni
ec O
cud orP
la T
o lp
Ġti f
sev lesmeht
Ġsi seht
ru h
Ġfei hc
Ġgni gni
Ġdehc nual
Ġsla og
Ġserut curts
Ġelp mas
gg irt
Ġsk a
Ġst nuoma
12 02
Ġp uorG
Ġecna raeppa
vit se
Ġa ib
la reneg
Ġmu mixam
s ya
Ġna it
Ġse ceip
hd duB
Ġn ug
ca F
Ġsgni dnif
ua c
ram s
y rc
Ġre yal
vres noC
rev iled
Ġeru giF
se g
lli M
la iretam
Ġtsa eht
: )
no ga
ep S
eni gnE
roti nom
Ġt S
y so
r U
Ġpa m
v noc
ba tad
sop orp
Ġste s
lei y
m k
a S
Ġe ussit
Ġlacigolo ib
Ġst rops
na lP
Ġdezi nagro
y la
Ġs mra
Ġslle t
c nI
ro hs
Ġhsi lbatse
Ġhte et
Ġylb issop
Ġeno la
ra tS
Ġeno hp
me h
il la
tir W
Ġrosse forP
mu e
na moR
Ġycne uqerf
di xo
Ġtcirts iD
Ġega rots
ren luv
Ġstne nopmoc
rae H
ed iw
Ġreht i
Ġhtgne rts
l I
Ġgni leef
Ġsme ti
no z
Ġ0 8
Ġde sse
Ġhc tuD
ru C
Ġlanoit ome
wo lle
Ġnia rt
Ġde ussi
Ġse ye
za N
Ġdere tne
l luf
Ġdne s
ne R
Ġgni nia
ya lP
Ġlli k
Ġelc yc
sk oob
Ġdeta d
se mag
ne M
Ġfles ruoy
Ġdnal sI
sa elp
Ġlan gis
Ġde raperp
Ġn us
Ġyl bme
Ġcit engam
le hs
it ref
da b
y raM
Ġeni gne
Ġsthg il
fe R
Ġek aM
Ġedi xo
Ġylgni saercni
rt celE
Ġla b
pma C
ta hw
Ġro rep
lo hc
Ġs liated
ca t
ecne irepxe
Ġtnem poleveD
Ġem erp
rruc co
Ġde ef
a re
se m
Ġsd nik
5 9
no ts
hcru hc
t raeh
uq S
Ġdne irf
ra G
Ġde ppa
Ġdraw A
Ġera r
Ġs mialc
Ġkco lb
il s
Ġcit sa
nuo f
Ġse suoh
wo N
ez is
Ġega ruocne
dulc noc
Ġy tu
Ġyle solc
Ġo na
Ġn worg
Ġmsi la
is ni
nwo nk
Ġni oj
Ġci suM
Ġder dnuh
me hcs
xel f
Ġ1 3
dne mmocer
Ġnia hc
itna tsbus
Ġsa xeT
reht ag
Ġe gnellahc
Ġdeta cided
ic er
Ġeca pS
Ġ9 002
re a
Ġto or
ro op
Ġdela ever
dra G
Ġsd leif
Ġgni yas
Ġw erg
wor b
Ġspo ort
yl suo
h R
Ġeer hT
id rac
de R
co vda
sre n
sev il
5 6
ni ks
k cor
Ġt rA
Ġdetce lloc
Ġsro htua
ep pa
dnats rednu
k ruT
te iV
gre b
Ġse gnellahc
Ġy bab
Ġk raM
ar fni
l U
kca lb
Ġred nU
Ġgnid da
Ġstneserp er
ru d
Ġeuq inhcet
Ġedo sipe
reht om
Ġsnoita zinagro
Ġder rucco
Ġdet pecca
Ġk ees
hto lc
d row
su c
y or
Ġ. '
me M
Ġlaci sum
ts ew
Ġyrev E
g eL
Ġm ra
erof eb
Ġmod gniK
nuo cne
Ġdna mmoc
Ġy ub
Ġde sopmoc
Ġcit semod
Ġtneme le
Ġero lpxe
ren trap
Ġs sucsid
ĠI II
dna m
ht uoS
Ġret tal
w ef
Ġl les
Ġylla cificeps
Ġ hg
ri hT
lla rap
n hte
Ġk rap
eci vres
Ġeci ov
Ġci rotsih
Ġsre idlos
nalp xe
wo B
Ġde liaf
su J
s nia
9 891
Ġsecne irepxe
Ġo i
hci r
su B
Ġelb uod
cit rA
reht ruF
Ġredne g
Ġlli f
ro r
Ġht ae
ne ercs
htgne l
9 4
gni dliub
re l
Ġylla mron
Ġsser gorp
Ġem ertxe
nimirc sid
ht A
lleta s
Ġk nab
Ġnoita ler
no mmoc
Ġecna d
srev noc
c sed
uf er
Ġdet f
Ġt nioj
s draw
cilp mi
Ġnoitca er
noi sacco
Ġtsi xe
y B
Ġne rdlihC
Ġot o
Ġgno mA
Ġsder dnuh
Ġstna picitrap
oo hs
Ġdedra wa
nav lys
K U
Ġy da
ye nom
Ġrae h
Ġnoisserp xe
Ġdeniat bo
Ġgnit hgif
yso ce
Ġyalp sid
luci rruc
se ti
Ġngi apmac
thgi ew
Ġd liw
Ġeli bom
Ġelba niatsus
ya B
isse cca
rua so
Ġytici rtcele
v id
Ġlacit carp
Ġseb ircsed
Ġeso l
pi lihP
Ġeca ep
Ġgniy r
Ġega nam
fa S
y ht
le W
Ġdet curtsnoc
S M
kna rF
nidro oc
ma r
mus sa
e gral
s sop
sulc xe
Ġw aL
ll ortnoc
lc sum
Ġnoit pmusnoc
Ġse hsi
stne ve
cart xe
Ġelp uoc
Ġgni dna
Ġna v
lli w
Ġ00 3
too F
Ġgni ssecorp
Ġwo ls
Ġsel citra
Ġmo deerf
Ġhguo hT
rac s
re le
Ġdne ps
6 4
ecaf rus
Ġw ei
Ġlla H
uq a
Ġeg de
ev is
Ġ lohocla
Ġlanret xe
re tsa
ta e
Ġ3 102
te D
Ġdet luser
sla iretam
Ġluf ituaeb
a id
eg delwonk
g rub
Ġelba nu
nu M
mi L
noipma hc
or hc
Ġd r
se o
Ġesa hp
Ġgni ri
ff oc
Ġet ubirtnoc
s motpmys
tu pmoc
Ġtxe tnoc
Ġseig etarts
Ġ Â
Ġgni w
Ġa ra
lg gu
Ġevisne txe
22 02
Ġde xim
Ġrae f
Ġevis ser
Ġel gooG
eru ta
Ġse caf
tso B
Ġde da
wo P
P M
rus ni
b uod
hgi ew
i ht
se nil
ero M
le C
kca rt
pec er
Ġrevewo h
Ġdraw dE
ar I
d us
Ġla p
Ġneg yxo
Ġy ks
Ġse m
s sol
Ġmu id
Ġylevit ceffe
Ġni ar
si so
B C
Ġde liated
Ġse z
Ġgni raeh
Ġem irP
Ġref snart
j ni
Ġylla itini
Ġse zi
Ġcino rtcele
Ġdetce torp
in na
ere H
Ġde erga
Ġstsi golo
Ġsuore gnad
Ġsi uoL
Ġti mil
V I
nev retni
ih p
Ġe tuor
Ġo da
ni c
ihsa f
de n
ae B
po P
Ġsnois sime
t noM
Ġt cilfnoc
Ġse erged
terp retni
6 891
el yts
Ġ5 3
Ġyl lufe
Ġksa t
Ġega ssem
ce l
el t
Ġd le
Ġo hW
ret ra
Ġy loH
Ġsei cilop
e citcarp
s ba
Ġsei golonhcet
el C
car co
Ġtneme erga
Ġtseg gib
Ġgnire enigne
ht worg
sa C
Ġs ruo
no rp
li at
y no
Ġa eS
sa M
Ġyra ter
ni er
Ġrev il
ssa lC
Ġnoisiv id
Ġyl niatrec
et nulov
Ġo o
gne ssap
hcys P
Ġy n
Ġsnoita lupop
Ġstce ffa
Ġs neppah
Ġ0 7
8 71
ts mucric
Ġh serf
Ġec ruoser
Ã ¤
0 391
na ra
luc ric
Ġs gnos
ro ced
st luser
Ġle u
li os
dlo g
hca oc
Ġne ercs
sev ita
m ubla
Ġwen k
8 891
A M
Ġgni ppa
dra ob
lpmoc ca
Ġtne llecxe
re lot
ta eht
Ġk lim
Ġreht orb
P I
vo M
Ġsret tel
el gnis
Ġtce n
mono rtsa
Ġhta p
Ġdesserp xe
Ġnois sucsid
H C
Ġhsit tocS
lla g
tneme vom
d nA
Ġnoiti nifed
Ġesa elp
Ġse dis
re mrof
Ġderu saem
Ġm k
Ġ4 102
y L
Ġs dneped
Ġeni f
Ġhc eeps
Ġata D
Ġd rib
eh W
Ġda oR
fei leb
cu L
Ġri ah
c nuoc
el loC
Ġgni sir
Ġya B
Ġla reveS
ci P
Ġsu lp
Ġdeta repo
va lf
Ġht laew
Ġtnem ssessa
t cepxe
Ġtne namrep
Ġyllaitne top
Ġselp icnirp
Ġ5 102
me rec
ba f
Ġyra v
Ġ" ?
Ġyoj ne
de if
Ġst caf
or g
no H
Ġla rom
m S
q arI
dna s
se p
dna L
a el
rg A
s ruoh
Ġnoit cudortni
Ġno ri
gi D
Ġnoit cuder
Ġsnoit po
Ġsna ici
Ġeuga el
pa t
Ġgnik nird
Ġscit siretcarahc
Ġylluf sseccus
kco lb
Ġreg nuoy
S O
u ca
Ġygre nE
dna ba
sre k
Ġne ppah
7 891
gno la
Ġse if
gi p
Ġnoita idar
Ġtro psnart
ir rac
Ġet erc
Ġsne zitic
ord nys
Ġder ia
ka ew
b or
ne k
di ca
Ġgnik aeps
nu D
Ġlatne madnuf
re dne
ra ps
Ġyb raen
Ġytiro htua
na itsirhC
Ġevis sam
Ġsnoi siced
s mrof
Ġtid erc
Ġg rub
Ġseru tarepmet
Ġegnahc xe
bu C
it og
ra v
no illim
Ġst rats
Ġtna tsnoc
wo H
se ma
Ġm raw
Ġnoit om
ira t
id ni
Ġdev irra
ec rof
Ġde ralced
ca m
Ġht rae
Ġyev rus
Ġlai cif
re hT
Ġne sohc
Ġde pahs
Ġgni sa
mi nA
Ġel liv
ylla noitid
mo H
Ġyna pmoC
Ġt cnitsid
to l
Ġyler itne
di M
Ġstnem eriuqer
Ġlati v
Ġsnoit isop
Ġlle f
zil E
Ġs llac
el citra
Ġsega ugnal
Ġevit ingoc
er usserp
mo T
Ġ0 9
los ba
Ġde niatnoc
ruta S
Ġera p
ff E
ir teR
Ġnoita vresnoc
d irB
Ġgnit roppus
Ġdeta efed
ro loC
Ġno ts
Ġer tnec
ur c
tsa C
le T
Ġgnin raeL
Ġeva H
Ġt raP
Ġm il
Ġ2 002
Ġsev res
Ġnai citilop
tso P
Ġlli B
Ġhtuo y
Ġgnid loh
Ġeta reneg
pec rep
ru P
Ġet te
Ġssel nu
li zarB
mit civ
Ġnoit po
o D
a es
Ġni traM
Ġthgil f
Ġ7 102
Ġnoitamrof nI
Ġtup tuo
gni naem
rtsinim dA
Ġa d
Ġecne loiv
stne rap
Ġhca oc
Ġera w
Ġtnia S
te em
el or
ro ivaheb
le da
gnu H
red now
cej er
Ġdeif it
vit luc
Ġderi uqca
er A
llo H
tf el
Ġa to
Ġskca tta
sna muh
id er
g es
ruo S
Ġci me
hp m
ir rab
Ġgni ees
ri G
ga rf
es rev
i hc
ti licaf
Ġyl de
Ġra ilimaf
Ġyra nidro
Ġecne tsixe
it S
sre bmem
Ġtsa oc
rag us
ta C
I M
ht iro
el liv
Ġgniv ird
v ed
Ġta es
Â £
Ġstne diser
rot caf
kca lB
Ġyl f
Ġdev orp
ruo seR
Ġdi uqil
Ġro nim
Ġla mrof
Ġel cihev
Ġhguo rhT
Ġde redro
Ġta erht
Ġtse dlo
Ġse ssalc
Ġyra te
C C
re F
i me
to N
ya rp
Ġlatnem norivnE
Ġne euQ
do mmoc
r tne
Ġtneme tats
p orht
rep s
lle tni
Ġelbati us
s deen
eta d
Ġtro s
Ġst f
Ġsn recnoc
Ġst repxe
Ġelt tiL
hsu p
Ġeet timmoC
B A
E N
Ġseta d
Ġs tse
ht uom
Ġn uf
5 891
ra r
Ġden nalp
ugna L
Ġeni le
ider gni
Ġf lo
Ġy ru
uq noc
wor B
Ġdeta reneg
p lu
se ka
ma rap
Ġde deec
i mes
ne K
Ġgnilli k
me hC
Ġa v
navlys nneP
Ġe miT
Ġsse nerawa
ssen lli
Ġs rats
Ġsa m
Ġsl rig
Ġk law
Ġtne nopmoc
nu b
Ġmu minim
Ġtsa v
' ll
s margorp
Ġel gna
Ġroi nes
Ġdi par
Ġdenia lpxe
Ġa ti
Ġsse nev
z ti
loc niL
Ġnia tirB
ma R
Ġsno srep
le k
kco R
h r
no B
ts ae
va ls
Ġevita N
ff iD
mo ts
Ġevis nepxe
b ur
cnu j
Ġeru liaf
snoit seuq
Ġredna xelA
gra m
yh r
se saesid
02 91
Ġci pot
Ġn ward
st hgir
Ġemerp uS
Ġesiw rehto
Ġde veihca
Ġdae R
Ġtse tal
Ġlau tirips
Ġsla iciffo
Ġeci wt
Ġssor c
Ġytilib isnopser
Ġeu nev
netni am
pe D
Ġli at
ega p
S S
k sir
Ġdecne ulfni
dnal sI
Ġsti b
Ġy getarts
a k
Ġse cudorp
s dro
Ġla vitse
Ġega ti
Ġren ni
a isA
R I
6 6
b eW
Ġrae w
noita ni
rele cca
s rae
Ġn u
po solihp
Ġsnoi siv
pso H
Ġlabo lG
nem rA
ni rP
Ġsk nil
Ġwolle y
Ġy es
Ġd rac
i sa
yti ru
Ġycneg reme
rol hc
te op
Ġlacip ort
Ġtca rtnoc
Ġci ffart
Ġdi los
Ġyleta mitlu
o lc
Ġde yortsed
Ġla irt
Ġde niart
Ġse neg
Ġro olf
Ġsnoita ts
Ġde nil
Ġere hW
ic lac
7 71
Ġy do
ed ni
dna mmoc
tu A
rt ni
Ġ6 102
Ġle arsI
4 891
ta h
Ġeci ffO
sre P
wo lla
Ġt nuoc
s rem
Ġ ira
Ġseit e
F A
ri C
Ġdev orppa
F N
Ġnek orb
II I
si uoL
Ġdeve irteR
si sylana
ro K
re nim
il itu
trop pus
Ġdedne tta
Ġeer F
Ġnois se
ts nI
Ġcit naltA
ur T
Ġa lle
yh pargo
la H
Ġytisrev inu
Ġt lu
Ġes le
o lg
rot cod
Ġye kco
ca J
Ġelba ts
Ġtne tsisnoc
y ol
u T
P S
ht imS
Ġyra tne
sa l
Ġmil suM
Ġtro ps
tsu jda
re tneC
Ġse tebaid
Ġev los
Ġla ve
sy la
ba zilE
Ġdenia g
Ġsk sir
Ġevit isnes
Ġez ingocer
O S
Ġtsa L
Ġeka T
a F
a ta
Ġna ir
Ġtne txe
b i
ud nI
icerp pa
Ġeta repo
Ġesa elP
rt ceps
Ġgnid ro
Ġht am
ob or
iec rep
ih O
Ġgnid nuf
Ġniat nuom
v dA
re tirw
Ġse do
ih ciM
Ġnoita rtnecnoc
Ġsnoita N
eu lav
Ġa lo
Ġdengis sa
Ġev orp
Ġdnuo b
Ġseni le
ts yrc
Ġnoitid art
Ġde no
itog en
Ġred rob
noita cif
Ġeta rucca
napmoc ca
hd lihc
lp xE
Ġsthgi R
i res
Ġlai curc
Ġderi psni
po hs
noitu lover
y latI
0 491
gel la
Ġnois ses
a B
t noC
Ġna is
Ġre hc
Ġeruta retil
mil C
htiro gla
dnu ba
ret teb
Ġsnoit ulos
Ġeri pmE
Ġec roF
dna S
pi cit
ytila uq
Ġk ce
Ġtcen noc
Ġelba ne
setu nim
dna lerI
Ġspihs noitaler
ggu rts
Ġs god
Ġy rujni
ts riF
L E
t ceffe
Ġytilib issop
a ib
Ġtca rt
ssa rg
Ġdra oB
mi eh
Ġy poc
mma lfni
y ks
st ceffe
Ġg nuoY
cej ni
ma xE
5 8
Ġyrarop metnoc
Ġn recnoc
m orf
Ġoga cihC
Ġelba ulav
ti T
Ġeta udarg
rete v
Ġnoita v
Ġcit e
Ġtsa erb
Ġte nalp
Ġst ol
Ġst el
yti lib
Ġera f
ne V
nu F
' .
retni w
tom er
ig el
n nA
nia M
Ġla edi
Ġtsi ssa
o cixeM
stne itap
t cA
Ġralu csa
Ġsel citrap
se iduts
Ġ5 4
Ġne drag
k raM
9 71
li miS
ron gi
Ġde yolpme
Ġesrev id
Ġs da
ne ve
Ġhc taw
Ġsre mraf
Ġy revocsid
ts at
hs A
t lov
Ġt lua
9 791
Ġpihsre dael
eli hw
Ġde te
i nifed
Ġlai cepS
Ġra tS
Ġdoo G
Ġgnin rom
Ġecalp er
Ġderut pac
Ġseta erc
Ġtnem tsevni
Ġde neppah
lu G
Ġnoissim moC
Ġni giro
t norf
dni k
i nam
Ġnoit itepmoc
Ġsno illim
Ġdere ffus
Ġsse nk
Ġya l
seiti nummoc
hpargo tohp
Ġero cs
Ġeta uqeda
Ġdesop po
sirp rus
Ġsnoit utitsni
Ġtne mucod
id i
Ġtne nimorp
eta r
Ġylla iciffo
Ġp ord
Ġs dnats
Ġthg ia
Ġro tom
ht laeH
de zi
Ġci nhte
Ġecni rP
Ġseid utS
Ġytila er
Ġgnik lat
eno la
Ġm raf
re tir
Ġno mmoC
Ġ vo
re sed
n go
Ġa dna
sec ruos
Ġo cixeM
Ġeti soppo
3 4
Ġyl dipar
Ġdehc atta
Ġdet ov
Ġyt itnedi
lu mits
Ġega irram
3 891
7 6
Ġyl taerg
Ġa h
ylla niF
oib itna
plu cs
O D
Ġselp mas
Ġdes sucsid
se di
Ġsre nwo
eg elloC
ts am
p E
kci p
Ġtpec ca
k O
Ġden recnoc
ni n
mo lp
Ġm ut
Ġtne mom
Ġevit cudorp
Ġeva w
Ġlaru taN
Ġne ddi
icif ed
nima tnoc
Ġgnire ffus
hta M
Ġesa erced
Ġst pecnoc
Ġeno g
Ġlanoit nevnoc
Ġsnia lpxe
Ġnev ird
Å į
lla W
roc ca
rep uS
Ġre ganam
ec namrofrep
Ġevita erc
Ġretsa f
Ġdetce fni
Ġsn rut
Ġno m
oo ms
il lA
ww w
i na
Ġt ep
hsa w
re hc
Ġnoit ib
Ġs rac
yllanoitid dA
Ġmets yS
Ġgni ssap
Ġtce lfer
Ġrae Y
Ġnae co
Ġdi ulf
Ġerap erp
seiti liba
ta r
Ġw ar
Ġmoor ssalc
ro i
Ġsa erehw
Ġtne uqesbus
Ġy rts
Ġeni cidem
doo W
a N
msi la
moor ssalc
cit si
Ġylralu ger
se h
Ġseru gif
a b
Ġsla cimehc
tit ta
tibah ni
Ġno igiler
y poc
tne tnoc
Ġde rots
su ht
Ġdnuorg kcab
Ġseiti licaf
r J
Ġedi ced
Ġylla rutan
gi van
D M
bo l
ir cas
Ġeer ga
Ġnoi nu
y monoce
es uoH
no inU
Ġht ped
gni tirw
Ġgnide ef
st rap
Ġsto or
Ġnoita dnuof
Ġseta cidni
Ġde caf
Ġne z
u ga
y cna
Ġde grahc
Ġeu D
Ġde mra
Ġnoita si
Ġhc narb
yro eht
leda lihP
r I
Ġna isA
Ġredro sid
D E
Ġria p
Ġ00 4
ef as
Ġstna w
Ġtro F
Ġdna laeZ
Ġde ka
Ġgniv orpmi
Ġyaw liar
Ġs revoc
Ġa ira
g ur
Ġlaci gol
tneme ganam
Ġerut pac
S N
il uJ
Ġsm si
Ġdet nirp
Ġci re
Ġrets am
Ġgniv lovni
Ġyr tne
Ġtcej orP
Ġn rub
Ġro nrevoG
ihp ledalihP
cna C
ev ah
hci hw
Ġa issuR
nar bmem
Ġseda ced
Ġgniv iecer
luci rgA
Ġla oc
Ġsdoo g
Ġtse ilrae
Ġtnem yolpme
e ye
hp etS
Ġgni rotinom
v ita
Ġsnoita ler
Ġtnelav iuqe
d uo
ir G
ea hcra
Ġnois ser
na tS
ci rru
Ġeta idemmi
noitce fni
Ġ (
Ġde es
mma m
Ġde weiv
A P
o gno
Ġdna suoht
s wo
Ġre gnis
Ġsdnuo s
lia s
tset ni
ĠE HT
lggu rts
Ġfe ihC
Ġniat bo
e noi
Ġt cudnoc
ro ulf
ce lletni
Ġgni rahs
Ġro bal
Ġst pmetta
4 6
se tis
nit noC
se gnahc
se ye
gi S
su hca
tser ra
pa lloc
Ġte G
mu cca
bo N
Ġsk ram
k A
Ġta em
Ġht imS
dl roW
re bmun
eda m
Ġstnem nrevog
a ci
id o
Ġevitu cexe
Ġli sso
tni rp
Ġm m
Ġfei leb
re i
hp ro
gni r
Ġgni ya
Ġlatne d
gna B
nom rah
Ġlati psoh
Ġnoita rtsinimda
s ru
Ġse lif
Ġyl wen
ht rA
am A
Ġnoit pirc
pm orp
Ġdet timmoc
tsu lc
5 791
ht iaf
sro h
H W
Ġt fos
Ġeu lB
Ġno v
Ġrewo P
Ġllab tooF
Ġgniyr rac
ff A
g ru
se tebaid
Ġygolo nhceT
ylevit cepser
o ni
srot caf
Ġre solc
Ġla tsaoc
zi roh
tsa ny
o hC
2 891
8 8
Ġseit rap
Ġe nalp
Ã ¨
tsa rtnoc
Ġ81 02
Ġsde es
a ra
Ġde xif
ru tsid
Ġse moh
Ġstca pmi
Ġdei pucco
Ġeta lp
sed iw
reta W
Ġle nnahc
T E
Ġdel t
Ġnwor b
Ġla nois
hgi e
Ġtce pxe
Ġl ortnoC
sy d
t niap
suhca ssaM
n dluo
Ġgni hcaer
ema s
uq htrae
Ġseu ga
reht orb
tuo ba
Ġyro tirret
Ġdem rifnoc
ar C
tneme le
sop ed
lcy cer
a issuR
Ġret uo
a T
to P
Ġega gne
Ġesa hcrup
nar I
st niop
te suhcassaM
Ġyel laV
Ġevisne herpmoc
c orP
se laW
Ġci malsI
Ġgniy duts
ru en
Ġkco ts
hpso hp
Ġda orb
Ġdedra ger
Ġthgia rts
se la
tsi om
Ġsre wop
Ġgni caf
go R
Ġre wef
se ert
Ġthgi eh
7 5
Ġs gge
Ġs llaw
ci dda
ih ni
tniop pa
Ġyt nuoc
yrev E
di loh
1 891
o hw
nia tirB
ni vorp
Ġda erp
icep S
daor B
ret upmoc
ra hS
a K
s dnuo
Ġa isA
Ġyl reporp
gna hC
Ġts itra
Ġst roppus
a idem
Ġro jaM
lua P
Ġm sit
Ġel it
Ġa da
ta b
Ġyrarop met
Ġn raeL
Ġdeti siv
Ġyt terp
eti hw
R U
Ġnoitce les
k U
Ġ; .
tek sab
lop or
lo W
reht eN
eca r
temo lik
cni txe
e ussi
Ã ¢
2 4
ro D
e e
tne mom
Ġylhguo r
de deen
Ġyltne uqesbus
det ce
Ġre ffus
hg fA
Ġkna B
Ġs mu
Ġeru decorp
Ġdet u
Ġd nopser
B I
Ġi na
Ġy nA
ih orp
s dnah
Ġht fif
Ġsu i
y co
Ġ2 3
Ġyl urt
Ġya sse
lu ba
Ġgni sol
Ġs si
Ġti lps
Ġdedna pxe
Ġy ppah
za ma
8 5
Ġlai rep
Ġna ig
ni p
O M
Ġg nu
we L
va S
ĠI S
Ġgnidro cer
Ġra b
te ef
Ġeru ces
tsa eht
krow ten
mil suM
Ġto ps
y P
ri ah
ssa lg
Ġyti sned
cen noC
nara ug
Ġemo H
nim er
Ġyti nummoC
rop roC
Ġnoita icossa
pur sid
etis bew
5 491
yolp ed
sse ni
Ġdi al
p sid
Ġswo dniW
Ġai nigriV
erom rehtruF
sk eew
ne c
saer ced
Ġycne iciffe
noita ti
po C
to M
sno ps
retir c
Ġ v
sna i
Ġsega p
e ert
Ġna ti
Ġnwor B
Ġecna tsbus
Ġlan ruoj
s sor
Ġgnigni rb
Ġs doirep
ra limis
ef iw
Ġsre wolf
Ġthguo s
l or
g duj
Ġgni rutcafunam
noita utis
Ġse hcaorppa
Ġeci vda
Ġne moW
Ġkci lc
Ġytiru ceS
Ġedis gnola
ma erts
Ġtf ihs
li bom
Ġthguo f
6 5
Ġsnoita n
Ġnoitid e
Ġyte ixna
Ġrot ces
Ġmrof talp
Ġsemit emoS
f il
ma T
Ġa dirolF
Ġsts itra
Ġecit on
Ġyl remrof
Ġneew teB
Ġst cejbus
Ġylira ssecen
Ġe poc
en k
Ġecit suj
Ġa ne
Ġl E
Ġs boj
6 791
Ġde lur
it pa
Ġdeb irc
na S
Ġfe irb
to hP
Ġtup ni
Ġlaicif itra
k la
ret tam
i ks
Ġecne uqes
y cilop
Ġt sirhC
Ġsni etorp
Ġtahw emos
Ġyli maF
Ġnek ops
Ġnoitazi la
8 791
Ġci xot
el hta
y lg
Ġnois napxe
no loC
ru gif
te ertS
Ġlap icnirp
Ġe mu
de s
cu lg
Ġde le
m ret
ce erG
ri K
Ġeta picitrap
retse lohc
ri M
ci nummoC
Ġdeta rgetni
Ġdet narg
dis erP
Ġtce les
M T
Ġk nird
Ġyra rbiL
na mow
Ġna gro
Ġder uo
eer C
Ġtne rap
eg dirb
Ġdoots rednu
na B
Ġre nwo
Ġgno rw
ta i
noita mrof
2 791
si raP
na eM
Ġle ets
no N
noita zinagro
Ġdei rub
ht sa
Ġsi raP
Ġelb iB
Ġetu nim
Ġlo bmys
Ġ moc
Ġro r
di pe
nac lov
tnem dnemA
s ria
4 791
Ġs htaed
n yS
Ġyl gnorts
sei limaf
Ġgnire ffo
Ġo c
e te
di los
Ġgnin rut
ne tu
Ġy nit
t pada
ta id
a y
gni niart
Ġt nuoM
Ġkca J
Ġse eyolpme
v ren
eta tS
ira V
eu lb
ngis sa
Ġnoitu llop
Ġgni ward
si W
rop met
Ġria f
P G
ka B
sre bmun
Ġatna S
Ġnoissim snart
gni eb
Ġev lovni
S T
Ġde ec
Ġgnim margorp
Ġst up
el ttab
Ġbu lC
lla G
7 7
A SU
Ġtneme ganaM
ts noC
li ug
Ġ) %
Ġluf pleh
F I
ecne icS
Ġna M
Ġdet ubirtsid
Ġsm lif
Ġseiti rohtua
Ġyt lu
ylla u
Ġtcep sa
Ġht urt
Ġeni ccav
Ġgnit tup
Ġna g
Ġega tnecrep
Ġred nuof
ne di
E T
ec ruos
yl no
li G
Ġro inu
Ġelp icnirp
Ġna eroK
c rA
lli V
la ed
snoita cilppa
Ġlisso f
Ġtca xe
8 6
a d
ep yt
na n
D F
gil bo
9 691
Ġta eb
ya T
ri pS
Ġyrot civ
el A
sei rutnec
ta eh
s O
Ġa z
Ġm rots
s doof
m iws
L I
in I
eri pmE
Ġlanoit cnuf
Ġte ehs
lli m
Ġta tibah
ru K
Ġderref snart
Ġsnois rev
1 4
trap ed
Ġdeta ngised
o nil
ref erp
Ġsel cihev
Ġt las
Ġek uD
Ġylev is
m ro
im erp
Ġa g
rua tser
Ġgnika erb
Ġesi rp
Ġgnimrof rep
sega ugnal
ror ret
Ġdeta rtsnomed
nia pS
Ġlaci nahcem
si w
res ni
Ġti forp
sse nk
yra u
Ġtnemel ttes
Ġgni nim
rede fnoC
ht ym
yna pmoC
Ã §
Ġx im
R C
ma l
el E
pa rehto
Ġecit suJ
t nA
re erac
te w
emo R
nne K
Ġyli vaeh
eno d
Ġsecne uqesnoc
dno ceS
Ġdel ttes
A I
Ġht iaf
Ġyt luciffid
nwo D
Ġsam tsirhC
ni ba
is yhp
it inI
Ġlaci ssalc
rede F
Ġkci uq
reti L
Ġs weN
Ġdne mmocer
mod gniK
Ġdesa hcrup
esi w
gno rw
rip ser
su S
bmem er
onil lI
Ġs rep
nutrof nU
Ġgnit tuc
Ġrehti en
irep us
Ġwolle f
nemo W
Ġyl dneirf
Ġyt revop
Ġneg or
1 791
Ġyl wols
Ġs ga
Ġekil nU
Ġdet ubirtnoc
Ġdega gne
Ġnre doM
Ġret pahc
Ġyra rbil
Ã ±
ffe J
Ġyre grus
Ġrorep mE
L C
y es
Ġgni wor
nimo n
Ġtsa rtnoc
Ġgniyl rednu
er D
to ps
Ġeto v
man ruot
re dna
noita icossA
Ġtne uqerf
pi nam
Ġecni vorp
sse leht
Ġnoit ingocer
Ġstne irtun
fles mih
Ġsd nif
molp id
bmu N
y wal
a G
Ġcit o
Ġeta g
Ġenil ced
Ġta mrof
Ġstne mucod
Ġdeniat niam
Ġno ssel
Ġdet revnoc
o K
Ġsgni leef
Ġgni revoc
Ġel ggurts
ci da
sne cil
sser d
ira necs
kci hc
ta ehT
Ġluf mrah
sd rib
re seR
po cs
n saw
sser gorp
Ġla te
Ġna ci
noit cele
Ġs lia
tne vni
Ġecne dnepedni
3 791
y R
ti H
Ġgnik ees
Ġsel or
revo eroM
7 791
Ġsi songaid
eru tarepmet
Ġene cs
Ġci pmylO
Ġhc nual
mra hp
Ġst nuocca
E S
gna h
Ġde llatsni
ĠS I
n rut
Ġre ciffo
Ġeni fed
Ġssel dra
Ġses ruoc
cit on
n K
Ġeri sed
to B
nois simmoc
na rF
Ġlacigolo hcysp
no rb
Ġstnem taert
Ġden rae
Ġralu celom
Ġroti nom
Ġs llaf
Ġla irts
Ġneg ordyh
Ġs tseretni
i loP
Ġelba redisnoc
Ġecna hne
Ġsserp xe
V T
ra F
Ġseci rp
yra ssecen
Ġe eL
sne tni
Ġstsi la
Ġpe eK
Ġ91 02
u K
Ġecna vda
Ġsret rauq
Ġrot ce
Ġ rD
Ġkci p
y rd
noita repo
Ġstneme vom
nom roh
Ġdloh esuoh
s siM
ci b
Ġsre l
kram er
c E
Ġret pahC
Ġhsi w
M I
Ġse ssenisub
Ġsp it
Ġek al
z A
re ffiD
li d
di lav
s dneirf
Ġta lf
yte icoS
erb eH
d le
Ġ rO
Ġht oot
de cerp
Ġde siv
o ep
ti h
B SI
dommoc ca
eg ufer
Ġst nia
revo g
Ġla nimirc
Ġdere wop
seda ced
eu rt
la udividni
mu nom
Ġdel ba
mail rap
ne drag
ti uq
Ġgnille s
Ġeta milC
Ġgno L
Ġtnemtrap ed
Ġyra noitulove
Ġe tomer
Ġde ts
so d
rev ir
v A
ĠA SAN
Ġecne gilletni
Ġdaerp sediw
Ġdna lerI
suo icsnoc
ero eht
k nab
hp la
se bo
ae S
Ġe meht
g ua
udni H
Ġt is
t hguoht
Ġpo hs
4 5
ep xe
sno saer
Ġsrot cod
Ġyrater ceS
Ġdeta cidni
Ġt fo
s dne
Ġsre ciffo
Ġelba ton
Ġthguo b
sit ra
Ġse vaw
se uQ
n reB
Ġtub ed
Ġcitarco meD
Ġnoitu loser
p pilihP
W W
Ġsega ts
le wt
ek at
Ġse miT
les ruo
noi siced
d liW
8 9
Ġsnoita col
sit revda
Ġn uS
Ġk col
sre krow
es ne
rop orp
Ġsuo unitnoc
Ġnoit pircsed
sse cca
Ġlo op
ta B
pa l
st cejorp
i ne
rt rop
red rum
s dohtem
Ġeno z
csa f
v raH
Ġgniniat niam
Ġst hguoht
Ġte erts
Ġsre taw
Ġkna rF
Ġdeta lu
ngo cer
Ġnoisserp ed
hc naM
noissim moC
Ġdesa B
Ġdet o
nil C
Ġsuo it
Ġsm sinagro
hca M
sec xe
Ġtuo htiW
Ġy ob
le p
Ġeterc noc
mu art
Ġta bmoc
Ġm rif
rae f
t nia
k roW
roba L
Ġt tocS
Ġrev lis
ili ffa
Ġgni suoh
Ġse lb
ra lohcs
et on
Ġseo D
L P
ret nE
ur cer
Ġelbissop mi
pa m
rot cerid
Ġsci pot
Ġema rf
R M
no igiler
Ġeta rtsnomed
is er
Ġelba T
eci ffo
ega mad
yo B
ĠN U
Ġni ht
mo n
Ġka ep
tua eb
Ġhsi kruT
Ġel dnah
Ġeri hs
Ġepo P
Ġesne fed
Ġy vaN
es nes
uq ni
ti mil
Ġsy ob
n roC
ts iger
Ġst rA
Ġruo F
eno ts
3 5
g luB
ralu citrap
Ġgni vaH
Ġsuoneg idni
hp rom
se nod
gno L
8 691
Ġle i
Ġsno t
Ġde songaid
bo lg
senod nI
ia waH
se gid
Ġsnoit ces
Ġdeta rapes
Ġtne mugra
tsev rah
hc nerF
sna K
Ġecna netniam
o iB
Ġse lcsum
Ġecna tsissa
Ġsredro sid
o V
ne hw
Ġten retni
gi N
ega ts
cni rP
Ġdeif idom
noi si
t nuocca
Ġswo nk
Ġtne mailraP
Ġssa rg
irat nO
c noc
se icne
Ġelb issecca
Ġhsi loP
Ġsse ssa
u n
Ġw erc
Ġtsu rt
sa h
su reJ
yt rap
ya H
Ġb eW
Ġsd nuf
tnem piuqe
ero F
hp orp
Ġnoita dnuoF
Ġde ugra
Ġmo T
Ġtna nimod
Ġrev res
Ġhte bazilE
o da
zil itref
Ġrae b
e V
rips ni
w O
Ġsi se
gni daer
Ġere hpsomta
Ġdega mad
re dael
porht na
Ġy mene
pm I
civ noc
Ġs wor
Ġse vom
rem E
Ġserut cip
dnal tocS
re D
dna H
ya laM
tneg rA
Ġs g
tuo R
selo da
Ġo iduts
nne T
Ġruo t
Ġesu ba
Ġes roh
o idar
Ġlaici feneb
ar ce
Ġkrow emarf
Ġthg uac
noisserp ed
Ġsp orc
sne pmoc
G I
Ġd am
Ġeta mitse
lli H
Ġ Ä
Ġp orc
Ġdeif issalc
Ġgnilli w
Ġyl riaf
not nA
lo M
hte et
yti vit
Ġnoita tnemelpmi
Ġtce ted
Ġsgni rb
ma rgorP
uq E
Ġgni llac
y E
Ġgni ogno
Ġreve tahw
Ġmsi nahcem
o T
ra tiug
dnuo r
sa edi
is noC
a j
re tnec
Ġlli H
Ġyle rar
Ġdezi retcarahc
i nevnoc
el u
Ġgni li
Ġlatne mirepxe
ga gne
Ġgnik law
Ġevo L
9 5
Ġlarut curts
t cerroc
Ġe D
tse laP
Ġo itar
cilp er
Ġde reviled
Ġnois net
Ġsk sat
i i
Ġne pO
Ġdra ger
lla H
y reg
Ġdae ha
Ġsret upmoc
la id
Ġsk co
Ġma rgorP
Ġswo llof
so B
ar D
Ġerac htlaeh
Ġyt la
Ġnoit isnart
sla og
h A
Ġeruta N
Ġsuo ivbo
re gnis
Ġla yor
Ġe pacse
Ġre tsis
ed oc
ht yhr
gra M
Ġhc uot
ev il
S P
Ġdet pmetta
Ġna cixeM
Ġy revocer
sre h
se soprup
tsis rep
Ġyrota robal
Ġs tserof
ma hc
Ġer tneC
lp mi
yro ta
Ġse du
et rev
Ġt erces
Ġci m
V OC
Ġgniru taef
Ġnoita tne
Ġte Y
ria hc
Ġde rocs
mi ceps
Ġni ets
rae b
Ġreta L
Ġsno ssel
Ġerutcurts arfni
Ġyle rem
Ġyllau darg
sor ciM
Ġde mees
da oR
itne reffid
Ġsser tca
Ġek orb
Ġi ma
tsac daorb
Ġthgir b
7 691
Ġsro loc
Ġevis serp
Ġa mo
Ġsre b
Ġgni lb
uo r
Ġa la
reb lA
ci loP
rts noc
noit ces
d nI
Ġeni raM
Ġgnik sa
Ġdet pada
Ġtna ig
doo h
y tne
Ġtne mirepxe
Ġy rub
9 6
Ġevita rtsinimda
ela cs
carco med
Ġe lim
reh S
darg ed
ne rdlihC
lli k
Ġsk cart
tsi na
Ġder iter
fe irb
Ġpihs noipmahC
lla h
Ġe loh
Ġre papswen
st luda
isrev inu
pm ussa
sla udividni
d yS
sre hcaet
Ġeru tam
Ġo csi
Ġk nu
c cA
Ġdna L
Ġlli b
V D
mono tua
sev it
Ġta c
Ġdet rop
Ġgni tneserper
Ġmu idem
Ġle llarap
Ġde vol
nai citilop
Ġgnis sim
Ġecne idua
se ig
da eR
Ġrot ceriD
ort nI
Ġmue sum
nwo T
Ġeta cinummoc
up moC
Ġsla ngis
niat nuom
nev es
Ġdeta roprocni
Ġll or
Ġdesop pus
yro mem
ez C
Ġde mrofni
Ġyra retil
Ġsro od
Ġsd rac
Ġi ni
mets ysoce
Ġsti mil
Ġgni so
Ġdoo hdlihc
t liub
Ġde tsoh
rep xE
Ġtse roF
r taP
us ne
mot tO
arb A
Ġretsi nim
nom moC
Ġsnoit cennoc
Ġyrtsi niM
Ġswo lf
Ġgnide erb
Ġmut na
h serf
Ġrevo csid
ra L
Ġnwonk nu
daets nI
Ġsre hcraeseR
Ġsei rutnec
Ġyllaitne sse
Ġtsac daorb
Ġre cudorp
Ġsehc ni
Ġa ir
Ġsnoit cefni
Ġe simorp
Ġssen lli
noz irA
f O
al C
Ġgnin rub
s weN
Ġy tta
gna t
el ddi
Ġ0 51
l itu
se cived
er ihs
ni ps
Ġsre tirw
er cer
Ġeni maxe
ta tS
e id
Ġlai car
y pareht
8 7
Ġo idaR
1 0
r id
Ġev ren
ro d
Ġsti urf
lbme ssa
s tset
Ġren nam
Ġre gna
Ġsk colb
ro irp
llo pA
Ġno ga
Ġev ivrus
Ġya doT
s wen
Ġgnita d
Ġlaut riv
g it
Ġsdnal si
tne K
nuo norp
tu t
tra pa
Ġd nom
Ġta efed
a p
Ġwo dniw
H N
Ġgniy lf
ug utroP
A A
Ġno b
Ġno sre
Ġeno n
Ġselu celom
rem mus
se Y
Ġsci r
seit ic
Ġgnidne ps
Ġsei re
Ġdep pord
Ġde dulcnoc
da h
Ġyad yreve
Ġllab esab
Ġgni rts
e et
Ġem irc
Ġlo co
yt reporp
s mu
Ġsni k
ni etorp
ta lP
p sus
Ġes or
tse uqer
ja R
im erP
Ġdel tit
Ġdei napmocca
Ġpohsi b
Ġi k
won s
Ġecneref noC
la K
euga eL
Ġelba renluv
Ġse cuder
gni rps
Ġdep pots
enoi p
D G
la itne
Ġse ssap
re ssa
Ġtne murtsni
Ġycne ga
Ġev e
tlu snoc
T C
Ġgni redisnoc
Ġse las
R P
Ġeta mit
ev if
Ġsdnuo rg
li cnuoC
Ġdega ruocne
Ġlausu nu
se calp
Ġsre te
Ġelba wener
pur roc
l O
le sreh
ĠD C
Ġseiti lib
Ġseru decorp
du a
Ġesuoh neerg
Ġgnit niap
Ġru htrA
loba tem
Ġa ro
Ġla coL
Ġsi sirc
Ġyti ni
Ġsse cxe
Ġyen ruoj
Ġylla noit
â Ģ
ĠF O
eht taM
lli p
Ġlia me
cna s
leb er
Ġsse le
Ġeni zagam
Ġy rettab
re K
Ġeti rovaf
Ġpo T
Ġaib muloC
hta b
Ġgnisi ar
Ġmu iclac
Ġdra y
Ġdesu fer
Ġy hposolihp
Ġtce lloc
Ġnoitisop po
L M
Ġyltna tsnoc
Ġstne mirepxe
Ġgnin recnoc
se ggus
noita col
a no
lu dehcs
e gnar
na ici
Ġte op
noita cudE
5 0
m ys
Ġecne sba
Ġyllufe rac
Ġgni gnar
s me
Ġde nif
t nuoc
ma D
Ġelbat rofmoc
Ġssenev it
elp moC
Ġnoit nem
eca F
Ġseno b
b ira
re boR
Ġsk nab
Ġtsa oC
Ġrewo lf
Ġy dutS
se moh
id es
cilp xe
) )
5 691
pirc su
Ġnoitnev erp
Ġmu lucirruc
Ġno tsoB
Ġti ucric
Ġren trap
hc e
et oN
ef iL
e il
y ob
Ġee ffoc
Ġlai noloc
u C
Ġgni rut
Ġsu hT
Ġecna rusni
ĠS M
T U
Ġeso d
no brac
snoita repo
y lf
Ġnoitca retni
eruta retil
ti P
Ġtna tsissa
Ġgnila ed
e vol
Ġsesu cof
cirts iD
Ġgni ts
is si
Ġt repxe
Ġnoi nipo
Ġyrot caf
Ġro rre
Ġevit cejbo
tro P
dl uoc
a ir
Ġgnitne verp
ro tom
el ur
i hcrA
Ġla rot
ic nA
a v
Ġstne murtsni
Ġ,) "
mu i
la og
rb iv
3 6
c co
Ġlo oc
Ġseuga elloc
la D
tad erp
el F
s msi
red erF
Ġyle ti
va eH
gnu l
Ġselba tegev
hguo ne
ro L
ĠN BSI
Ġi ks
xa lag
e iD
Ġelb id
4 691
or ciM
Ġes laf
Ġlai retcab
Ġrev iled
Ġsdnuo pmoc
mo S
Ġdne ped
Ġded nuf
y K
le u
te L
tsi D
rts ba
doo lf
Ġe pacsdnal
Ġecneref noc
sa xeT
Ġne dloG
Ġta ob
Ġla itnatsbus
ena t
Ġdema ner
nia gA
kca t
t cudorp
tne reffid
yrots iH
Ġtnemhsi lbatse
Ġlli W
Ġs tsixe
32 02
Ġmi J
la mron
mo ib
sdra dnats
p ep
Ġgni sserp
hta f
A F
Ġeti lletas
Ġseta mitse
Ġse legnA
Ġle bal
Ġsega tnavda
Ġtse uqer
Ġlaci hpargo
eda rt
Ġskna ht
i rev
Ġnoitisop moc
6 691
se ssecorp
Ġeet timmoc
Ġna ib
ĠCB B
sec rof
r hs
Ġ Q
Ġ, %
Ġen rob
tu per
Ġgnille t
su seJ
Ġlav ivrus
B G
Ġti aw
Ġci hparg
Ġ5 7
d rac
noit cerid
s redrosid
wo c
Ġtne ma
us sI
Ġka ew
div orP
Ġm ar
lo op
sa P
Ġw erdnA
nar reti
sd leif
Ġnoit utitsnoC
Ġeso hc
Ġ6 3
Ġla g
Ġtna tsiser
si R
Ġy latI
Ġdev love
Ġekat ni
nosi op
ed o
Ġde daeh
Ġ barA
Ġdna rb
temo eg
o lb
Ġelp met
a dirolF
Ġeta bed
e lif
sgni dliub
Ġnoita cilbup
Ġelb it
ko T
erc nI
Ġelba iler
Ġska erb
Ġbo B
Ġ >
ecne ref
N C
Ġre cnaC
Ġs daeh
ret la
Ġdet nalp
Ġefil dliw
Ġ02 02
yt raP
Ġel citrA
elpo eP
Ġsd no
Ġna V
Ġez irP
xa ler
Ġare mac
Ġni htiW
o z
Ġse es
Ġylbme ssA
e j
Ġse hca
Ġm liF
Ġ7 991
Ġsra lohcs
p or
y k
gam I
re lla
Ġno om
Ġgnita ert
Ġero hs
Ġtnem niat
tsu rt
Ġkce hC
sti feneb
noitu los
stneme le
cej orP
a hc
le gna
sa i
Ġediw dlrow
Ġp mac
ega mi
Ġnosi rapmoc
k cehc
Ġsuo ro
Ġgnid liuB
ti wS
a lp
Ġna eb
Ġre puS
ssa P
Ġde kcatta
sir pmoc
Ġse sne
Ġega tlov
Ġwor ran
Ġs daor
da hs
Ġdeta rbelec
Ġesa batad
Ġsnois sim
Ġnoita tropsnart
Ġeni tna
rot ca
Ġ5 6
ffa ts
ĠV IH
tta B
tf arc
Ġsenile diug
do R
y A
Ġde f
Ġeta ulave
no rtcele
Ġedixo id
narreti deM
Ġyti licaf
Ġsno paew
Ġla citamehtam
Ġp irt
Ġnoit irtun
i od
p la
Ġre musnoc
Ġnoita roballoc
gra L
Ġsuo ici
ksa lA
Ġnait pygE
Ġega su
Ġnoitcurts ed
b ro
Ġgnihsi f
sa n
lo B
Ġtnemel pmi
. '
sm ret
Ġsei lppus
dna p
Ġde mussa
Ġ6 991
Ġro noh
1 5
ret tub
Ġhc ni
noi su
ere w
Ġezi laer
Ġsuo vren
Ġf ael
lo htaC
se man
Ġgni tsisnoc
me S
noit netta
te nalp
ha B
r h
pa N
Ġgnita eh
ub irt
ni ets
mo D
go L
rdyh ob
s wollof
ne vni
yleta nutrofnU
DI A
Ġde lp
la icos
Ġfo orp
Ġnoita picitrap
Ġe pyT
Ġsre daer
Ġdedeec cus
ugni l
Ġnia pS
Ġst uo
Ġdeta lsnart
Ġeg A
Ġeru p
Ġsnoita utis
ruo T
ni S
z lA
ts E
Ġocsi cnarF
si ruj
ir D
Ġde edni
ma L
Ġde mia
so h
Ġani loraC
Ġlei naD
y eno
lo hcS
Ġa is
Ġt no
Ġhc tac
Ġtra pa
Ġo k
Ġsts itneicS
or G
Ġla riv
Ġhsi dewS
Ġlam reht
il u
O L
cit ne
Ġdet omorp
Ġhci hW
da eL
Ġepo cs
crof ne
m m
o reh
noit nev
Ġst ra
ĠV I
se ulav
ru D
art xe
ti hW
tir ri
nop po
rts ehc
Ġruo loc
rua L
sdro ceR
Ġre sopmoc
sno iger
le hw
Ġreht ehW
Ġsla noisseforp
Ġ00 6
tro ps
ll E
ruob hgien
no ci
ti lim
2 5
ga porp
nna c
4 491
no sni
Ġdeta utis
Ġgni le
Ġni g
se do
sei napmoc
ĠAN R
Ġtne icnA
Ġnoitacif it
se citcarp
cud ortnI
t ruoc
nu P
es nopser
Ġelba irav
te G
nur B
o i
ni K
Ġnoita tS
ev itca
Ġlaut celletni
Ġdelt itne
Ġyro getac
Ġsmsi nahcem
ram mus
00 5
nimo D
e J
sa ert
F E
Ġy ortsed
ht urt
Ġgni eB
Ġtne loiv
Ġlli ks
Ġse n
tam ma
it luM
Ġht ne
Ġtse n
Ġgni unitnoc
ur B
Ġyen dik
isrev ortnoc
to g
ecne dive
ssen tiw
d loh
dna M
Ġs tsa
Ġy d
y n
mi H
Ġci monocE
enat lumis
itned I
si sab
Ġega ssap
Ġ4 991
Ġdne txe
Ġgnire tne
Ġs mia
Ġg nul
pma hc
Ġm rah
ra t
Ġecne tnes
Ġsi sahpme
sen niM
ta erc
Ġlati giD
uos siM
Ġse civreS
a da
e gna
s v
lp mis
Ġ3 3
Ġgniwo nk
mro ne
de eps
Ġsseni suB
po T
Ġdnab suh
Ġseicne ga
Ġyda L
Ġdni F
tim snart
delwonk ca
Ġgni ma
elo hw
mieh zlA
3 691
Ġti rips
se M
Ġrev ird
si h
Ġera pmoc
Ġem irp
ĠD I
ya W
Ġdeti derc
Ġytila picinum
nois rev
ti c
de re
Ġli am
Ġlagel li
Ġhsi nif
Ġecne difnoc
Ġevita tneserper
ceps ni
su tats
Ġkna t
ĠR E
Ġdi ov
ah xe
yti laer
cep sus
0 51
la noita
Ġdeta losi
Ġyra tnem
Ġdrof xO
Ġse lam
reta M
Ġskrow ten
as I
tset orP
Ġnoita ulave
tu F
Ġnoita lsigel
Ġses nopser
Ġgnin ruter
erof ereht
Ġsroti siv
k rap
Ġsnoita cidem
Ġnos nhoJ
Ġgni lp
Ġs nwot
pa R
v lovni
Ġtna rg
eni cidem
ic nirP
a P
k oo
na t
Ġi zaN
Ġreg gib
2 691
po H
te S
ai retcab
s dna
Ġdna pxe
Ġna cilbupeR
Ġsnoit curtsni
Ġy ria
dne csed
Ġerut cetihcra
Ġnoit cnuj
Ġllab teksab
Ġti us
Ġrae nil
Ġem ussa
Ġevis secxe
Ġ0 991
Ġgnit tis
esi crexe
6 9
cifit rec
ruo loc
Ġdek nar
Ġerut lucirga
Ġniat paC
e revo
Ġla srevinu
u E
Ġteg dub
Ġti art
hta c
DI VOC
hc aeT
ces noc
eca ep
mue suM
Ġ5 991
Ġto lip
Ġesi on
Ġdeta r
hsi F
Ġci ssalc
Ġsrek am
Ġega ugnaL
ĠP I
Ġno sirp
Ġtneme vorpmi
y do
Ġeta nimile
r K
Ġf luG
rae s
i ni
issi ssiM
ro da
et utitsnI
Ġm us
tneserp eR
rets ym
der iuqer
n rael
nu T
hc um
Ġk lof
Ġgnid nopserroc
ht E
y g
Ġe oJ
Ġni k
tne vda
Ġtne ga
Ġnoita rgim
sts oc
Ġytne lp
y rujni
Ġyb ereht
Ġsei rujni
yti ci
re lc
t pygE
Ġn locniL
Ġsei poc
xa S
Ġnati lopor
Ġeg duj
yreg rus
Ġi j
os la
Ġret niW
dnal si
e soprup
eni cideM
M B
Ġthg iL
Ġsre wsna
dne lac
gno t
Ġm aeT
Ġsno s
se B
Ġera C
iti m
seid ob
Ġ liated
Ġel tsac
lehw revo
s loot
sa v
ed nI
Ġssa lC
ci R
Ġdeta eper
cni vnoc
Ġde tnemelpmi
hc uot
Ġga lf
tne mmoc
Ġsre tem
snoit cnuf
no S
Ġev etS
Ġnev orp
Ġnoitce torP
Ġsseldra ger
mo loC
Ġnoit ubirtnoc
Ġse irt
Ġlave idem
Ġn nam
Ġsma rg
mati V
Ġekil nu
Ġgnirae w
t cid
Ġa et
Ġgni ganam
nor B
Ġpa g
Ġeni cideM
noitce torp
Ġnoita lsnart
Ġw erd
Ġo idua
de id
Ġgni rrucco
ĠI A
Ġtsu d
Ġdednuo rrus
Ġgni mraw
Ġkci lC
lati psoh
Ġa lli
Ġsehc ru
si H
st cejbo
Ġse veileb
hc raM
Ġhc uM
t cejbus
Ġtne ca
Ġpu c
seit reporp
f lA
mix orp
Ġrem muS
Ġeta neS
reht aew
Ġseiro eht
Ġspah reP
Ġek iM
9 391
Ġne hpetS
la hp
se ir
noit curtsnoc
pircsu nam
Ġe L
doht eM
n rub
Ġsu neg
rot civ
tso C
Ġht neet
yte fas
Ġts li
enil no
Ġhsu p
tsinim da
Ġy kcu
nu B
O T
syla nA
6 7
Ġnoita tneserper
co lla
Ġd lihC
2 491
draw rof
ytiru ces
to H
Ġgniru saem
Ġn roc
Ġylev itca
Ġnoitnev retni
Ġylla uqe
a hw
y T
ia T
edi V
si seht
Ġla ever
de W
Ġstne mmoc
Ġsuo icsnoc
1 691
E I
k col
re hcaet
Ġes netni
Ġsnoita luger
Ġdez is
Ġderi sed
Ġkco R
ne hT
Ġsts il
yr bme
Ġsehc narb
sa rap
lli B
Ġerut xim
se pyt
Ġe dom
Ġsre yal
Ġgnik ci
ĠD NA
t cejbo
re mun
Ġla vomer
du S
8 491
Ġecne h
a ira
Ġts gno
gre lla
n rob
Ġtse wol
cra tnA
Ġnois netxe
Ġneddi h
Ġnoit curtsni
lip up
Ġes uo
Ġ. ...
lle b
lav itse
6 0
nna hC
dni L
S D
nam or
O P
Ġd rihT
Ġgni ro
Ġdra vraH
lo po
Ġroi retni
tsina hgfA
Ġnoi savni
Ġs mitciv
ht oot
gni wollof
Ġeni w
tin gam
6 8
Ġ ita
Ġna mottO
Ġyrota ripser
lit ref
i ma
Ġsse ne
y D
Ġgni tomorp
Ġnoita terpretni
Ġs w
era wtfos
luf sseccus
ym rA
Ġeto N
Ġde kca
l lu
Ġse hcaer
V IH
Ġsi cnarF
de es
tu hs
Ġdeta ni
Ġts itneics
ita pmoc
man teiV
seuq inhcet
bira C
Ġre gnorts
Ġevit cepsrep
ll it
y p
Ġeta didnac
Ġâ Ĩ
Ġnoita cidem
Ġeb yam
lla F
zil itu
Ġdev los
Ġytilib i
Ġse rots
1 491
h k
irb yh
na ecO
Ġkca B
o f
go lb
ga e
Ġseno J
R T
ai nigriV
el pmis
ruo F
Ġred iw
yl kciuq
Ġgnin raw
Ġnoitce S
nor hC
ra T
Ġkcab deef
Ġsle ssev
ne vo
ep ahs
tsi L
Ġ4 3
ro me
s gurd
yl ba
yh po
Ġek ops
Ġt rams
is bus
9 8
lo b
Ġ2 991
gne B
A D
Ġnoita nalpxe
Ġrevewo H
noita reneg
Ġst xet
at o
Ġsnoitca er
ne h
ci syhp
de mrof
ic remmoc
Ġretsa M
sna ciremA
ruta s
Ġcitsi retcarahc
t rats
we i
rt cod
Ġte L
Ġt raeH
ro psnart
Ġp ih
" ?
Ġgni llaf
Ġde tnem
Ġs lortnoc
de dne
Ġma n
ger G
Ġd ir
tro F
hsa rc
Ġseni hcam
Ġsetu tits
ce xE
Ġgno H
Ġaid eM
4 7
C D
Ġl rig
Ġetu ca
Ġgnitce torp
pu re
Ġdna s
Ġsre musnoc
Ġeu gra
tamma lfni
Ġa iraM
Ġdnal tocS
rdyhob rac
Ġyrev iled
era w
Ġsk ci
Ġyr raH
Ġyad nuS
lle H
Ġevitce torp
Ġci getarts
ger O
mod ba
s wal
re hp
no ri
de dda
Ġsnoita vresbo
Ġdra wa
Ġtne rappa
Ġdet niap
Ġkrow teN
Ġtreb lA
Ġdne tta
9 7
Ġde it
Ġt rahc
ti psoh
Ġtneca jda
Ġytu d
Ġdeta picitrap
nae co
Ġgni vas
hta po
rugif noc
Ġsega lliv
Ġecud ortni
Ġsdi ca
cid siruj
Ġsta c
la ht
ir ret
Ġst cirtsid
Ġyl trap
Ġwon s
t cirtsiD
reve N
re iP
ci D
Ġna id
na T
rap ed
ta mrof
Ġnoita mmalfni
gi leR
Ġ' ,
Ġmutna uq
te y
pec sus
Ġfe iler
ti urf
Ġdes sim
Ġemo R
Ġyte faS
Ġh sac
Ġe in
ita P
Ġdere tsiger
Ġno o
ew roN
A L
Ġn row
Ġe paC
Ġt pygE
oga cihC
p uorG
doo G
m rif
Ġno ci
na H
Ġgniyf itnedi
red rob
ir tap
Ġse soprup
Ġeda ced
ecne loiv
Ġecne lav
Ġralucsa vo
Ġreb if
Ġlufe rac
Ġdene taerht
Ġsna itsirhC
t cirtsid
Ġyltne rappa
Ġdesa erced
ca S
mot pm
nimu la
hpe let
Ġde cudni
Ġse loh
Ġdeta cilpmoc
Ġroti de
le K
Ġ8 4
ht uA
st rop
Ġde tsixe
Ġedi ci
Ġsn gised
lbme ser
ht nA
Ġgni nioj
Ġstne ga
Ġnot gni
Ġsemoc tuo
O G
Ġnia lp
Ġ bal
Ġsser P
Ġsci syhp
Ġdet ubirtta
elc yc
Ġdra ug
Ġnre tsaeht
Ġhca mots
iv er
k cit
Ġci mota
00 91
noita dnuoF
Ġnoita irav
Ġden gi
li B
Ġo rez
mu p
Ġse p
Ġthg is
Ġnoita gitsevni
S B
Ġne doow
Ġre daer
Ġsnoit ubirtnoc
Ġnoita raperp
cit sep
Ġret rauq
s U
dna xelA
Ġci manyd
gni w
pu C
Ġnai rotsih
se vael
li ve
Ġgniti aw
a is
Ġa me
sle dom
gro eG
Ġts row
liv irp
c ser
Ġnoit cif
ik iW
st f
Ġs mo
yl gni
sti nu
Ġma d
Ġdeni maxe
Ġnwo T
Ġa igroeG
ae L
re gnad
Ġeta redom
h se
du m
eru B
Ġserut luc
niv orP
Ġde ra
py rc
Ġseci ohc
Ġsir hC
o k
wo L
Ġesrev inu
Ġs niart
Ġo ihO
Ġna tsikaP
gi v
Ġnoitrop orp
y rtsi
ned dus
Å ¡
rots ecna
Ġre peed
Ġsrev ir
Ġp U
ra limiS
Ġ7 3
Ġyrt na
irht ra
no eL
Ġsei reS
Ġdae tsnI
ren nam
la i
Ġeci r
8 591
Ġgni gnellahc
si L
ene V
Ġtfo sorciM
Ġgnihsi lbatse
l tA
Ġdeif ilauq
e cived
Ġsna idnI
Ġyar ra
7 0
Ġe pyto
Ġ1 991
Ġgni greme
Ġderref erp
Ġyl trohs
Ġ" !
Ġref erp
á ¹
Ġria per
ra psnart
Ġde lb
Ġra t
Ġgnisu cof
Ġtni oP
Ġla tno
Ġega w
Ġde ssecorp
mo dnar
Ġdeti c
luba cov
O F
Ġese ugutroP
Ġma dA
Ġdev iecrep
Ġelyts efil
fei hc
Ġecne dneped
Ġlit nU
Ġcita mard
Ġg el
Ġ Z
Ġs moor
Ġem margorp
Ġngi seD
arce caps
Ġlacit rev
gir O
d loc
or yht
Ġra loS
Ġlacigolo ce
Ġnia mod
Ġgni nil
Ġeb ut
Ġeta tse
____ ____
ff ub
Ġgnik oms
nig irO
Ġgo lb
de sa
dne r
Ġs daer
Ġeni L
Ġn muloc
Ġk nar
A SAN
Ġs raM
el tit
Ġg ge
Ġev reserp
Ġt rofmoc
Ġytta f
ya R
Ġngi eroF
roht uA
Ġsela mef
3 491
tse g
d riht
curts ed
Ġelb uort
Ġduo lc
se lu
Ġsnoitca retni
Ġevres bo
ita ps
mi geR
Ġyra srev
tsany d
Ġno sni
Ġwor ht
Ġesae siD
ba lA
Ġnoita vresnoC
en O
e iL
ti v
de erF
Ġsnoit ce
irtu N
Ġsk cor
li K
Ġedi uG
o H
Ġht rof
rts id
Ġeso culg
se nneT
Ġ3 991
tso f
dlo f
Ġgnitce ffa
Ġde yojne
Ġxe dni
y ev
ae roK
Ġyra noit
noisiv id
Ġsn ruter
Ġre gnad
Ġgnit nirp
Ġli ve
k ool
le n
Ġ in
na tsikaP
to uq
gni ti
Ġnoita tneserp
Ġsre motsuc
Ġyllacita motua
txe tnoc
Ġp etS
Ġli cnuoc
po tsirhC
9 591
a et
ni h
Ġde ci
Ġno d
Ġtna ngerp
Ġlare nim
noita cinummoc
Ġo cca
Ġhc tiws
Ġgnivom er
ru N
Ġa ka
sop sid
Ġedu lc
Ġgnit hgil
7 491
n worB
red nA
Ġesa rhp
Ġtnem erusaem
st uo
Ġsla irt
ro tS
Ġde greme
eni hcam
ce rof
Ġgnit nuh
Ġdep piuqe
wei veR
7 591
Ġt buod
Ġsno saes
Ġh sid
a edi
Ġle d
ba S
Ġev itne
hsi lbup
Ġde tsisnoc
Ġa b
Ġyra teid
Ġre ka
ah W
daets ni
Ġdeno dnaba
7 8
picit na
z yB
Ġruo ivaheb
Ġecna diug
Ġmo dnar
sita tS
hcti p
serut curts
pa gniS
Ġli ar
won K
Ġnoitnev noC
doht rO
na ht
Ġm c
Ġd lim
ef inam
luo hs
o ediv
Ġgni yap
loh ciN
c nuonna
Ġro vaf
ec neg
h G
it o
va C
kci ht
ni mef
s mra
som orhc
rez tiwS
na u
se sa
Ġevita vonni
yc neg
Ġ8 3
re w
ĠA SU
Ġev als
Ġo G
Ġs worg
nre dom
rae Y
Ġnoita luger
Ġnaici syhp
Ġgni tsal
Ġeta icossa
Ġ ud
ht row
Ġn na
Ġyti di
Ġsdro ceR
co c
k lim
na ira
ma J
ta K
Ġtsgno ma
Ġpohsi B
dro J
Ġgnirae b
su riv
in k
Ġde hs
mu j
fo or
Ġelba nosaer
y loP
Ġecna cifingis
Ġgni mraf
pa v
Ġst cesni
m ert
Ġre enigne
Ġste ehs
Ġs so
Ġwei veR
s da
se let
Ġelc ric
D H
tsa ved
sre b
Ġevita repo
lis so
Ġsren trap
mue sum
Ġsret tam
Ġyti snetni
Ġ q
Ġgnicne irepxe
suht ne
Ġne tsil
tsa erb
rets am
8 0
y bab
di R
ec ruoS
Ġsti art
pi hc
eti hW
Ġniat nuoM
ro e
Ġgnit f
81 91
Ġnev iG
de ga
Ġel bme
na s
gni ne
Ġdetce ted
Ġsdna med
ti nu
ma hC
Ġdetne vni
esa eler
Ġssenevit ceffe
rae P
ll I
el S
i lppa
Ġev iL
kci rc
nu R
us rep
ae f
Ġpihs rentrap
de ednI
Ġega revoc
u F
kco ts
go ga
ida ts
Ġsnoita cif
Ġgniv los
Ġyrtsi mehc
Ġs peek
Ġnoita rts
Ġweiv retni
Ġgnidnuo f
ralu ger
Ġme op
ita f
Ġsre pap
Ġegati reH
lle s
Ġsecna tsbus
ca v
ek am
Ġyr T
Ġev lewt
Ġdet cirtser
Ġevi F
gerg ga
Ġl y
Ġdeti b
no roc
6 591
re ilrae
gi le
rb etrev
Ġkci ht
Ġsdna b
Ġyro tammalfni
Ġhc ra
lla B
Ġdezila iceps
Ġa nu
hc rem
Ġla it
ma j
Ġsla u
Ġem usnoc
Ġsema G
Ġe o
Ġle nap
dra C
Ġre it
Ġe tsat
re giN
hc A
Ġre sal
lu J
Ġdev reserp
Ġwo b
yti srev
Ġde gnarra
Ġsega ssem
Ġlaci hte
Ġlaro ivaheb
Ġnug eb
tne dicca
gnik niht
s retcarahc
y evrus
Ġemoc revo
Ġena cirru
tna f
Ġ. ]
dixo itna
Ġ. %
Ġa w
Ġdeta nimod
Ġgnit cennoc
lu S
Ġek orts
Ġna me
Ġselba ne
Ġla itrap
Ġeta idem
Ġspa m
Ġwei V
Ġgnite kram
Ġdete grat
Ġni matiV
Ġylla noisacco
da R
ĠD A
Ġevit itepmoc
Ġsp roC
snoc siW
Ġgni sse
Ġlaci syhP
00 3
6 491
Ġlaitne diser
Ġro b
Ġyekco h
Ġeri w
Ġlati psoH
a so
Ġ, ]
ts bo
il E
Ġz za
Ġk cen
la n
Ġylla utriv
ĠT I
Ġpihsre nwo
ar p
ae ts
Ġt ew
ro hT
se lur
nif ni
Ġa in
to T
Ġno sir
Ġdi D
Ġde tserra
Ġro irepus
Ġdeti vni
te nep
Ġsse ler
s tu
ua no
Ġetu losba
Ġoda roloC
ita orC
seiti la
ngi apmac
Ġegna hC
co lev
Ġlacigolo nhcet
Ġren roc
Ġe nia
esa B
bu c
Ġeta roproc
Ġek irts
Ġte ews
Ġnoitce ted
hpo s
Ġtrop eR
Ġnoitani maxe
Ġevitce lloc
lo T
sne c
Ġylev i
thg is
ĠC I
Ġro da
id utS
Ġdeta cude
snoita utis
bu lC
Ġste kram
la r
E D
Ġna ga
eta milc
dnuo ra
e grahc
Ġs feileb
va J
Ġscit ilop
tel hta
dna R
ere hpsomta
sser gnoC
gola id
pma hC
seru taef
l gnaB
sei rots
Ġgni calp
tne duts
Ġeri F
Ġdetne mucod
Ġo re
pmi S
Ġela s
Ġycneg A
ne zitic
a ne
Ġd og
Ġl lup
Ġgniti siv
Ġsla ever
Ġeru tsiom
seda lgnaB
Ġtna lP
thg irb
C M
hc eeps
Ġnoita nimircsid
llew s
Ġstrop S
y htlaeh
ts uA
gna dne
li maH
Ġnaira ti
Ġl raE
so lihP
Ġp ili
Ġsnoita cilpmi
Ġtca retni
nar G
a lo
Ġoto hp
Ġgni naelc
ĠN I
nop seR
Ġno pU
Ġ is
na cirfA
ani loraC
9 0
Ġnoitacif itnedi
Ġse laW
Ġt bed
Ġse rocs
va cxe
i lpmoc
Ġse caps
Ġstnem erusaem
ge led
4 0
Ġro nrevog
ba G
Ġeno m
Ġsgni n
sega mi
Ġgni tu
Ġgni htaerb
go T
Ġtneme calper
Ġh parg
no de
Ġlaci rotsiH
Ġdecna lab
re su
1 6
4 8
ur D
Ġdle iF
Ġdra dnatS
Ġgniri uqer
Ġk cits
Ġto lp
Ġsle ef
gir ri
Ġy tuaeb
Ġel ca
Ġek oms
Ġtnem timmoc
go y
Ġsnoita dnemmocer
Ġgnine ercs
ht na
Ġcilo ba
Ġycna ngerp
Ġleu maS
2 6
il g
Ġssor C
Ġnegor tin
ytne wt
dno b
Ġseno ts
x i
Ġe los
Ġfo or
tne mirepxe
dna c
Ġytila trom
Ġnoitazi nagrO
re mo
ret u
Ġlli h
Ġsuo u
Ġ00 8
Î ±
Ġs gel
Ġw erbeH
ny L
9 491
Ġsu pmac
Ġevitca retni
C S
Ġy sa
elihw naeM
Ġt ciderp
snoit cefni
na ts
Ġeni gami
Ġdetce lfer
na ciremA
Ġci gol
Ġ9 891
ĠG NI
Ġlani ps
Ġdero loc
hsi b
evit cepsrep
nar c
y z
Ġe tuoR
se na
re ih
de w
dra H
Ġygolo ib
ĠU E
se a
st rops
eru liaf
k nil
red le
Ġlo retselohc
Ġlairo meM
ro sse
g nuoy
pa ehc
ig leB
Ġecna ssi
Ġdlo G
Ġyllaci syhp
la nruoj
le N
nep O
d la
Ġt p
fles ruoy
Ġa nne
or F
e nalp
Ĥ ¬
ta S
dna laeZ
Ġdnuo pmoc
Ġytne wt
5 591
lia me
Ġtneme vlovni
Ġy er
le hca
le ks
Ġnoit p
net fo
nil yc
Ġgnihc taw
rf ni
Ġp ma
ga lf
k ce
se moc
Ġylla itrap
Ġylbme ssa
Ġrep poc
Ġsus rev
Ġra tiug
pirc S
Ġeta rbelec
ega reva
Ġyr reb
Ġgniga mi
Ġ000 1
lau siv
Ġgnit roper
Ġseite irav
er iter
Ġd leiy
Ġylla retil
Ġdoo lB
Ġrep pU
Ġyleti nifed
Ġsdnal sI
si cnarF
rebme tpeS
e ug
Ġgni nimreted
loco hc
r W
Ġdi ar
re feR
et u
Ġtso ob
Ġmu rtceps
nret lA
Ġro l
Ġnia rg
Ġo nima
Ġno oM
8 391
E P
da l
Ġes row
Ġselp maxE
Ġt op
Ġsre tnec
fni ar
ru Q
Ġlanoit utitsnoc
tsis sA
Ġyrati liM
Ġse grahc
O H
Ġgnine tsil
Ġsniat nuom
Ġno ihsaf
rome mmoc
se caf
Ġn Ã³
Ġylla noitidart
Ġder if
G A
Ġa j
y ru
Ġk curts
Ġylba ton
e seht
Ġeta gitsevni
Ġsrot ca
so i
Ġsa snaK
il f
y zne
sse L
ib ma
Ġlanois nemid
3 0
Ġht xis
tir reT
ro mem
4 591
Ġde sserdda
Ġyti ralupop
yh P
Ġman teiV
elb i
va p
Ġeci loP
bah ni
rga rap
Ġgnib ircsed
Ġpili hP
Ġhsi rap
Ġralu llec
ni ard
Ġk eerC
elb uod
ilp ma
Ġs milsuM
Ġp rahs
nap siH
Ġna ecO
Ġci nego
Ġste grat
f i
Ġst lu
Ġdeg rem
hc us
ssa ssa
Y N
Ġdne rt
y W
Ġle boN
Ġlacit nedi
gno M
Ġ' .
Ġsev lesruo
hpe le
selba tegev
Ġeta ler
ye hT
e nuJ
Ġyl keew
Ġero tser
lg uoD
Ġseb irt
ruo lf
Ġa ihpledalihP
Ġrewo t
my no
cu a
Ġde rehtag
Ġeta tilicaf
Ġdetad pu
Ġssi wS
Ġret laW
lli W
ye K
dulc xe
li P
uq A
Ġsecne icS
lle t
Ġsel yts
Ġseira v
t rof
let nI
ec no
Ġgniru sne
e miT
Ġse darg
Ġgnire enignE
Ġy taerT
Ġgni looc
Ġnag ihciM
t L
Ġgni pe
Ġw ehttaM
noita N
draw A
la noit
Ġthgi R
Ġtib ihxe
Ġa ya
Ġtnem taerT
Ġai rotciV
Ġgniy rav
pur retni
Ġsehc tam
Ġgnidne s
Ġrood tuo
se ssalc
Ġse sse
Ġno il
4 9
Ġgni dnal
ta em
li pmoc
rev id
Ġnoita rtsinimdA
Ġai navlysnneP
ene rp
F C
Ġeni tuor
t cu
Ġeca eP
les nuoc
al kO
Ġni lusni
stnem eriuqer
sre su
1 7
Ġde simorp
Ġtro P
Ġdae H
Ġstneme tats
mma rg
erevo s
3 591
yte ixna
Ġci rotsiH
Ġnoi sulcnoc
Ġnaig ewroN
Ġa eroK
Ġye K
Ġo llopA
Ġno nemonehp
Ġecna rtne
reta L
noisse s
rco meD
se lc
Ġx u
Ġde citon
ruo vaf
Ġlaci grus
Ġnae narretideM
e zi
ro od
seta r
Ġema G
r waL
Ġ pop
ro olf
ic ita
Ġdeyalp sid
ria F
Ġsecna hc
rap moC
Ġytiro nim
ere ts
Ġmod gnik
Ġlaci r
ega lliv
ro v
snoita zinagro
my zne
a wa
i z
Ġa rt
esu ac
ets o
Ġgniy lppa
Ġlano igeR
ca R
Ġstna tibahni
ret rauq
Ġyl peed
Ġser ca
me htaM
Ġla picinum
3 9
lle hs
Ġyle tu
ĠC A
Ġstneme vorpmi
lisso f
divid nI
y mra
Ġsy ek
Ġdet cejer
itpa B
e tse
Ġde vas
Ġsuo ena
elb orP
Ġytiliba borp
Ġy rg
Ġgnita ler
Ġlacit po
Ġsehcru hc
Ġnoit pecxe
Ġgni llortnoc
Ġnoit on
noisserp xe
Ġsi weL
ediw dlrow
Ġm eti
Ġtse T
Ġsya r
de irF
Ġ.) "
py r
k ooc
t hguo
dne tta
Ġscit sitats
tser w
Ġde lla
ve ni
Ġnoita rgetni
ksa t
s rM
et orw
Ġlaci lb
Ġeni ma
ai me
hsi napS
motpm yS
sdi k
Ġloco torp
Ġgni car
Ġerehw yna
moh alkO
Ġsra llod
Ġeta mitlu
la mina
cni vorp
es roh
Ġgnik ooc
Ġsgni k
Ġsnois ses
g irB
se ton
Ġcit crA
Ġnil reB
t rA
Ġgni zama
Ġder cas
eno hp
Ġ ruf
Ġteg rof
Ġre llabtoof
rae p
h sid
Ġsuo mrone
tsev il
Ġlar de
Ġsred loh
Ġsev iecer
Ġnoissim rep
s reht
go lana
ko orB
m c
gi c
Ġlaitne ulfni
Ġ0 891
Ġdesu cca
Ġdev ivrus
reb iled
2 7
Ġesrev er
uo lc
Ġt revnoc
me F
Ġsd da
Ġsnoit ome
Ġrewo L
Ġdettim snart
Ġtsi L
Ġse tirw
Ġyra dnuob
nai siuoL
Ġseiro getac
Ġdla noD
hcti k
Ġtxe N
Ġgniga gne
cit cennoC
Ġnos kcaJ
ecit suj
ti W
Ġdeif iceps
ra graM
Ġnia M
E M
Ġdeta luclac
Ġgnik roW
Ġem ordnys
Ġgnida rt
re ni
Ġdet nuom
Ġnia rts
Ġcit sitra
Ġdnuorg rednu
Ġneht gne
ruo ivaheb
ssa b
Ġ8 891
Ġytiliba liava
evit ceffe
Ġtib ro
Ġa lumrof
Ġtsu rT
Ġsesi crexe
Ġhg rub
lla t
Ġelp meT
Ġgnip p
Ġsdne t
Ġla em
Ġsecna tsmucric
Ġevi savni
Ġelp pA
Ġefil dliW
t luciffid
Ġa c
Ġna irtsuA
ff uB
Ġsei bab
rip sa
e civreS
Ġelb is
retta cs
snoita lupop
Ġt niap
Ġp pa
Ġlla mS
yl ralimiS
gnella hC
re woP
Ġgni e
Ġser if
Ġlairep mI
Ġret rohs
iec noc
Ġytlu caf
Ġkoo L
dnuorg kcab
D S
la F
noita cilppa
neg yxo
esu a
Ġdel lor
Ġk roW
Ġai retirc
Ġemoc tuo
Ġf lesreh
tne diserp
Ġenom roh
noit itcarp
Ġna lP
Ġlla t
m rA
y rts
sro ti
Ġstne idergni
nosirp mi
Ġeda rT
kci w
ca ep
Ġnor da
Ġyti vita
Ġ; "
Ġseit luciffid
Ġsedo sipe
Ġralucsavo idrac
Ä ±
Ġeli bo
sae M
Ġre imerP
nim id
sseleht reveN
Ġevit cepser
Ġseir rac
ndluo w
Ġ9 3
ssor C
ro vid
Ġret upmoC
eb o
Ġ5 5
Ġyrev als
Ġhc et
Ġwo c
Ġtu O
pargo tohp
ira m
Ġsnoit cele
Ġeci m
Ġlavitse f
k niht
Ġi learsI
Ġsre enigne
ar f
Ġgni calper
hsu rb
gni tset
Ġa erA
M P
Ġl uos
eg rus
Ġde daol
ep ikiW
Ġgniht olc
Ġgnis sorc
l S
se si
Ġna f
lle B
seiti licaf
a D
loco torp
reps orp
Ġeraw drah
Ġe tepmoc
Ġ4 6
Ã £
Ġse vals
Ġgnida eR
Ġde ludehcs
hc tam
Ġgnit ubirtnoc
y nA
Ġelba c
Ġyaw liaR
elddi m
mu en
Ġlavitse F
wolle y
rts A
Ġselp oep
Ġlav irra
re wsna
Ġnoita vresbo
y f
Ġe hca
no illib
rem moC
Ġlau xe
tep rep
cif ircas
Ġd irg
Ġre gnessap
Ġdehsi ugnitsid
se hca
Ġyb gur
Ġret lif
i j
do i
ruob leM
lo d
nar B
Ġelu dehcs
ci ffO
d or
s nrettap
s gge
Ġy hp
Ġel citrap
ga t
Ġswo dniw
yek ruT
Ġ Â°
Ġn rae
Ġelba kramer
eci ohc
no R
Ġtnem dnemA
D L
y luJ
noita lu
Ġa ru
2 591
ret hguad
n S
ĠA I
Ġgno leb
Ġa nna
sne euQ
Ġlani tsetni
t roffe
ivah eB
Ġse rahs
dro G
Ġsro ivaheb
t pecca
Ġre ffid
cilp pA
erut lucirga
Ġgni noitcnuf
ra N
Ġevi su
u N
w ah
er tne
Ġtso P
hguo rhT
hto G
Ġno rtcele
Ġdezi laer
al lA
sse le
Ġste em
dev lovni
da eH
ro G
Ġsi n
s iti
pa rehT
Ġdeti de
o hP
se miT
Ġ,) .
Ġsecne refer
y koT
ta eb
rot ces
Ġwoh S
Ġtsi hdduB
2 0
Ġs mota
no os
go D
Ġkci rederF
Ġeltta c
lo pa
kca B
Ġnoita tnem
Ġsnoita irav
Ġsre rutcafunam
gniht emos
Ġdet cartta
Ġd u
mi J
yt itnedi
Ġlen nosrep
reht ruf
Ġm ela
Ġgnita ni
tsu S
Ġnoisrev noc
Ġgnit nalp
Ġyrt nuoC
ĠA B
Ġred rah
h o
wo h
Ġgnit rop
Ġyca retil
liba ts
Ġll it
Ġe hc
Ġgni laeh
ka M
Ġeg dirB
Ġx a
ts ol
Ġtne dicni
Ġdeta udarg
da rB
Ġle ehw
noitulove R
elo paN
s rats
Ġyt pme
Ġer taehT
illi hP
lu cit
Ġ udniH
Ġdeta vele
roti de
st hgi
Ġdeya ts
a dna
Ġt curtsnoc
Ġx if
Ġst tesuhcassaM
Ġht diw
Ġeli forp
Ġsel tit
Ġcitarco med
du es
Ġnos liW
ecna tsiser
ete nin
ma K
noit itepmoc
Ġren niw
Ġwo L
lg en
Ġp it
it repxe
Ġedu tingam
re botcO
ce f
ba r
at U
ka T
41 91
Ġde me
to si
ve N
no oM
li rpA
Ġsnoita reneg
Ġste ssa
zz up
Ġsnoita rtnecnoc
Ġma rg
C N
re ne
Ġder ih
Ġcit ue
Ġsma illiW
y sae
nab lA
de si
Ġnoit pecrep
Ġsesu riv
ili ser
ro nim
em ordnys
Ġdnuo rA
Ġtneme calp
Ġ liaf
it civ
hc atta
Ġi la
Ġyti ra
Ġtna netu
Ġlaitne diserp
Ġgnilli f
Ġyl feirb
sna em
tsi golo
Ġse irtsudni
Ġse sroh
Ġses sol
Ġ2 4
ĠS O
Ġria hc
Ġsla renim
Ġsta erht
Ġnaici sum
sse ssA
Ġsdra ob
Ġdam mah
st ca
Ġsnoitid art
esrev inu
Ġreht ruF
iv it
Ġnais reP
e rots
Ġlanoit irtun
Ġt oo
Ġd nuf
Ġdne fed
Ġyca rucca
scit ilop
Ġs ol
Ġre ggirt
se suoh
Ġro irP
ka D
Ġgnil dnah
Ġtna tsid
Ġretsa sid
2 9
n dluoc
Ġed ir
suo c
91 91
Ġtsi snoc
se lb
uo B
Ġnoita rotser
et te
Ġyt itnauq
Ġesi cerp
Ġdep p
p yh
ne me
Ġla itaps
Ġez ylana
eda ced
6 391
ga b
Ġsnoita cinummoc
su rP
sei golonhcet
Ġgni lba
Ġgni raperp
Ġyra tnemele
Ġecaf retni
gnin rom
vol S
t cilfnoc
Ġeb irc
sae siD
du H
Ġyes reJ
a la
Ġy ruc
Ġna irB
Ġtsi nummoC
ye B
ni P
Ġspo hs
s god
Ġde tsop
Ġlle hs
gni dulcni
Ġyht row
e tsaw
Ġl A
snoit utitsni
Ġso ediv
ot rac
ĠC D
Ġste erts
s kcatta
daer b
Ġstnem norivne
Ġluf rednow
ci pot
Ġnoita srevnoc
Ġlacit eroeht
Ġssa b
Ġno miS
wor ran
snoita n
Ġgnir refer
sne zitic
Ġno D
3 7
ro noh
Ġni v
Ġyno T
Ġyli daer
tib ra
Ġre hcraeser
Ġsre nosirp
Ġsti m
Ġega ruoc
drof fa
a z
Ġse pahs
Ġegdirb maC
Ġevisser gga
Ġred rum
71 91
Ġgni tirW
Ġot re
sek ahS
Ġy noloc
tnem hsi
Ġ6 891
noisiv iD
Ġre tem
citsi hpos
Ġama rd
v orP
sae S
ba H
Ġ9 791
y lloH
le ve
Ġen nA
na me
no om
Ġna lA
Ġpihs row
Ġir S
e ussit
ega irram
del lik
Ġsreht orb
ri ffa
leh S
Ġeg del
snoit po
d nopser
Ġroinu J
Ġgnine ve
Ġnoit omorp
no merec
b ub
Ġned dus
Ġyram irP
eka ts
no l
ceb euQ
sega p
Ġst uc
oru eN
Ġgni tseggus
gi T
Ġtsila nruoj
Ġhtae neb
Ġseit ira
icita mehtam
Ġ ulf
ces orp
ĠS E
Ġedu t
Î ¼
Ġla di
sdnal sI
t ruoC
1 591
7 391
9 291
ht om
ci me
st caf
Ġsna gro
deta eper
Ġlacit sitats
Ġmrof er
Ġes ned
Ġgno lA
Ġdaol nwod
Ġna J
Ġtf ard
Ġsrae b
P H
v irP
rev E
Ġseta repo
C F
Ġseil f
Ġgniy ub
C R
Ġla van
Ġevita rran
Ġngi er
we hc
po iht
Ġgnid nib
Ġroi ret
thg if
ai navlysnneP
Ġevitu cexE
t raP
we j
ht yP
Ġde tsal
Ġgniso ohc
lli f
Ġrete maid
Ġere m
pma H
mo B
Ġsre ts
ti hcrA
Ġeru solc
te ews
Ġylla tot
mma h
s g
ro rre
Ġsgni tniap
Ġthgi N
Ġde musnoc
Ġenil nO
Ġsec ruoseR
Ġnoit cnitsid
Ġecne dicni
Ġso tohp
Ġesrev da
i va
Ġre z
Ġse ussit
Ġgni raeppa
wo T
Ġto H
Ġselba irav
Ġla eppa
Ġsti bah
cna d
nil reB
Ġa lu
hc ae
Ġtse i
y lb
Ġ zi
Ġde weiver
ga N
za gaM
Ġderu jni
Ġdiov A
ro tta
gni ga
sa J
Ġnoita rud
di ova
Ġytila nosrep
Ġsre tne
Ġma lsI
Ġgniv ivrus
n nam
ecneg il
nk cin
thg it
ir tam
Ġs citamehtam
Ġre gni
se lim
Ġyl neddus
eci ov
k rad
lia rt
Ġhsi ugnitsid
Ġnai lizarB
Ġeta L
noitan retni
sa rt
lg nA
Ġnoitulove R
Ġdoo lf
Ġlle b
Ġa rre
stne nopmoc
Ġsdra y
Ġnae J
Ġgni lur
Ġsuoneg idnI
e rec
mo ced
pihs row
e hC
cu S
nia hc
Ġreh potsirhC
Ġdlo C
et ov
Ġseno hp
S R
y gre
Ġe narbmem
noit pmusnoc
Ġser i
3 391
A H
Ġeca lP
ht iL
Ġse necs
Ġde snecil
sed is
la rutan
ur C
Ġnoita redisnoc
Ġgnidnats rednU
eu nev
poiht E
nwonk nu
lcyc nE
pmoc ne
nev ah
Ġredna mmoc
Ġra er
Ġdlo f
Ġsdnuo p
Ġde kcip
spihs noitaler
p met
t cerid
Ġt siv
Ġsdno ces
si uqca
mu coD
Ġsei lppa
s rac
re gnol
Ġo los
Ġgnita cidni
Ġseni gne
rebme voN
i K
ecna raeppa
roba le
rget nI
redne g
Ġgnik aM
Ġylia D
Ġsecaf rus
Ġnoitib ihxe
Ġ lev
5 391
Ġsrev ird
s llaw
uca v
k rA
Ġtuo hguorhT
Ġte elf
cita mehtaM
Ġde irav
t nulov
pi T
hsa lf
O B
la tem
de poleved
y lppus
Ġk o
Ġ00 7
tsir A
Ġseira dnuob
no sre
tro hS
nit raM
Ġtse hc
snoita ts
Ġ7 891
ca rP
Ġseit isrevinu
Ġdetov ed
e co
Ġdetne iro
se legnA
Ġ0 52
Ġylt cerroc
Ġdei lp
Ġnai nemrA
Ġkco lc
Ġeci n
Ġgnini arT
Ġret nuoc
Ġcif itneicS
tnev E
eg elloc
itne med
Ġai me
Ġlav orppa
co ler
llo P
pu J
Ġeni bmoc
us U
mra F
rb ed
kna B
ecna lab
ip icer
â Ĥ¬
sen deW
Ġn wa
de gnahc
Ġnoita tpada
Ġedu titta
Ġse eb
Ġsni giro
se lif
Ġsreht O
re hgih
re bmem
Ġreht aF
secna tsmucric
ke eW
i bo
Ġ4 891
snois sime
Ġgnit ti
Ġred now
v ivrus
Ġs siM
dra zah
A E
so tohp
Ġsn gi
Ġotre uP
Ġya diloh
Ġdelba ne
t cepser
snoit isop
rtsehc ro
Ġsa es
Ġm aets
ycna ngerp
bme M
snoi siced
Ġtsli hw
- .
lo F
pe R
Ġmah arbA
Ġlaci dar
Ġeta ci
tna w
so oR
el tta
Å Ĥ
Ġsti siv
h B
Ġde rotser
Ġla ud
sser pmoc
sro od
Ġxo dohtrO
fo S
ila c
Ġelbat pecca
da B
s weJ
Ġseiro lac
ppa H
1 8
Ġy olp
Ġdna rg
Ġmuid os
ri sed
ht ae
ru bus
Ġdeta nigiro
Ġciteht nys
da lb
Ġci barA
Ġnehtgne rts
gna R
ua g
Ġre bmuN
eno z
t rams
Ġe M
pe N
Ġyaw hgiH
Ġlatnem poleved
Ġsna f
Ġev reser
Ġrebme M
Ġs poleved
si cerp
Ġtnem eriuqer
Ġyaw hgih
llew d
Ġ j
seit e
Ġdesi rp
si sirc
Ġtcart ta
Ġdeb rosba
e hca
Ġam htsa
Ġgnita r
Ġstce lfer
secne icS
pso G
noitu llop
irt er
gnire enigne
2 291
ek orts
Ġk sA
tse R
hcra nom
ygolo nhceT
e darg
Ġtne rruC
Ġy loh
Ġyrasrev inna
da uq
Ġnoit cA
du R
Ġniat er
yr B
Ġelbi xelf
Ġgnidna pxe
Ġgni mialc
Ġht ooms
Ġnoit utitsni
Ġsei noloc
enerp ertne
h ka
Ġgni rolpxe
Ġl er
elb iB
Ġyel lav
Ġgnitce lloc
nimod erp
Ġlanoitid dA
re llabtoof
rec noC
med noc
Ġyen dyS
Ġ ub
re ganam
Ġre di
Ġsk sa
ĠC P
Ġlanoita repo
gel loc
re nwo
il orp
do p
Ġsni w
nif eD
nia tsuS
fa el
Ġe mehcs
Ġre goR
Ġno te
Ġylla mrof
ig yh
lia hT
trop mI
Ġtf ig
Ġs loohcS
Ġgni gnis
Ġnoita repO
Ġer ca
dni lb
k law
Ġden rub
Ġhc ezC
Ġreht ag
yro tirret
Ġgniti cxe
Ġstne mugra
Ġes uom
Ġtra tS
u eN
Ġl raC
ru G
ret tel
Ġsre cudorp
Ġdeniat er
cir baf
Ġse poh
Ġtse v
kci D
z amA
noit om
1 291
r Ã¼
Ġst ruoc
Ġtnem tnioppa
Ġle ssev
Ġsretrauq daeh
Ġs namreG
Ġse car
Ġlaic nivorp
se z
tem mys
Ġpihs noipmahc
a igroeG
Ġse ca
wo I
3 8
gno S
Ġyrota luger
AN D
e le
m roF
Ġhsi naD
Ġ5 891
tai hcysp
s drocer
ar P
dne tni
Ġretse hcnaM
Ġhtae D
sru hT
Ġthg isni
ref ni
hcna rf
M S
Ã ¸
Ġy ciloP
Ġtce tihcra
ti M
Ġruo bal
Ġnoitarepo oc
Ġde hsup
Ġro baL
ĠH p
noisse forP
Ġdettim da
ta lf
re mac
Ġseitila uq
Ġgni neppah
Ġeci f
2 391
Ġse ra
Ġsro rre
cna vda
vi red
yti capac
gnik am
Ġdet ciderp
sret upmoc
le ehw
Ġnoita tuper
k cen
ort er
Ġe it
gni b
Ġre divorp
mit laB
i nim
Ġs weiver
ru aM
go htap
Ġmar ga
Ġcire hpsomta
lu F
sm lif
Ġre motsuc
de B
Ġgni veihca
so C
Ġxo F
Ġgni tupmoc
Ġnoit utitsnoc
eno yreve
ytisrev id
dna loP
Ġgnit cudnoc
Ġdecna hne
1 9
i pe
Ġy parehto
era f
rob A
i C
stnem norivne
f ae
Ġeno t
Ġle doM
de nia
Ġegati reh
H G
wa s
Ġsreht om
Å «
ne herpmoc
Ġla mitpo
tca pmi
Ġla minA
Ġsde ec
ga E
tni lC
a me
Ġli zarB
srev er
Ġevita itini
re cudorp
Ġseci ffo
dnab suh
d dog
y ub
Ġde noissimmoc
Ġdere tsinimda
kco p
leve sooR
Ġeta luger
00 4
ar kU
Ġtse ug
Ġpmu p
Ġsnoita ni
Ġgnik ni
Ġe usrup
Ġgni solc
Ġ02 1
or roc
Ġsgni eb
Ġsle nap
hgua l
va R
ceps orp
cif ed
sdnal rehteN
tfarc ria
s li
ce frep
Ġseu gra
Ġdluo hS
eni v
ha S
Ġyria d
v er
or teD
Ġta oc
on retfa
5 291
Ġtne ilc
mu rd
hcra reih
Ġseta didnac
4 391
Ġy taert
e ek
Ġeka uqhtrae
Ġs ri
ni E
rb if
Ġevitcudorp er
cida rtnoc
Ġrol yaT
re tsi
rev er
Ġocca bot
Ġo b
Ġmo tsuc
ra gic
Ġtne dutS
Ġdno b
Ġylekil nu
rete h
Ġci moc
Ġt poda
2 8
e ceerG
Ġe naJ
Ġsi onillI
Ġtne v
Ġgnita picitrap
Ġgnine taerht
Ġsto ps
Ġrood ni
Ġyti naitsirhC
Ġeca rt
Ġstna rgimmi
Ġlarut luC
L L
Ġreve nehw
Ġkaerb tuo
su ac
yl reporp
Ġevita ti
edi xo
deta erc
Ġsla i
Ġd dA
noita r
Ġeta luclac
Ġa li
Ġste nalp
su H
ma ry
Ġn roB
Ġgni sserdda
fe neB
eta g
x u
Ġsts oh
ecne idua
a mo
Ġdeta rtnecnoc
Ġua eruB
z za
ma rg
Ġyti varg
Ġyltne tsisnoc
Ġevisne fed
sde es
Ġtnem norivnE
se aC
mo deerf
rra id
Ġdesop mi
Ġtne irtun
nos nhoJ
Ġnor I
1 391
niba c
no K
ts en
ngi la
thgi arts
ki N
Ġle nnahC
lov E
Ġsdne rt
yel laV
pocs orcim
de bme
yt revop
Ġlarut cetihcra
ĠO T
t nu
Ġgni tov
Ġsnois serp
rebme ceD
o ba
it no
sse M
ref snart
8 291
Ġni oc
kco tS
Ġne dlog
Ġ4 4
Ġlani F
Ġsdloh esuoh
e ffa
Ġsne po
Ġtae hw
te nretnI
Ġsdi K
noitce lloc
Ġna ol
tsa lb
ngi seD
Ġdedi ug
Ġstne verp
Ġx iS
01 91
gni yas
Ġyllaci sab
weiv retni
eno b
à ¥
lo iV
Ġdeta rutas
o ta
ci ht
Ġnoit itep
nos kcaJ
Ġemu loV
ir raw
Ġnoita pucco
Ġylevi sulcxe
t cejorP
A T
ae W
ed ut
level C
Ġnai ni
G N
Ġla dem
Ġsne l
pp ississiM
Ġs iti
dne fed
Ġeraf lew
P P
ed I
Ġeni vid
Ġsel ca
Ġegna ro
ro hc
ser ht
emo H
Ġcita ts
ward htiw
Ġeta m
Ġez norb
Ġkni hT
bo B
kci s
Ġs ut
Ġla isrevortnoc
Ġci ht
Ġtnem yap
Ġsnoit u
secne irepxe
Ġgnim miws
a neR
Ġtse gnol
Ġyre V
elcu N
Ġre krow
Ġruo baL
maj neB
Ġesne feD
el ttes
li H
ve K
Ġd neg
Ġgni musnoc
Ġgni simorp
Ġnoita vonni
nia lp
Ġyr row
iw t
Ġsk e
mod gnik
Ġnoita rapes
noit irtun
vo k
kci rt
sel cihev
Ġgni hca
sa r
Ġyf it
Ġd roc
Ġgnin gis
21 91
Ġs pma
se y
Ġdra woH
noita v
OI TA
no hp
st roffe
Ġ qarI
Ġla soporp
Ġytiliba ts
Ġsecne ulfni
Ġelc y
Ġeta roprocni
Ġdeta nimon
Ġlau nam
vele T
Ġs lobmys
s gnos
Ġyti litu
Ġseta lp
y w
Ġne B
era hs
Ġyti sebo
Ġgnita reneg
Ġd roF
Ġnoita iv
yltne uqes
et elpmoc
vres bO
Ġcir E
Ġderet la
Ġyletu losba
ga neet
sre wolf
ne es
Ġyra tnemucod
Ġ5 491
Ġdebirc serp
Ġhc taW
Ġkci s
Ġtne reffiD
02 1
Ġdetu cexe
xe dni
Ġ5 9
Ġsno rtcele
Ġ6 791
hsi lbuP
ht uoy
ts ira
Ġci grella
ht ob
Ġse tuor
hc taw
erut cetihcra
Ġgnit pmetta
Ġevit cnitsid
no g
la nif
Ġt nu
Ġthgir ypoc
ne L
ew S
wor C
xe tnoc
n m
tit la
Ġytivit isnes
a W
Ġsei golo
z t
Ġne vo
mot tob
Ġdeme ed
de vomer
Ġedo C
lsi geL
g orP
Ġecne diser
Ġycne icifed
Ġevit segid
tneme tats
Ġezi minim
Ġegna rts
y nam
Ġe ig
Ġgni levart
wo C
Ġsrek aeps
Ġd roW
rot ce
Ġylla gel
tni oj
sp orc
seu T
Ġret ti
ĠR C
Ġyr teop
sna ici
yes reJ
Ġsevita tneserper
ca rf
Ġhca eb
Ġt ug
kcu b
Ġs motpmyS
Ġse mo
Ġlaru en
7 291
Ġm itciv
noita rtsinimda
ĠM E
a irtsuA
aib muloC
s pets
Ġnoitacif issalc
s liated
s tserof
le vaw
Ġ2 891
Ġelba tegev
Ġlacit iloP
olg nA
Ġse meht
Ġtf arcecaps
ll ys
Ġtneme crofne
Ġeta redefnoC
Ġret niap
Ġevisser gorp
Ġlla h
s boj
Ġde levart
Ġdoo m
Ġro mut
Ġnoitnev erP
Ġecnelav erp
Ġla retal
Ġred isnoC
Ġdeta rtsulli
itne v
le uf
Ġya W
Ġy erp
Ġni majneB
de P
Ġsecna vda
ilp mis
Ġ12 02
S H
Ã º
ro S
ci lbuP
issa top
Ġsria p
Ġy ni
cu m
Ġsre gnessap
Ġytiro irp
hpm yl
lek reB
dni M
Ġylsuo ires
g or
na h
gni ttes
Ġeg e
Ġgni ret
Ġgni llor
ga v
ira lc
Ġcita metsys
Ġycne rruc
l rig
ro pa
Ġevita vresnoc
Ġde erb
hs it
pyr cne
er tnec
Ġne llaf
era C
Ġeri uqca
ea hcrA
ly baB
Ġgni rocs
Ġhsa w
Ġdet erpretni
ol B
Ġsesa g
Ġhsu B
Ġona ip
Ġs bulc
Ġs hpargotohp
lo ts
Ġ0 791
Ġlatno ziroh
Ġne M
sk sat
det cepxe
u eca
yo v
tlu S
Ġra lop
la irt
rae w
Ġsla v
esu ba
nia R
dra dnats
Ġnwor ht
gua ni
Ġdettim rep
Ġdettim bus
l revo
Ġde ird
Ġse gnar
y daer
evo L
ce t
Ġmets ysoce
ytici rtcele
vo L
Ġevis netni
Ġser tem
Ġt rof
ĠA P
irp orp
Ġm rifnoc
de solc
lli h
it rA
zi es
Ġsla tem
Ġsre etnulov
sre dael
hsu r
Ġciloba tem
Ġgnit niop
Ġsi vaD
nu G
Ġtnem moc
Ġ2 791
Ġi ppississiM
ro eht
st hgil
e erged
yla tac
re gna
Ġla inne
mu r
Ġsta es
gni rpS
ic nu
Ġl or
Ġstne c
Ġsnoit cirtser
Ġtu hs
Ġdero snops
Ġlai caf
tni at
n ruf
s moor
se sne
ecne reffid
Ġs mraf
bo caJ
p ih
6 291
ģ Ħ
de c
de z
Ġyro ti
Ġdek co
Ġlairts udnI
gib ma
Ġgni rpS
Ġne tae
Ġtrop puS
4 291
Ġla rtuen
vo ner
mo v
Ġylla iceps
Ġedici us
Ġt pada
Ġgni crof
Ġdooh robhgien
Ġsre divorp
Ġy ret
hp orP
g I
Ġse xat
dne ma
Ġnet tog
ĠO C
Ġgni mo
st cejbus
Ġgniga ruocne
ne dewS
Ġnoita rolpxe
teg dub
re wol
la ts
Ġeno tS
sni etorp
Ġem yzne
Ġnoisiv orp
Ġdelli ks
Ġelbit pecsus
y tS
Ġde dnah
ĠA PE
Ġycne dnet
Ġdez ilitu
Ġa no
Ġa nozirA
Ġtne dicca
Ġdemrof snart
Ġno n
Ġla minim
tsa oC
Ġnet fO
dro L
Ġsre g
Ġmrof inu
Ġnaira gnuH
Ġyra noitulover
Ġlatne nitnoc
lu P
Ġrevo cer
nig eB
muen p
re ffo
Ġt pircs
Ġgni gnoleb
cude R
ro getac
Ġret nuocne
Ġu ae
ov reser
gerg noc
Ġtne manruot
mu idem
Ġd nu
Ġev reseR
Ġega P
Ġlaci nilC
itne wt
Ġevitu cesnoc
dehsi lbatse
Q S
ba t
Ġemo neg
oc S
oo L
dna B
lla D
nois net
Ġdes sorc
sl rig
Ġdenil ced
no G
la tS
Ġdet ciped
rd nA
sma illiW
rts urf
s pa
Ġevit cartta
erut cip
Ġnoitu lover
Ġam salp
Ġdi lav
Ġralu cric
te f
et naraug
Ġdei ned
x iS
mu id
sno saes
Ġnaeb biraC
ed om
noita erc
kca j
itca rP
Ġdlo m
a ts
hp sime
Ġtf il
rev iL
noit utitsnoC
A W
Ġya led
Ġdi m
yltne cer
C U
Ġre daorb
il A
Ġdesu fnoc
ygolo ib
b I
Ġlla tsni
llo R
e o
Ġsre tsa
Ġsre m
ile kil
el htA
te t
Ġgnit oohs
Ġtsila iceps
0 981
n yl
tne itap
Ġdeta vitca
Ġnab rU
r yt
Ġgni tsac
Ġnoita tegev
Ġslli k
M G
d nopserroc
tin ruf
Ġskna hT
roi reted
rem mi
Ġdere gnadne
za H
re di
Ġnoit elpmoc
eh R
tsu C
ri hs
Ġde lif
Ġeno rp
Ġnil knarF
Ġreta eht
Ġmrof ni
Ġnoitid epxe
yra rbiL
Ġcita motua
Ġkoob ecaF
Ġtse irp
leh ciM
Ġstnem poleved
emoc ni
o icos
s raM
Ġ5 791
Ġyro snes
Ġseit ud
Ġsred rob
d rib
Ġyle los
Ġse nifed
ĠS DIA
Ġneve S
cna L
Ġenitna zyB
s dnoces
ro jam
Ġla nimret
Ġsts op
ecne tsixe
Ġdei lppus
Ġecnad rocca
3 291
H M
sa rg
te me
Ġruo T
tna cifingis
ws nA
ga rt
Ġeno hpelet
o rez
Ġs lipup
Ġeso n
Ġdeti rehni
sret tel
Ġyl htnom
Ġsk lat
ste kram
nag ihciM
no ihsaf
Ġkci rtaP
re hC
tu llop
51 91
nae J
ar K
Ġyno merec
Ġ ig
Ġ csid
Ġeva rg
Ġesirp rus
ra lohcS
tne ma
Ġsci pmylO
Ġyno htnA
Ġya lc
Ġyro tS
sma et
Ġdesirp rus
t to
hp u
Ġdeti nu
gna irt
suo ca
Ġsser d
ral ceD
Ġtce sni
Ġlle B
Ġse ssa
Ġyle reves
sei cilop
i hcra
Ġci golo
Ġsd niw
Ġyru tneC
Ġcitue pareht
Ġla nosaes
red lo
sre yalp
Ġyllaci rotsih
Ġse soM
Ġhtlaew nommoC
Ġtre sed
a le
ed ne
Ġx aM
Ġs net
di vaD
b rof
Ġ1 891
Ġe ceerG
pihs noitaler
seit rap
n ruter
la cs
noitid e
Ġhs leW
ĠL FN
Ġt recnoc
Ġma erd
nev uj
l raC
y rub
nu troF
Ġylt cefrep
y de
Ġse po
vo g
sro loc
Ġru eta
Ġs metsyS
rev eb
du L
Ġek o
Ġyle fas
tol rahC
d duB
se tad
ut ni
Ġgnidi ova
sme ti
se L
Ġsnoita zi
rot ceriD
Ġ3 791
ecit on
Ġs sim
ne itap
Ġte ragraM
ra s
Ġluf gninaem
Ġtes no
v ral
ri uqni
Ġ5 8
Ġb rosba
Ġda erb
Ġgnidaer ps
p se
Ġlacigolo eahcra
Ġk raD
R B
li ot
Ġev ac
suo H
r tibra
Ġe eb
rev ef
Ġder flA
Ġelbi gile
idra dnats
ni dE
gi robA
dne gel
Ġgnihc aeT
la oc
gni krow
ts ih
Ġsti h
thgi L
Ġdeta itini
kco c
ci suM
es row
Ġsse cnirP
Ġdel lup
Ġmi K
skrow ten
da rt
Ġse sserdda
Ġ8 691
so P
rets mA
no tsoB
lb uD
sts itneics
lusni neP
f leS
Ġgni lcycer
sni k
Ġdenia tsus
A B
p mohT
ga r
Ġp leH
Ġderut cafunam
seru tarepmet
Ġdecna vdA
Ð °
Ġdesa e
ff eni
Ġdammah uM
erc S
sna lp
Ġd nE
Ġne draG
Ġyl cilbup
Ġnoit ila
Ġ,) %
Ġkca p
ll itS
Ġy z
Ġlla C
ae ca
Ġmu g
Ġer taeht
Ġeunev A
Ġnoita uqe
00 81
Ġ3 891
Ġmod siw
b er
s sim
kna L
Ġa wa
tne iro
Ġtneme veihca
Ġdeifit rec
Ġeru c
rag red
cu rtS
yti srevinu
li h
ru H
Ġeni reht
noitca er
Ġdeta nimatnoc
ll itra
cnu F
d I
sel citra
teba iD
Ġa ht
lo med
il b
Ġsnoita cilpmoc
Ġ8 791
Ġsdne txe
citne htua
Ġyl ti
Ġsi sylanA
st cesni
Ġ4 791
Ġluf niap
Ġseru taerc
31 91
Ġdetne verp
Ġgninia g
desa eler
y lia
ts itra
te ks
irf er
yti rohtua
niat nuoM
Ġdez ylana
Ġlamron ba
Ġra nul
Ġrorep me
Ġte S
Ġeu cser
n roc
Ġa ri
Ġyra lubacov
Ġgnidne peD
Ġnoita sinagro
sk ooB
Ġsrete marap
ta eB
Ġ2 5
ram S
Ġsnois sucsid
ne C
Ġre niatnoc
Ġ1 791
Ġyleta rucca
yrtsi mehc
Ġna iv
Ġtneme gnarra
Ġta b
yl rae
cre xE
rots id
thgil f
re A
Ġre irrab
Ġgno S
ces rep
Ġtneme gagne
tib ro
t raH
Ġse telhta
Ġlanoita r
Ġ.) .
taef ed
' '
Ġre lle
se gnellahc
Ġyti xelpmoc
Ġbo caJ
s tseretni
no sir
Ġeta f
Ġev irra
Ġreve N
s sE
Ġe pip
Ġti nU
Ġnam riahc
ord yH
61 91
kna t
Ġtse solc
n rA
ec nivorp
Ġgno K
za K
Ġe graL
Ġde yolped
dna med
Ġseta ler
za rg
Ġnot tub
Ġe ussI
Ġmi T
Ġdna loP
reg irfer
Ġg urD
Ġtnem ges
Ã ī
le P
Ġmela sureJ
Ġne T
Ġtne ceR
Ġgnit nuocca
Ġned rub
Ġni p
Ġwo leB
iv erP
Ġci na
Ġsgni ttes
lba tsE
not gni
geta rtS
Ġroi neS
Ġo reh
Ġw a
I A
Ġ Î
Ġne r
Ġhtuo Y
Ġgnide ec
bba R
P N
al P
na K
Ġse tov
Ġec urB
tnev es
Ġsnai rotsih
ir tS
Ġsnoit rop
Ġecna tsni
Ġgniv iL
tar cs
ne z
Ġ4 691
Ġnoit netni
Ġnot toc
scit siretcarahc
do ehT
Ġ1 4
ecne dnepedni
seno J
Ġel tsaC
Ġ7 691
Ġde lf
Ġerut lucirgA
t re
sa ep
da s
Ġ3 4
Ġthguo rd
Ġsy en
k lof
ff uts
Ġdezi rohtua
0 881
m rots
Ġ ^
Ġe ag
uca ve
st tesuhcassaM
Ġ7 4
dna rB
dne H
erg A
Ġhsi F
Ġla rgetni
u gne
nab eL
smsi nagro
roe tem
Ġtna dnuba
Ġega mI
Ġeka w
Ġsiseht opyh
Ġsseler iw
Ġk sid
rt lif
mi repxE
Ġhc terts
Ġlli m
nga M
Ġgnite pmoc
â ģĦ
eht a
eg la
Ġpihsre bmem
o tua
nes noc
ni taL
E E
T T
Ġla eR
ita m
Ġri m
Ġtna tsetorP
si pE
ria pmi
Ġmu idats
selp maxe
i rup
z eneV
Ġy sub
snoit ulos
Ġsus nec
Ġgnihsi nif
Ġnoit poda
Ġgniwo lf
la tot
ru E
Ġh pa
Ġsgni teem
Ġsdnal rehteN
Ġeda rG
Ġlatne M
R S
lo R
Ġyle sicerp
Ġsecne uqes
serut luc
Ġre yarp
yolp mE
Ġsez is
ra A
do l
eni zagam
Ġo ediV
Ġil A
Ġsa lguoD
Ġeni p
Ġeunev er
Ġo iratnO
Ġgni tnemelpmi
Ġno ila
Ġnoita roproC
Ġec I
neg or
Ġrebme meR
Ġrot coD
Ġe divid
Ġla rebil
Ġci hp
Ġci saB
Ġnoitce lfer
Ġyllaci golo
se erged
ca B
Ġlaci hposolihp
Ġcit songaid
Ġev ruc
Ġtne tap
hpa tem
Ġyekco H
ht ooms
Ġt er
Ġlla fniar
Ġgnita ts
Ġhsu rb
Ġgni sitrevda
lu snoc
Ġgnin gised
Ġsevit cejbo
Ġtse llams
Ġnam roN
o ihO
Ġe miger
na ps
Ġtne dive
Ġnai rotciV
Ġse doc
Ġy hta
ĠD H
rab raB
sci syhp
Ġse hcaet
Ġtrop ria
mus erp
D U
ni hcam
co loH
yalp sid
ei vom
Ġreta erG
Ġe Ã©
ht laew
Ġstne tnoc
Ġthgil hgih
Ġnoitp rosba
T N
or cam
ti B
el rO
ert noM
reh da
txe n
Ġtca rtxe
nev ig
Ġre ed
ti forp
Ġsnoit celloc
Ġreh posolihp
Ġyev ruS
ci L
Ġht neves
rut luc
Ġsro snes
ese nihC
Ġdooh ilekil
no ser
c se
gni dnatsrednu
Ġcita m
M C
s daor
u reP
na cs
el la
tse irp
Ġsna moR
Ġtca rtsba
ni C
re gnif
Ġmrof snart
Ġo gra
Ġo Ã£
Ġsel it
fo orp
sd rac
Ġden nab
Ġnwor c
a ti
y hw
Ġse htolc
Ġna ps
Ġle noloC
Ġnoitani dro
ci ffe
wo v
Ġn nA
ic sor
semoc tuo
Ġs nug
da L
od nI
sei reS
Ġdec nuonorp
taid ep
sre taw
Ġeu tats
sei rujni
o moc
na muH
Ġgni hsaw
st nia
Ġlatnem nrevog
Ġa u
na L
Ġsecna raeppa
ca l
Ġnoit caf
Ġedi sa
lo D
tne rap
Ġthg it
Ġseta m
Ġralu c
yh posolihp
Ġseit itnauq
yrau naJ
t rofmoc
Ġdedne t
y lp
ni r
le bal
teb iT
Ġre cco
Ġnoita z
di uG
Ġtna fni
Ġyrota robaL
Ġderut curts
f iF
ro te
ra k
Ġsei vom
saer T
seht nys
Ġecne rwaL
Ġsnoisiv orp
b rutsid
Ġdna le
lim E
s gel
ĠR S
Ġyre ts
val so
Ġsren rael
Ġeb irt
Ġdeta luger
Ġ7 791
k ooB
Ġd liW
Ġni veK
ma lc
Ġnoita llatsni
Ġyen siD
seno b
Ġmaerts niam
Ġm htirogla
gre B
e neG
Ġy tniat
so t
Ġsem irc
no W
Ġa o
ir taP
ur hs
Ġtsuj da
b iG
Ġgni peels
Ġeru tuF
Ġsnoit nevretni
Ġsgni w
man ro
mota na
Ġy carcomed
Ġmsi citirc
Ġlaicna niF
tna tsnoC
ica lg
Ġ ve
Ġgnihsi lbup
Ġsre irrab
Ġgnidne txe
Ġgnip pohs
Ġflah eb
ylev ita
F DP
tse retnI
Ġyde nneK
sa lG
Ġdek il
11 91
a ihpledalihP
Ġevi sulcxe
Ġskca b
Ġsrel ttes
sser tca
Ġcihpargo eg
Ġcitsi laer
Ġyde moc
Ġgnilba ne
Ġsse ssop
esa hp
si b
ba hpla
pmu p
Ġyrani lpicsid
Ġnoitcnuj noc
r cs
Ġpo ol
Ġdni lb
Ġs dog
Ġs gnoleb
si se
ub lA
mu tua
Ġsrota cude
trap eD
pici nuM
s w
Ġre ywal
Ġsu r
st tiP
gni p
Ġlairts er
de dulcni
Ġdet ti
Ġelb itapmoc
Ġsyalp sid
Ġsu ta
Ġle veL
se caps
Ġret la
uo C
rev res
sim erp
Ġtrop xe
Ġ9 691
ip me
yrau rbeF
Ġytniat rec
ci S
Ġev ila
Ġev loser
Ġs ru
la cit
de erb
Ġevisne ffo
noit po
Ġi ro
seni le
Ġa dne
tne madnuf
mi K
00 8
h sub
Ġyti n
ll its
Ġnar I
Ġllu F
" !
R D
Ġde tsissa
gna L
Ġnoita redeF
eru decorp
Ġsne et
ene cs
Ġli O
sdnal si
Ġesne cil
Ġgni lggurts
Ġs wa
ru teR
me H
cu rt
u neg
de cudorp
Ġti u
Ġst cennoc
Ġtsaeht uoS
dilos noc
Ġd irbyh
Ġtnema tseT
Ġra lo
Ġgnik irts
Ġgnit elpmoc
Ġai no
Ġgniy d
Ġb rev
t lua
Ġdet cepsus
Ġya R
Ġtca tnoC
ecna tsid
Ġseni ccav
Ġdrof fa
hs raM
gniv il
d eru
tne verp
rep mi
Ġ0 691
Ġmo t
Ġyek ruT
Ġgna h
ita l
co nni
Ġst cilfnoc
Ġdaor liar
Ġtsev rah
Ġscit oibitna
Ġsre f
Ġseite icos
Ġtsom lA
Ġma S
iti C
kca P
idem er
Ġog eiD
Ġsta ob
Ġsrev res
seiro getac
Ġse lc
rep orP
Ġtnedis er
Ġga b
Ġe enk
na V
ro lpxE
lu pmi
noit nem
eg A
Ġsthg isni
Ġlab rev
Ġnoit cudortnI
Ġreb mahc
Ġato senniM
n locniL
u lB
tne murtsni
Ġecne uqesnoc
Ġgnit nuoc
hpo solihP
Ġdeta citsihpos
to hs
Ġsgni tirw
sema G
to R
Ġsne z
Ġnoit nevni
Ġsnoita tcepxe
st roper
Ġtim rep
wo hS
Ġse tomorp
seru saem
Ġded debme
Ġdero lpxe
Ġsuoit cefni
Ġevita lsigel
ycne iciffe
stneme vom
Ġsnoisiv id
Ġta s
Ġweiv revo
Ġta eper
noita idar
to tsirA
Ġdnuo S
tsa P
Ġla cov
do cne
Ġgnidne tta
lufe su
Ġnoita ripsni
Ġe te
lla C
loo T
Ġyad irF
sk co
sre idlos
rb eN
Ġsgni deec
val S
Ġdesi ngocer
Ġezi nagro
Ġne ga
Ġgnida ol
Ġyht laew
X X
p es
Ġna uJ
ya P
Ġgnika T
ser F
Ġna j
id raC
Ġci bo
Ġnoitca rf
si songaid
ev ird
egdirb maC
Ġmo deerF
Ġytila uqe
Ġha raS
epo lcycnE
Ġnoita lucric
Ġsre temolik
Ġde gella
Ġeso ol
nutrof nu
Ġsk ooB
Ġspo ts
g nuf
noit ubirtsid
n niF
ti us
ĠI V
Ġtsi ruot
itep pa
Ġsedi seB
Ġel le
Ġese co
ĠM F
er iF
Ġsni mativ
illi rb
Ġsi xa
Ġma eb
N O
ya sse
Ġsti soped
sla cimehc
o iratnO
Ġgnik cart
Ġ5 691
Ġnai narI
Ġpmu j
Ġh p
Ġeni v
Ġecna nif
sgni ttes
ksa rbeN
se lcsum
da P
Ġa repo
. %
Ġgni rapmoc
le g
li am
dna rG
ĠD E
Ġscit irc
Ġgni cudortni
Ġsle nnahc
det rats
to lp
Ġyllacita mard
picit raP
Ġla reta
Ġyl drah
liba her
Ġa s
Ġne p
Ġthgil nus
ts um
mit ni
Ġsec roF
ki M
mi m
Ġsse ccA
Ġla nim
sub moc
sev nI
rev il
Ġetamit igel
Ġ. .
is oP
Ġes palloc
Ġne zitic
dne mert
Ġan nA
rev en
Ġsts ir
Ġsecne tnes
Ġtsew htron
j ie
Ġtca er
ssenk aew
d it
reb if
Ġyllau nna
Ġ22 02
Ġmsit ua
Ġna D
ir baG
ter ces
si onillI
id isbus
Ġsd nim
Ġama bO
Ġre ti
Ġylla col
Ġderu ces
gerg es
leu zeneV
ka O
sts itra
lau sac
ĠD VD
gnin nalp
Ġyranidro artxe
x ua
Ġde hca
me la
em il
Ġlau tum
a lle
Ġdi oryht
ia F
sserp xe
Ġsnoi nipo
ci s
eni L
sre hcraeser
Ġtsaeht ron
Ä į
Ġyti reves
Ġecna dnuba
Ġsna ira
hg rub
Ġred wop
Ġsla em
Ġgni rehtag
de ne
ĠA F
Ġeni lpicsid
Ġgnihc raes
Ġsk nird
n retni
Ġde ew
Ġrehto M
Ġes itrepxe
Ġssen suoicsnoc
sdi ca
rez A
Ġsla ed
ega ssem
Ġee yolpme
yeno h
L U
n Ã¡
Ġp irts
Ġylsuo unitnoc
s citamehtam
x aM
Ġre lliM
Ġega kcap
Ġsesa eler
Ġde gnoleb
de taert
Ġdet hgil
Ġstne ilc
Ġde cnivnoc
Ġst nuoc
sen gam
la reneG
Ġyl roop
Ġyti li
Ġsnoita tum
01 1
Ġsrae Y
e gnellahc
s doog
Ð ¾
Ġse egufer
Ġra llod
ko ps
tta h
uo R
Ġerehw emos
Ġr M
y getarts
na f
er ua
Ġa le
Ġra elcuN
ne l
Ġtna rG
wor rob
noi nipo
sirp retne
e let
Ġk siR
Ġgnir rats
Ġded nopser
ma iD
Ġhcae B
Ġseiro tirret
s wohs
Ġdedne psus
Ġla nac
Ġhguo r
eru sopxe
Ġ6 4
sno s
Ġyram mus
Ġgnikca b
Ġde revocer
ri ahC
po ci
cna V
Ġma xe
bmu ht
Ġstna rg
e eL
Ġesi ra
rete V
M M
Ġyra nim
Ġdere tnec
gniht yna
Ġe y
Ġsev ird
raw etS
Ġsega ruocne
bu H
Ġelt tes
Ġlanoit cif
Ġre if
Ġyti colev
Ġsev orpmi
Ġrek aeps
drof xO
Ġyl detaeper
Ġsdoo h
y mo
el cihev
seig etarts
e vom
ht eM
Ġeru tnev
cni z
tsis ni
Ġkco hs
Ġlairep mi
Ġevisserp mi
ne ga
id ercni
Ġk laT
nif er
S G
Ġsna eb
se ceip
Ġeni ru
Ġeer T
Ġsei rettab
Ġy hc
Ġna w
Ġeet naraug
I V
gni g
sci r
ca mrahp
Ġnoi pmahc
Ġcita uqa
Ġelu dom
b mob
Ġre ep
Ġre lur
R N
Ġt erpretni
uo cnaV
Ġa do
Ġstnem elppus
gnol orp
Ġana idnI
mo loS
Ġsre ganam
niar kU
nau htiL
e roc
Ġeta erC
Ġlla W
ut cu
Ġ gol
gni hcaet
eta l
Ġnoitamrof snart
iti lim
Ġreve f
Ġsma erts
dues p
ced erp
srev ir
ĠC F
Ġderet nuocne
cat ceps
Ġnosre ffeJ
Ġeca p
Ġs fe
Ġdeta mina
hsa K
H P
na Y
siv repus
nes ra
gu Y
tal si
ne euQ
Ġde illA
erc sid
Ġsk ees
st ce
ia b
Ġre idlos
yt nuoc
Ġstce torp
yleta idemmi
Ġro snes
et ni
Ġlaci mehC
Ġsdra wa
s doirep
hs ram
Ġti ripS
Ġsno ruen
hta P
Ġemoc lew
lec I
Ġwolla hs
te eb
Ġotno roT
snoita col
sro dne
edis tuo
laitne top
Ġlacihpargo eg
Ġtne snoc
Ġ4 5
nois ser
Ġevi G
ecnegil letni
Ġtnem eriter
Ġ4 491
ret tu
Ġde kcab
Ġeta icerppa
Ġdehsi lpmocca
Ġhguo rob
dno hco
i ps
Ġretirw gnos
cer ru
Ġdezi citirc
Ġnoitani ma
gni ssecorp
so b
Ġre gnif
em irc
ruaso nid
Ġs raw
Ġo la
Ġyra nib
Ġylsuo enatlumis
Ġkco tsevil
Ġa p
nep sus
Ġeri pme
Ġno y
srep sid
Ġmsi ruot
hpe soJ
Ġl raK
seru decorp
Ġsus nesnoc
nap moC
Ġa zne
ĠA D
Ġred loh
no il
Ġno illi
Ġsnoita timil
Ġdeti us
Ġyt liug
dnal reztiwS
Ġnai livic
Ġgnis sucsid
Ġgniti mil
Ġsa lohciN
Ġelba rapmoc
Ġsuo iraV
L S
Ġ1 5
Ġset ubirtnoc
hcrae s
h arB
ir E
di a
sir C
ohc ys
ortsa g
t las
Ġf fe
Ġni s
su a
Ġye noh
Ġsre hcaeT
yaw roN
y ma
Ġni m
Ġeta dommocca
va B
Ġeso R
Ġnoisses sop
e nia
tib ihni
Ġgninia lpxe
Ġsedu titta
Ġzza j
Ġo dra
nu L
Ġnoita rbelec
Ġ0 491
Ġsk niht
y sa
Ġno zamA
lli evrus
Ġi ka
Ġ3 5
Ġdevlos sid
Ġy s
Ġde dnal
kci k
Ġne llA
Ġsse hc
za G
Ġtnedneped nI
wo R
Ġsthg in
Ġgnidnats tuo
Ġgni no
Ġgni nibmoc
ma G
Ġnig riV
Ġgni nifed
cer w
yti vita
ĠS T
Ġseitiliba pac
Ġno gerO
ge livirp
Ġd um
Ġmu ira
daer ps
Ġsmrof talp
Ġseir reb
Ġse hsa
id da
tnem poleveD
tso pa
Ġetutits bus
t te
Ġde gnellahc
Ġgnik ram
Ġralu lle
Ġ9 4
evis nepxe
Ġetaidem retni
Ġ #
lli b
Ġyltne dnepedni
yra tilim
tsop A
Ġdeya rtrop
Ġdet tif
ki S
Ġecif ircas
Ġde tepmoc
Ġev lav
Ġk ralC
Ġstne itaP
cni rp
Ġkci rb
rep yH
ene go
Ġtnem elppus
Ġtnem ssessA
Ġyad rutaS
Ġdetce re
L B
Ġy daets
Ġci naclov
Ġsetis bew
noisi velet
y lle
Ġeta ti
Ġeta nretla
Ġdeta eh
Ġrotce v
g k
Ġe ria
na N
Ġcir baf
se irtsudni
Ġsd nob
Ġdesiv er
Ġgniti b
c so
sy ob
yr C
sn recnoc
lu ca
yra rbil
gil letnI
v el
sre wop
eta lp
Ġroinu j
i ga
Ġedi h
mix aM
Ġhcrae S
Ġseg de
Ġdiar fa
Ä «
Ġn uo
ub ed
irb ili
Ġsthgil hgih
Ġs mets
Ġya ced
fe L
Ġsise neG
mono rtsA
Ġt nom
ttah naM
o tohp
dne p
Ġtlu snoc
Ġwon K
nem nrevog
Ġez ilitu
idua S
Ġseo ta
st ra
wor G
0 781
Ġylla nigirO
Ġthgil s
Ġtlua fed
mela sureJ
l itnev
Ġnois siM
Ġre s
Ġsgni hT
Ġs rotsecna
ne T
Ġna hK
Ġera uqS
ec roF
Ġsse leht
Ġarre iS
mu N
Ġlatne murtsni
sti urf
re if
tne p
Ġyt riht
Ġegrahc sid
Ġytisrevid oib
hcir ne
om S
le V
da rG
Ġk lub
stne mucod
Ġgnitani csaf
) "
t fos
U S
Ġsgni vas
ĠL A
Ġreb bur
rede f
itne cni
Ġnois simmoc
x ul
na z
Ġsk aeps
Ġsin net
Ġe ek
ht am
Ġnoita rgimmi
ĠD M
Ġnez od
Ġeta locohc
Ġ6 5
Ġylevis netxe
a nne
Ġa muart
sa pmoc
y hc
Ġsre poleved
gral ne
Ġt obor
Ġla srevinU
Ġle toh
Ġgnis run
Ġrets iger
edo sipe
gni od
Ġg k
namrof reP
erutcurts arfni
Ġa ksalA
ela mef
Ġgni sirprus
Ġse nalp
Ġse nimreted
Ġra limiS
wt foS
tnem yolpme
re tsop
Ġgnita lu
la col
Ġna h
Ġ6 691
ai no
eci rp
secne uqesnoc
na R
Ġde ssessa
Ġdeta ulave
irc s
Ġ2 491
Ġseka l
hgi F
! !
bo T
Ġ6 6
snoita cidem
gni rts
von nI
Ġre si
su cof
Ġci rtcelE
Ġlla cer
ka S
Ġsta tibah
tnia S
ssa rah
sla cov
euq inhcet
ni D
Ġk ra
Ġte j
Ġyle erf
noi nu
te Y
Ġfles ym
Ġren gised
node caM
omoc ol
utcu lf
s yl
Ġgni robhgien
Ġya g
div E
* *
V E
oc sicnarF
Ġla roc
al B
ortsa tac
e ceip
Ġseta rtsnomed
Ġscir yl
eg de
ri k
st hguoht
ya b
dna G
ila s
reh ps
Ġygolo hcysp
nahc eM
Ġnwor C
Ġskna t
Ġrev liS
Ġsle vart
8 091
n h
Ġsle uf
b rut
Ġsno mmoC
era r
Ġtser ra
Ġylgni mees
Ġrel tiH
su i
Ġir uossiM
Ġsi o
dna hC
det elpmoc
t rahc
lo G
de yortsed
Ġseno z
noita mmalfni
Ġlia rt
se civreS
wo dniw
Ġthgil F
Ġnoisu lcni
Ġe pat
Ġy tsanyd
la ngis
Ġstna fni
Ġyre teme
tup tuo
0 52
x iM
Ġeti rW
Ġylba redisnoc
vo C
Ġyad noM
Ġt ruh
me g
Ġte kcor
ega tnavda
serut cip
Ġelu celom
B M
Ġlanoita cudE
Ġe le
sci pmylO
se eyolpme
MT H
Ġse li
R G
Ġel ita
Ġi hc
iti aH
Ġ8 491
nos liW
Ġse sylana
mo g
co t
ega rots
Ġllab esaB
no ceR
tnem nrevoG
Ġlen nut
n worb
ta hW
lla tem
Ġdesi nagro
Ġsdraw A
eet timmoC
g m
se neg
lo w
Ġs pu
ci lohtaC
Ġsei lpmi
reb ut
Ġla ta
krow teN
Ġniat pac
Ġo iR
eni le
e solc
l uos
Ġy srev
te ehs
ff irG
Ġgnik nar
Ġlab irt
uano rtsa
h O
la em
ba R
cne p
eru gif
Ġna elC
Ġra m
Ġsyaw lA
Ġcita muart
ec nivorP
Ġseit nuoc
Ġrek am
Ġca idrac
mi D
stne murtsni
0 61
Ġde citcarp
Ġesa C
Ġ iduaS
ro rep
Ġt nuoC
Ġy ruj
Ġb mob
sci pot
lo gnoM
tse hc
Ġytiliba niatsus
BG L
t itnauq
Ġse pyto
te erts
cit salp
Ġlati neg
Ġsdra dnatS
Ġsrot ce
Ġna I
Ġyl redle
Ġstne raP
Ġnwo D
Ġyca gel
uqca J
eso n
ht rof
Ġnoita vele
Ġra lohcs
ob maC
Ġytila u
sserp ed
gnim riB
s redro
x ip
Ġe row
ed ici
tca tnoc
rim dA
ropa ve
ba C
Ġtrop riA
Ġgniyl lub
e sir
Å Ł
Ġ ÃŃ
Ġe lop
Ġne kcihc
rac ni
Ġeva D
dluo hs
lle cna
Ġlani girobA
sart lu
8 79
Ġlaci nhceT
gnik aeps
ama J
nimu lli
raw d
i lof
uo T
Ġse nim
Ġse lcyc
Ġtne tsisrep
Ġnez orf
Ġeve iler
Ġtu n
tne diserP
Ġ3 691
Ġnatilopor teM
Ġhs rah
num mI
Ġmui na
Ġt oohs
ne vaeh
Ġeci uj
Ġs revo
Ġre tsof
nuo n
Ġsdne mmocer
nu ts
ev i
ĠP E
srem raf
ta me
se ssenisub
lo K
Ġred niamer
snoit cele
sop pus
ib ih
re yal
Ġhguo t
snoit ome
seo ta
Ġgniya ts
Ġe nna
Ġytivit cudorp
g its
Ġelb ulos
s mo
sna krA
sk sir
T F
ri pme
tu P
ega ti
Ġssen tiw
Ġoi notnA
ti k
da c
so moh
Ġsdne s
d nE
noit i
gna g
non ys
rim da
hp en
Ġ2 691
ses ruoc
, )
e nif
ta H
noita si
Ġnoitu cexe
jie B
5 091
ri P
da m
Ġci a
Ġsla cov
no o
Ġde lia
Ġdnuo w
Ġgnid ir
Ġe iraM
Ġsa W
lu pmoc
Ġnoitcurts noC
tsa nom
ta erG
Ġec itcarP
hp irep
bu R
sno paew
Ġa it
Ġyro ehT
Ġla vaN
Ġetu psid
ti ripS
noita tS
oo H
Ġed it
lav ir
Ġnob raC
re bmu
yti naitsirhC
ie K
Ġsdi o
el K
Ġni b
Ġelp pa
Ġ2 7
ecne tnes
Ġlav ir
git sevnI
erehw esle
Ġsniat niam
Ġla rebiL
ca lg
Ġyl daed
Ġsnia g
Ġs daol
mu c
Ġle c
Ġsp ord
Ġlaici duj
t pecnoc
Ġdnuof orp
Ġdno yeB
Ġtro hS
Ġhtne etenin
Ġgnin revog
Ġsevita itini
inne llim
suc siD
Ġe nu
na ga
Ġ1 491
Ġylsuo ivbo
Ġnoitav reserp
Ġs ff
no J
seid utS
Ġetalu mits
g noc
Ġyl ralimis
da rap
Ġh se
Ġsuo monotua
Ġlau nnA
sto or
Ġro yaM
tne mailraP
Ġci gam
Ġdeta nod
Ġra dnelac
ĠS B
re tso
Ġsred isnoc
n muloc
Ġse mulov
Ġsk rap
ĠT C
cilbup er
Ġtsew htuos
g salG
Ġla noisseforP
co F
rts bus
Ġya lP
ei S
Ġela t
ĠP A
Ġtsiv itca
e mulov
Ġeu golaid
yra noit
ht ro
Ġtse uq
Ġy hto
Ġse cnivorp
Ġnois sime
Ġytiliba sid
hpm yS
lohoc lA
Ġliat er
Ġdeto uq
Ġre sa
bo H
sre l
er ub
ys sA
Ġsuo drazah
ek iL
Ġtne gilletni
Ġdek lat
ylia d
no sreP
is ne
Ġtsu bor
Ġseiro mem
edis ni
Ġsecna tsni
Ġtlua ssa
ni eH
Ġse sab
Ġelt tob
05 81
Ġhsa rc
Ġetutits noc
irg lip
tub irt
yla nA
Ġse sod
Ġse myzne
Ġro yam
Ġnoita ralceD
Ġemit efil
Ġlati paC
Ġog rednu
Ġsria ffA
d nom
ni etS
Ġgni lia
Ġne dewS
Ġdere bmemer
Ġsec namrofrep
0 681
e nim
Ġla toT
Ġdeta roced
dne pxe
Ġsuo icerp
Ġstna dnecsed
pirc snart
snoita reneg
poc selet
stnem taert
siv dA
Ġne s
Ġsm ubla
eka l
Ġelba rised
txe N
Ġsci manyd
Ġscit si
mitse t
Ġgniga mad
ndluo hs
Ġre tsulc
sre te
Ġtcep sus
Ġy nna
mu lucirruc
Ġdeli pmoc
Ġseitilib issop
Ã ¦
tne P
to C
tu M
Ġsnoit cerid
ev ila
kco lc
ĠÃ Ĺ
Ġot a
so n
mrof rep
st el
TA N
sned noc
E G
V C
Ġsi v
Ġla es
Ġeni rtcod
Ġdeti cxe
ref noc
k sed
Ġgni weiv
Ġya rg
st pecnoc
Ġnot limaH
nre F
deti mil
Ġre hgiH
ce tihcrA
Ġdra uG
eru taN
Ġtnec se
va edne
Ġeru saelp
Ġssen tif
yli sae
zti F
ita ert
nuo b
gna rts
reb A
Ġde sivda
lavitse F
s kca
ni uG
no T
yti sebo
Ġecna ilpmoc
sesu ac
ni gram
id uA
sdra ob
ke erG
Ġtse torp
Ġgni tneserp
dnuo rrus
doo ts
ulav E
hsit irB
d roc
Ã ´
u Y
Ġecne greme
de tats
Ġg ne
stne irtun
Ġtseg nuoy
Ġsme op
gni dne
Ġtse vni
ĠA DF
nois sap
Ġtnanetu eiL
valso guY
Ġla taf
mo tuA
Ġtne inevnoc
ih R
Ġecne fed
Ġsk roW
Ġda B
Ġecni vorP
Ġste p
cre M
Ġde sirpmoc
Ġdeta leR
Ġlai b
Ġx i
Ġtsi cisyhp
Ġssa M
ĠP DG
Ġlla F
na idnI
ma rec
thgi eh
Ġdele bal
Ġt te
Ġhci w
Ġtna saelp
loo hc
Ġpe eD
Ġlles suR
ru J
Ġtnem ngissa
ord nA
g itim
Ġst nirp
Ġdet cejorp
Ġsne drag
Ġlarut lucirgA
ela m
Ġgnippa m
iab rezA
Ġre ir
Ġnoita rugifnoc
Ġseitiliba sid
Ġtsaeht uos
p up
s feileb
Ġse cit
Ġsnia rts
trops narT
Ġht hgie
Ġyltna nimoderp
Ġff uts
irbili uqe
ts ud
se sroh
et orP
Ġecna tpecca
Ġsm rots
de hc
ec ruoser
Ġsy evrus
Ġno droG
Ġse sir
da S
tsi p
Ġevita erC
Ġdek ooc
s rucco
Ġgni liaf
Ġre ssel
rap sid
Ġsniat nuoM
Ġdeya led
Ġyti namuh
Ġya b
tiuq som
sna eb
Ġ9 9
Ġdere bmun
Ġylb idercni
snoita N
Ġhc tip
mit nes
Ġdraw er
ĠO EC
Ġke eW
se vaw
eni w
cej bO
Ġdengis er
do D
Ġlau tir
geta C
stsi golo
pi P
Ġyllacit eneg
Ġre etnulov
so ol
Ġyt fif
e tirw
Ġse sirpmoc
Ġnoita girri
ano J
sse J
Ġa ila
Ġgni grahc
de V
Ġlani modba
Ġnoit pmussa
g ida
Ġa tsoC
Ġek uL
Ġder rats
Ġdeti bahni
seicne ga
T R
Ġno paew
Ġyti litref
Ġsnoit inifed
bu P
ylla cit
x A
ĠM A
Ġgnip pihs
te grat
Ġsus neC
Ġsni oc
Ġ ic
Ġde tseuqer
de neppah
na j
Ġsga b
ti ucric
revoc siD
Ġezi la
ĠS P
Ġ9 391
stne diser
sel citrap
Ġdedna mmoc
Ġylhguo roht
Ġse nomroh
mo P
k nu
ecne H
Ġlacigolo isyhp
Ġyca virp
Ġa mohalkO
Ġgnit teG
reg ga
Ġga t
ta D
Ġra lle
Ġnoiti siuqca
z oM
Ġssen luf
Ġytla nep
m p
n recnoc
sa V
bo C
Ġyrater ces
Ġeag la
Ġde ulav
Ġla ht
tne nitnoc
Ġel li
cit cratnA
Ġsre bmeM
mrof talp
yl gnid
ig erac
gu j
6 091
sa T
Ġreb mit
Ġgnik ooL
utits bus
Ġcir tem
Ġdenwo ner
spo ort
I N
re tsis
di uqil
Ġdoo W
Ġeci lA
Ġerehw esle
Ġsek il
sdraw A
a lli
ru cer
il le
ae h
ĠÂ ®
L F
Ġde rettacs
gni htolc
Ġst un
Ġsk nar
Ġerut cafunam
ĠT A
gnin nigeb
ĠÄ ĩ
t buod
Ġlano sreP
Ġ: .
Ġle seid
Ġer reiP
U E
Ġdet ropsnart
Ġeno yrevE
Ġgnilp mas
Ġ Ã¡
Ġyht laeH
ta rg
noit inifed
Ġhta erb
rga id
f loW
x raM
Ġgni xim
Ġgni hsup
Ġn Ã¡
stnem nrevog
cu B
Ġgnita olf
ssa C
Ġsnoita sinagro
sre tem
gno K
ueca mrahp
Ġnaht anoJ
Ġcilo bmys
tnemel E
i leb
s noissim
in gis
Ġnai no
Ġsne miceps
ter ceS
Ġtnemhsi nup
Ġseitilib isnopser
gni hc
co n
Ġgnik cehc
Ġeti ps
yltne rruC
Ġnaira gluB
id eM
Ġru aso
Ġnoita nimreted
rael C
erb ba
Ġoo T
Ð ¸
nia P
G P
hp lA
Ġeca laP
seiti nutroppo
Ġgnide elb
Ġdetrop mi
u lF
Ġgni ledom
di seR
red isnoC
Ġ7 491
su f
Ġdeta vitom
Ġnia tsus
Ġylira ropmet
s niatnuom
di K
es uo
Ġ1 691
Ġd worc
Ġy eb
Ġa rb
Ġni arB
Ġ" )
wor d
Ġerut luC
Ġwoc soM
hg uH
hsu rc
er us
Ġse gelloc
Ġla deM
Ġylla itnatsbus
Ġsret pahc
ngi erevos
Ġsde eps
Ġgnini maxe
Ġde hsa
Ġtne nitnoc
seiti lib
Ġsria ffa
s not
Ġder F
eka L
e pacsdnal
Ġ hgi
lli ks
seci rp
Ġnoisu fnoc
Ġsi rbed
Ġ6 591
Ġser usne
Ġkna hT
Ġylti cilpxe
Ġylla nosrep
reht ie
Ġstneme erga
sle ssev
Ġm htyhr
seiti rohtua
Ġedu titla
du A
tsany D
Ġde poh
raeppa sid
uT uoY
y kS
Ġeti le
gola tac
Ġeta rgetni
Ġ0 591
eci r
ĠâĨ ĳ
Ġra mmarg
sse nev
secne reffid
Ġysrev ortnoc
Ġsre tneC
Ġsre papswen
Ġsu ro
Ġ1 591
Ġlle ms
Ġffe J
m mo
Ġse saerced
Ġtne difnoc
Ġeta ni
Ġsu ri
Ġyle ni
Ġsn muloc
- "
g U
Ġt leb
dne M
Ġses sucsid
tne dicni
bo h
Ġnoitnev noc
so K
gniht yreve
s ruo
Ġ hgiew
Ġgni ci
Ġeta cude
Ġeta rtsulli
Ġsd riht
sre nwo
ĠS S
nek at
ti K
tnem ssessa
sel yts
ba id
noita vresnoc
Ġytiro htuA
Ġd nuF
Ġyle man
Ġsgni K
nois sucsid
Ġdehc taw
Ġxu niL
Ġkni p
Ġecna relot
cnoc er
Ġylt cirts
Ġevitca oidar
hcti M
ni V
Ġno oS
Ġti mmoc
Ġdeta gitsevni
rdyh ed
tsa el
ref retni
Ġy hparg
Ġla noisacco
Ġti k
ot no
Ġlarot cele
e eb
Ġde lbmessa
ti dnepxe
ve neG
Ġte iuq
rete D
rete me
Ġhte itnewt
noit cif
Ġtna irav
Ġseni cidem
Ġcitsi ugnil
mes sA
yti licaf
dra wa
Ġees senneT
eer F
Ġ81 91
nots E
ht il
Ġnoita r
Ġevis sap
Ġylde troper
mrof er
eu lB
rips noc
Ġsnia rg
la iro
nom ma
to d
Ġ1 091
itep er
Ġkcu ts
b re
ya r
Ġdeta nimile
Ġnoitpirc serp
1 091
7 091
Ġnoit cejni
Ġlle C
Ġsnois nemid
pur knab
Ġetad pu
Ġre rutcafunam
tu rb
e vaw
gni lle
Ġeta col
Ġ6 491
Ġgnisa hcrup
á ¸
Ġs pmac
ra j
Ġno raB
ti varg
tu lg
eer ga
SE NU
Ġevit im
Ġrota neS
bba r
rts nem
Ġdek col
Ġsni arb
na tsinahgfA
Ġsa ib
ef ni
Ġelb on
eg dirB
Ġria F
lati psoH
neht A
t reb
Ã Ł
e eS
Ġeno rht
Ġtsi ratiug
Ġtim bus
Ġnoitaler roc
Ġ if
su rB
Ġelba iv
ge le
Ġgnille ps
Ġselba t
Ġsre wollof
Ġecna illA
ecne ulfni
Ġre gne
Ġre paP
irep xE
Ġdedna med
Ġeti b
Ġsm rif
Ġsnoita cilbup
pi b
Ġretaw hserf
Ġnoisi veleT
| .
Ġm el
Ġyra G
Ġdev rac
Ġdesiar p
poci leh
Ġtneme voM
Ġlan retam
Ġsta f
re hsif
Ġg i
nne D
pe P
Ġgnin rae
seno hp
Ġred dalb
ĠT ON
Ġtni oJ
Ġot nu
hguo c
va P
Ġduo rp
Ġydo B
Ġyolp me
u gibma
te v
sna S
tneme erga
sti bah
Ġnoitatne iro
st hg
Ġi bbaR
selba t
rp yC
Ġla ner
Ġsnoit seggus
Ġsla mmam
kci n
O V
Ġgni daeh
Ġsel gnis
Ġytila uQ
tce h
ne tsil
it serp
de niat
Ġsre dne
Ġhsa lf
yen ruoj
idra uG
Ġw elf
Ġdeta lupop
Ġlanois ser
Ġs v
mo cele
Ġelba niatsuS
Ġ3 491
Ġsret roppus
c lu
Ġ us
Ġde suoh
to or
Ġmu ucav
snoit ces
Ġsci monoce
Ġnoisu f
Ġykcu tneK
u naM
rep sed
Ġsd lo
lah ni
Ġama balA
yrev als
myno na
iw S
Ġmu nimula
na lem
ri S
noita cidem
Ġhc tap
el ped
Ġnoita cidni
Ġcit suoca
y vaN
tset noc
Ġsiseht nys
Ġelbid ercni
Ġenacirru H
noit roporp
Ġp maC
Ġsd liub
Ġralu ci
hsu B
R H
Ġna tsinahgfA
Ġecne rrucco
pme xe
Ġset ubirtta
Ġlairo mem
Ġytilibi xelf
er tneC
Ġse mu
dna mmoC
Ġyra tnulov
Ġsret ov
Ġdrof natS
dehsi lbup
Ġm reps
Ġx elA
Ġdecne tnes
Ġdoow ylloH
a nozirA
Ġgni mit
Ġm A
po d
tu H
ten retni
Ġsnoita icossa
Ġsli o
k ra
Ġlaci v
trop eR
ai rotciV
thgi N
pp up
Ġla mrofni
noit cennoc
Ġyltne reffid
Ġrei htlaeh
y kcu
de ton
Ġcit leC
seni hcam
ĠCB A
Ġecnedneped nI
le ets
Ġnoita tor
Ġdeg delwonkca
ona n
n Ã¼
Ġgniy ortsed
Ġdek cehc
tno ps
Ġdednuo w
Ġtnemniat retne
lan ruoJ
a ru
Ġel bmu
yl tcerroc
a ila
Ġse xob
cude d
t nom
Ġ za
Ġm lac
Ġpa ehc
effa c
g em
Ġs ward
hca mots
Ġli maT
ka el
ka tsim
Ġsm htirogla
ni gami
ai senodnI
net tirw
tne rruc
Ġra cs
Ġts itned
Ġsla tipsoh
Ġnois ore
Ġtsi nummoc
Ġsel ttab
OR P
se rots
oo h
Ġdet nuoc
Ġsle bal
gnit niap
ba c
Ġtso L
Ġnoit cidda
kca M
Ġsnaici sum
v I
se W
Ġpohs krow
G NI
Ġt luc
Ġeb yaM
sega ts
laci golo
e groeG
gni teem
Ġnoita vitom
Ġelba droffa
Ġmsi nagro
ruta N
selp icnirp
nic rac
C T
Ġdere uqnoc
Ġevis se
or ta
yti namuh
doo m
a ro
il C
hp ma
Ġega tS
ecna d
stna tibahni
Ġtse raen
sor C
taid eP
Ġsse ddog
Ġsev reser
mus noC
Ġsela cs
y revocer
Ġeu gnot
Ġmu elor
tsu J
eci vda
ine ohP
tcu ler
Ġtne munom
Ġdelp uoc
stu n
Ġgni yal
su rC
Ġero C
Ġts niagA
eci lop
Ġy me
Ġde sserts
lo retselohc
Ġtne migeR
seno ts
Ġspihs noipmahC
a duJ
ra lop
Ġde kcap
de sab
ev ivrus
cilp ud
ge V
Ġnoitanima tnoc
Ġa naisiuoL
Ġnoita vitca
Ġsu ruaso
Ġred luohs
sre motsuc
Ġevita reneg
Ġdek law
oda roloC
ĠME TS
Ġyre llitra
na hS
reb yc
Ġtnelav erp
ivit cA
ta tibah
Ġwo lloF
Ġgnita efed
Ġevita roballoc
Ġwo lb
Ġret lehs
ria per
Ġyl liB
Ġega niard
Ġeci V
uqer F
Ġdraob lliB
Ġea vral
Ġti p
Ġseif itnedi
Ġde gnolorp
Ġrewo T
Ġyler up
b lA
no igeR
sna gro
Ġne hctik
Ġte kraM
Ġle g
Ġpe ehs
icna nif
seru gif
Ġla wardhtiw
Ġh ahS
gi g
Ġtse p
la vac
Ġenil tuo
sgni dnif
Ġsnai citilop
Ġy retra
yro getac
dnohco tim
Ġgni lla
Ġero ngi
ref ilorp
Ġytiliba ni
Ġy oB
gi B
Ġpa os
Ġt laS
Ġytiliba pac
s tes
re ma
la nep
Ġnoita losi
co roM
Ġreht aR
Ġdenif noc
Ġeta covda
songa iD
Ġse iler
Ġna y
Ġm p
tsa W
ua cerp
Ġyaw daorB
tse dep
mra C
Ġyltne iciffus
Ġlufe caep
el rahC
Ġtne rehni
Ġra dar
dno H
Ġralucsa v
d tL
Ġno S
il erp
rae g
red liw
pi L
ĠS N
y mene
Ġyra nom
ohcys p
Ġelba rovaf
Ġyr ram
Ġ02 91
seni ppilihP
Ġg m
Ġnoita tnalp
Ġez irp
ni N
tne mugra
Ġ2 6
Ġsgni r
nab ru
na hT
Ġna ms
Ġgnid oo
dni heb
' (
s dnuos
Ġt ta
Ġk cit
ruo B
Ġsti f
9 091
D D
E CB
i suhtne
s tac
Ġre eb
Ġno igeR
Ġsre yolpme
stne mirepxe
tim rep
Ġsreb if
Ġnoit cidsiruj
curts bo
Ġo iraM
Ġgni sop
Ġht ruoF
Ġlle T
Ġdna levelC
tse noh
up sid
dra y
Ġnatilopor tem
sna H
Ġspa g
nm er
s nosrep
llo h
ria p
dlo m
Ġ0 391
Ġsti s
Ġ8 5
Ġ8 591
Ġno tnilC
Ð µ
Ġgni nosaer
ti veni
nimo ned
s ri
Ġy erg
we iV
ĠÃ© soJ
Ġeil rahC
la hC
Ġgni citcarp
Ġstne mom
Ġgnidoo lf
. ]
Ġret hgif
Ġdeppa rt
a ka
e cu
Ġnoita tum
ĠI B
Ġcit cratnA
mra hP
W S
i loc
na geb
la gel
Ġst cA
Ġgnik rap
nim luc
kna lb
ti siv
ti gnol
lo sag
ri uq
Ġnoita snepmoc
Ġhsi lpmocca
ema G
niatrec nu
rev el
st reboR
Ġht oo
Ġegna rO
3 091
Ġo m
ku el
A G
si a
Ġdra oba
pihs noipmahC
ren roc
ida rg
Ġgnit on
Ġniat reC
ort ceps
Ġub A
mu d
Ġx irtam
Ġeca lap
Ġse sop
di ulf
Ġycneg remE
Ġy o
ba F
de saercni
Ġtnem gduj
ĠA S
tnem niat
sgni leef
Ġz ti
Ġdetf ihs
Ġlait ram
Ġmarga id
a iv
s ngised
il it
Ġruo vaf
Ġrae g
noisiv orp
Ġs soR
Ġne e
Ġneet fif
mit na
Ġeso ohC
Ġdedi ova
y carcomed
ya L
Ġgnik nil
hcra na
Ġsnaici syhp
Ġdethgil hgih
k nird
Ġs rab
Ġse va
lo i
Ġsuo eca
seht opyh
Ġyranoit ciD
id e
de i
art S
Ġsit irhtra
Ġt nuh
Ġsd uolc
sna idnI
Ġstnem tsevni
Ġnoitani tsed
s noitidart
se ussit
Ġse tebaiD
si hT
Ġsuo dnemert
Ġgnin nalP
Ġdetcepxe nu
Ġoto hP
c cuS
ta ob
sa H
st xet
Ġ3 6
Ġ9 5
Ġgnisa eler
o ce
u ae
noi sulcnoc
Ġtcerid ni
Ġyrate nalp
Ġs ler
sa eR
emit efil
hci M
Ġla csi
Ġh ai
pi liF
Ġeu g
hgua ls
ã ģ
Ġa nemonehp
Ġse vo
Ġyllau xes
b rev
g nuoY
Ġnwot nwod
Ġgni llews
wa D
xo F
y ret
Ġe gne
Ġt taM
Ġseidob itna
- )
H S
Ġyti nu
sla renim
Ġror rim
Ġedulc noc
Ġlacilb ib
de troper
ret fA
Ġyti libom
Ġts itpaB
Ġgniv orp
Ġsci hparg
Ġa ga
Ġna droJ
Ġgnit ratS
suo regnad
Ġseira rbil
noitisop moc
Ġe tna
Ġla ir
ega su
sk ram
Ġecnassi aneR
s kcart
Ġse cart
et uor
cifin gam
Ġe hcs
Ġa hdduB
ecna tropmi
yr teop
Ġhsi lbup
e lim
Ġht ym
Ġti bah
Ġhc ram
sret tam
s pma
Ġdeta motua
Ġ7 5
evit isop
Ġnoisserp mi
decerp nu
a pmaC
j nuP
Ä ĩ
Ġht aM
red wop
Ġdnal yraM
ĠE C
Ġlairo tirret
air yS
y tu
Ġrota repo
Ġseg duj
lag utroP
crof nier
ti paC
po S
di S
Ġci napsiH
Ġsre ngised
Ġdet cejbus
Ġgnik nab
sei lppus
eci ffO
thgi e
N R
Ġe me
Ġde hcaorppa
ce loM
lli G
st cirtsid
ksa B
talsi gel
Ġre irrac
ma rG
sla iciffo
seci ohc
tup ni
ero pagniS
tca l
âĢ ł
eca pS
Ġyel natS
Ġsli os
e saercni
g irb
ru A
Ġsu elcun
dni H
Ġecalp krow
dulc nI
Ġla ropmet
Ġna buC
Ġp ihc
gu R
ez irP
cnu p
gniht on
Ġel kcat
Ġst ros
snoita ler
AC N
v laS
Ġsu p
ĠF DP
gnita e
lavitse f
yltneuqes noC
gni mraw
rap erP
Ġneve le
Ġdere wsna
2 091
e Y
l snarT
ci num
Ġed ils
Ġstnem elttes
Ġsedi ced
Ġdeec cus
Ġna idem
Ġyltne namrep
ssen suoicsnoc
Ġsweiv retni
ov ed
Ġs metsysoce
Ġci l
Ġg nag
sel it
ya S
Ġgnin nigeB
Ġa uh
el tsaC
cit sa
Ġret hgil
Ġloo hc
Ġca asI
Ġnaig leB
Ġrueta ma
y N
Ġt cnitxe
Ġre nna
cu aC
ib ihxe
Ġsevita ler
Ġt sir
tne t
Ġecne gilletnI
sre teP
ĠV U
... [
Ġdesse cca
O Y
ra V
Ġa eni
Ġstnem traped
s ht
y rotciv
Ġde mo
Ġreht uL
Ġeg dir
Ġnekat rednu
li ob
Ġsya sse
snoita luger
luo p
Ġde pacse
Ġnoit pecnoc
bo c
Ġrot cudnoc
nosni kraP
0 71
Ġt levesooR
li uG
li hpo
Ġnoi sacco
Ġ9 591
sro ivaheb
Ġsdra ger
Ġcita molpid
Ġdet tops
Ġdem ret
Ġmra F
T NE
ra pa
ta oc
Ġno saJ
Ġti orteD
Ġsnoit nem
Ġsevita nretla
Ġe iro
ci norhC
Ġn yl
Ġsnoita itogen
mary p
Ġsa remac
sela mef
Ġt ir
noita roproC
Ġeda hs
tser W
Ġkna ht
s lia
la taC
Ġsi sa
si B
esua ceb
Ġden revog
Ġsel t
Ġsci syhP
stna picitrap
Ġdeec xe
Ġo ri
Ġgni mra
da hS
l ortnoC
si E
is netni
me L
orp pA
Ġsre cnac
reht uL
eug itaf
i re
se gA
Ġn y
Ġruo b
Ġsmrof er
Ġyranoitulove R
Ġre po
sa mohT
Ġnoita rtsnomed
rg ime
Ġcit oibitna
Ġgnita tsaved
yo s
yad irF
tsu j
Ġen ruobleM
Ġdle ihs
gida rap
hto R
Ġsesi ar
st rA
ea di
Ġy p
pi H
Ġsta r
ba nnac
rev noC
ruo n
noit utitsni
Ġsna H
sne ppah
Ġ9 491
mrof snart
Ġnoitati p
mi hc
Ġgnivres bo
s weiv
Ġd num
cni C
Ġste id
se las
Ġecna illa
sgni eb
Ġsma dA
Ġ7 591
lav ivrus
Ġnoitalu poP
Ġsruo loc
Ġnoisser gorp
Ġdengi la
no ssel
Ġdet civnoc
era uqs
Ġdere ggirt
pihs redael
par cs
ycne ga
cinum mocele
Ġht olc
lev er
e loh
u O
Ġ, ,
sy m
Ġyaw roN
Ġnac s
kca h
rec org
sro htua
te iuq
Ġelba cilppa
Ġeso nga
Ġdev reser
Ġgnita nimile
cida re
Ġo rP
er ca
Ġnoit net
go Y
edi ug
Ġseo hs
Ġla tsyrc
mo s
Ġllahs raM
ti derc
yl luf
dnal yraM
Ġsa L
Ġsei cepS
yl tcerid
ov orp
Ġseu nev
Ġyratne mailrap
dooh robhgien
lanoita nretnI
Ġtna ruatser
kram neD
Ġm row
Ġsem margorp
gnat cer
Ġgni saerced
Ġtne lis
Ġgnik co
Ġsnoit pircsed
Ġym miJ
Ġci doirep
hcti ws
la uqe
Ġgni doc
Ġyti rgetni
ek oms
dro N
Ġreve re
1 01
Ġa irtsuA
cud noci
Ġgnit lem
Ġelt bus
sema J
Ġseitira limis
Ġsei revocsid
pm us
Ġrota cidni
duo lc
ra leB
ci norhc
Ġre ga
Ġtne tni
Ġnoita cinummoC
Ġnai va
py b
Ġgnip pots
Ġse pyT
nna C
Ġdae D
ruo m
mi ced
noit utitsnoc
lef il
ni snocsiW
ir uossiM
ba K
Ġlai rub
tsi la
a in
b eD
e cudorp
Ġmu issatop
hpo zi
iv ed
Ġma erc
Ġcitengam ortcele
4 091
Ġ2 591
Ġcit em
Ġgniniat bo
Ġseicne uqerf
Ġhguo roht
Ġ5 591
Ġlanoitid arT
Ġsrota repo
s kci
t cartnoc
w erc
Ġe ib
Ġyl leK
Ġyrate nom
Ġsnoisserp xe
Ġna icitamehtam
Ġm lap
Ġne di
Ġyra dnoceS
Ġrae N
Ġetats orp
Ġssor g
Ġz t
M F
Ġgni gnah
Ġsre gnad
Ġnos leN
b ud
re ffus
co C
Ġsu c
Ġderu gif
Ġt isnart
tu T
Ġreta we
tna S
Ġsngi apmac
Ġe rt
Ġsre gnif
lis sim
Ġsnez od
re ciffo
Ġde gg
Ġsse ug
Ġlai res
iti bma
Ġta orht
nia g
sk cor
Ġdehc tiws
Ġepyto torp
mog tnoM
Ġa di
ĠA T
tseb sa
Ġenireht aC
doots rednu
Ġtce leS
0 31
o Z
Ġde darg
les surB
Ġlatne D
Ġseci ov
Ġlacigol oruen
nop xe
no ta
Ġro toM
Ġne ila
Ġtse tsaf
rac S
tna C
lle tsnoc
Ġcit na
Ġyrg na
Ġy dnA
Ġa ÃŃ
le nnahc
Ġlanoita ercer
Ġnoitani ccav
Ġgnitce lfer
arts ehc
is yhP
naw iaT
Ġsed on
Ġevitim irp
s M
Ġse L
Ġero pagniS
Ġeti nifed
Ġnos rednA
Ġduo l
Ġyranim ilerp
s daeh
no P
Ġec u
Ġere f
dna rb
Ġsei mene
Ġralu ces
Ġsci nortcele
ner hpozi
ilo B
pil s
Ġdek colb
Ġegdelwonk ca
ylb messA
Ġdeta vitluc
Ġpe elS
Ġsuoi retsym
Ġ pac
ma t
y G
Ġre fas
Ġse pip
Ġtsew htroN
k ot
re tsaf
gra b
Ġlacigolo iB
Ġyar ps
Ġselu R
Ġe yE
Ġre pus
uq itna
yh parg
Ġgnikca tta
[ "
Ġdeir row
Ġcime dnap
Ġytidi muh
Ġ $
Ġs gnul
Ġerof erehT
selp mas
s htaed
se hcruhc
Ġev ord
ia n
gnik oms
norhc nys
Ġgniz ylana
l ced
na hK
Ġsnoita dnuof
Ġevit curtsed
retca rahC
detce ffa
Ġsol raC
ma Z
Ġcit namor
8 981
Ġti xe
rts er
Ġkci w
Ġsci hte
Ġevi lo
Ġa voN
Ġ7 6
s gnul
Ġgni soppo
oo R
Ġedi S
Ġnoisi cerp
elbi siv
mo L
da C
de revocsid
lla revO
Ġes nepxe
Ġeso ra
Ġ8 391
sla mmam
Ġslli b
norf noc
ni tnatsnoC
ne rew
hg im
noit curtsni
Ġeta robale
Ġevita titnauq
Ġmo ta
ĠY N
Ġne euq
Ġ6 391
21 1
Ġgniwor ht
Ġeref retni
00 6
sk nab
na k
re tsinim
ma N
Ġeta rtnecnoc
mit lU
caf unaM
sre ciffo
sir B
Ġ71 91
Ġske erG
Ġy set
Ġo ci
wa rts
stne ga
Ġdez idradnats
my g
Ġff atS
tsev nI
sehc ni
g eler
k eerC
Ġre mraw
Ġle s
Ġsnoi sulcnoc
ngis er
rol yaT
Ġse nibmoc
ma Y
Ġecna ru
Ġsrot ces
Ġgniti de
mes sid
Ġ41 91
Ġe ef
Ġt laed
leh liW
reg lA
Ġseka tsim
cerru ser
ht ira
sy ek
ĠL QS
Ġmi eh
Ġegdel wonK
b ir
Ġna tluS
Ġet ubirt
Ġdel dnah
Ġyltne iciffe
Ġyar ruM
spo hs
Ġde tsujda
Ġesonga id
p its
Ġnoita lumis
mu K
Ġ) '
ragred nik
Ġd do
Ġret teB
cif itneics
Ġeuq alp
tce frep
sesu riv
er K
Ġhc eT
Ġrewo ls
Ġeto uq
Ġlanoit utitsni
Ġyllacit irc
otno roT
ni hc
la kla
Ġa vaJ
dna w
yl tnatropmi
Ġtca pmoc
Ġretsa E
Ġogra c
vo c
Ġtsi ser
ne lG
Ġde hsaw
ff uS
Ġtse gnorts
Ġdev loser
yl raluger
nna hoJ
Ġyllau nitnoc
Ġ00 9
ese napaJ
r Ã¶
Ġs lissof
niw raD
Ġtre la
Ġno x
ecneref noC
Ġyrtna fnI
fae reht
ni retev
Ġgni poh
Ġre paehc
Ġgnita gitsevni
Ġ4 591
Ġyr raB
it om
ri uqs
.) "
ce L
nu K
Ġdi b
wo lF
eno emos
Ġyca ciffe
Ġrets igeR
h so
Ġy oR
Ġrem roF
ro g
Ġecna llievrus
Ġseta reneg
Ġ8 6
Ġtu P
Ġslli h
Ġf a
se saercni
ita rg
Ġs ppa
Ġf ihR
Ġgni ssessa
Ġtne t
Ġgnita eb
man yD
ne duts
tne iciffe
Ġyle rab
Ġnev etS
Ġsecna tsid
Ġdellor ne
Ġero mitlaB
Ġi m
Ġsecne ics
lopo nom
ruo bal
Ġdeta iliffa
erc nap
der C
secne ics
Ġset te
t raeH
Ġde redrum
Ġro sseccus
Ġl woB
Ġnoita t
eb olg
Ġlanoita tivarg
cej da
Ġrehte goT
Ġesiar p
Ġnair yS
seir reb
Ġo iranecs
Ġelb irret
Ġdeda rt
Ġse rolpxe
Ġle psoG
Ġnai namoR
selp oep
sra llod
Ġret rahc
Ġgnidna med
tne ga
Ġruo noh
Ġsgni hcaet
Ġgnire wol
Ġdneg el
lu T
Ġyn nhoJ
doi reP
ã ĥ
Ġde ssentiw
Ġni snocsiW
Ġeg reme
Ġlau siV
eci m
seu ga
Ġllu ks
rote hr
er ipme
ĠC DC
ecna tsissa
Ġstce ffE
sne psid
Ġsro mut
Ġtrap A
ord nyS
Ġd yol
Ġdet resni
Ġnois olpxe
Ġluf dnah
my C
Ġrecco s
ti cxe
hsa N
puc cO
tip icerp
Ġtno rF
Ġciht ilo
Ġna suS
Ġle wob
Ġdeif sitas
mmo ceR
na ep
Ġ0 31
elp icnirp
Ġyruc rem
Ġa woI
en s
Ġcit irc
Ġnoitarts iger
n rot
n dik
Ġthgir W
Ġdeda vni
Ġna yR
ĠP M
Ġgnimoc pu
sdnuo pmoc
Ġgnisserp xe
Ġa mi
Ġek ib
Ġsla nif
ets at
ro nrevog
sit irhtra
tlu s
ici feneb
Ġdehsi lbuP
del lac
AN R
Ġkcu rt
Ġdenif er
Ġa rabraB
nia mod
Ġ1 6
tne laV
euga el
5 981
Ġla eh
Ġyti ssecen
lb is
eni ccav
Ġnois sap
yad nuS
Ġt eb
Ġtna tsissA
Ġb mot
Ġ00 91
Ġscit sitatS
elyts efil
seh da
Ġthgin K
Ġetaudarg rednu
bol go
s dog
51 1
Ġylevita gen
Ġseg dirb
Ġtne mailrap
xe h
Ġnoita givan
etu nim
h sum
de hs
reht O
Ġsnoita cinummoC
Ġsek irts
ato senniM
Ġnna hoJ
sre ts
sre tnec
tneme ganaM
laci syhp
se eb
sa tad
Ġrot ciV
Ġsub muloC
Ġnoitila oc
ra J
Ġgni zinagro
le di
de wollof
Ġnoita lfni
Ġnoit irtuN
dna cS
sd loh
pso g
Ġsseni ppah
mu igleB
reh oc
Ġstnem ges
sren trap
Ġdelle vart
s dnuorg
seit isrevinu
Ġstse irp
secaf rus
1 681
d bA
Ġela Y
cide neB
sred loh
eunev A
denia lpxe
Ġlairtser ret
d irg
n Ã³
Ġ91 91
swo dniw
Ġgni c
Ġse to
si vaD
Ġec ruoseR
Ġstnem garf
Ġylla icos
Ġes run
04 81
rru cer
rev lis
Ġ3 591
Ġevita lu
yen dyS
seitiliba sid
Ġair yS
Ġs lo
ret ti
rete maid
suc rep
s bo
Ġlle W
Ġx ulf
bu D
elba ts
Ġnoitces retni
Ġytu peD
ĠâĨ Ĵ
ne eb
Ġl riG
cif icaP
Ġnai niarkU
Ġstneme gnarra
Ġsrota cidni
ga W
sna itsirhC
se ca
noit nevretni
Ġsla ci
polev ne
Ġden raw
Ġtu citcennoC
cni V
se ra
ug ir
Ġ9 291
Ġstnem yap
der rucco
Ġyen rotta
Ġdetne decerpnu
Ġtrops narT
Ġsre niatnoc
y ni
et nu
ycneg A
p icnirp
hc tac
Ġli eN
ha R
Ġsedi seb
Ġssenk ciht
ne rt
Ġh atU
Ġ6 8
re j
Ġo lle
ru lp
Ġdet pmorp
sei vom
esi on
e lihC
ba T
Ġnoit ne
Ġstne dicni
rot tA
Ġlani girO
ma ets
Ġtca pmI
re uq
ci le
Ġtne idergni
Ġera wtfoS
Ġg nus
Ġgnit tih
Ġsts etorp
Ġde de
Ġti cilpxe
rep pu
tni oP
Ġyr reJ
utca rf
snoitca er
Ġpohsib hcrA
sai suhtne
y hW
Ġo j
Ġdra nreB
Ġdero ti
iv ella
tnem traped
snoit cerid
Ġsuoi gileR
Ġdem lif
ycne uqerf
se kops
Ġ9 6
t cart
Ġs htap
Ġh sedalgnaB
Ġ3 391
Ġyr raL
Ġgnitce les
Ġsthgil f
Ġre zilitref
am htsa
Ġsgni drocer
Ġgniv irra
itap eh
noz amA
Ġyrtna fni
Ġse ssenlli
Ġw erht
Ġmu rd
selu celom
l h
Ġgnit tel
Ġet elpmoC
Ġste n
i curc
Ġro ssecorp
Ġsei mra
Ġsyaw htap
tro M
S L
t bed
na el
Ġec namrofreP
ĠD EL
elp pA
seb irt
s pam
Î ²
de unitnoc
Ġk rab
Ġgnihc tiws
k lat
sse nerawa
Ġsm row
Ġdeci ov
s tsixe
Ġ ce
Ġde vo
se du
Ġdet cartxe
Ġsnoit pmussa
retsa sid
srem usnoc
Ġdera rfni
i po
Ġelba su
Ġdev iecnoc
Ġylrae N
sni rtni
elc ric
gnim margorp
Ġgni ra
se tam
Ġelp itluM
nar C
Ġstlu seR
5 681
Ġni wt
Ġni ard
hg a
ylevit ceffe
Ġhpa rgarap
Ġo ykoT
Ġelp rup
Ġsdra ug
nib moC
Ġaid epolcycnE
k snaS
ni rT
Ġeg uag
eg e
dnu F
o en
Ġwo dahs
do L
mrof inu
eno n
Ġezi sahpme
Ġdem rA
Ġci metsys
ci ffart
Ġst obor
Ġeti S
sla irt
Ġlan rete
draw er
Ġs U
Ġre ciffO
Ġyti mixorp
Ġdluo W
Ġ8 8
Ġgnikca l
o I
Ġ Åį
Ġe nal
Ġrevil O
n yra
rev ni
mit igel
Ġsno r
Ġyt itne
luc rebut
efil dliw
Ġyf idom
- |
gni z
ga rd
rev ird
Ġnoitalu mucca
y hta
lu ard
Ġeta nidrooc
Ġtsi rorret
Ġygolo iB
hpa rgarap
liat er
Ġgniht yrevE
Ġpmu rT
n noC
Ġde illa
gu lp
r S
y ppah
Ġnoit purroc
Ġyra tnemelE
Ġses sorc
Ġredna mmoC
n reht
gni htaerb
Ġst nioj
ĠA M
Ġgnita E
Ġsro tsevni
Ġlatne nitnoC
Ġgnisir pmoc
it pygE
Ġse simorp
de edni
Ġsd leiy
cime dnap
Ġlai rea
Ġdni h
nni cniC
Ġsg ub
Ġderoti nom
r raw
Ġsre ffid
tu C
al V
raC cM
a ya
se car
ma erd
ret S
reve R
Ġlare hpirep
yr tne
9 981
k aeps
Ġno elopaN
doo ht
Ġtnemyolpme nu
d dot
Ġde cart
Ġht uR
Ġeb orp
ita s
cilp itlum
esa batad
Ġraluger ri
Ġnosni boR
Ġde eN
Ġa de
dra hciR
Ġtlu af
no te
Ġtne rapsnart
Ġci htoG
ruc ni
ĠL M
ne soR
Ġci medacA
gna G
Ġerut raped
ygolo iB
elt til
ri D
Ġsmrof rep
Ġ caM
Ġs nwo
Ġd ig
do B
Ġte v
Ġsti forp
Ġstnem ssessa
Ġtneiciffus ni
se vals
id ebo
co V
irp ed
Ġsro vivrus
Ġsn rael
Ġpa rt
cih eV
Ġdetca pmi
dna P
lla revo
tnem norivnE
Ġseta covda
Ġksa m
Ġs liaf
Ġtnem ides
Ġese ehc
Ġi loc
Ġdesa ec
Ġsto hs
Ġtim snart
noitazi la
at tO
Ġsnia hc
y medacA
Ġnoit roba
ec nis
Ġylla icremmoc
va L
noitid E
Ġsedi ug
Ġdaol nwoD
h z
na ilatI
Ġo a
ta bmoc
rot on
Ġhsi nniF
sla noisseforp
elc sum
Ġdrow ssap
rtsu llI
ta R
Ġnoita m
rep meT
neg ordyh
Ġna ed
Ġcit elhta
Ġnoitazi livic
Ġyf ilauq
duj erp
I D
Ġd ar
Ġeta h
hp lod
Ġeu rT
idra ug
Ġ cebeuQ
Ġt pircsunam
Ġa te
se lam
Ġta r
lli cso
tna c
Ġer neg
elbissop mi
k c
no to
hc u
Ġnoit submoc
Ġra M
Ġdnuo R
dra oB
Ġsp irt
z noG
Ġese manteiV
Ġecne divE
Ġgni gg
Ġna eD
su snec
da H
Ġx aT
Ġsni xot
ees senneT
seni gne
ilu cep
V U
Ġde tsevni
Ġsti derc
Ġyro gerG
etnu loV
ro po
dnuo w
Ø §
si uq
yro tS
Ġepo ls
Ġerutan gis
Ġhcir deirF
Ġstse uqer
Ġmot pmys
Ġnoitatip icerp
D hP
s su
gni yl
Ġyl trohS
et hgir
Ġsnoita nibmoc
luc laC
Ġsega mad
Ġsl riG
Ġstf ig
raep sekahS
Ġema F
nem mi
xo B
y llac
Ġs tsal
Ġot iuq
Ġre il
Ġevita lsigeL
ela p
N P
Ġretaw dnuorg
Ġnos duH
Ġtid e
Ġlarde htaC
e gne
er taehT
se il
si n
Ġdlo raH
deta ler
Ġcir temo
ama balA
edut it
Ġe nne
Ġst cartnoc
tsa M
reb iS
sya r
sre daer
Ġdere dner
ubir tsiD
y les
re lo
Ġo rg
Ġlaci ssalC
Ġ8 291
bu cni
61 1
Ġdednuo r
naici sum
Ġy ned
Ġa so
Ġgni veileb
ri hS
mi Z
mu g
Ġedu rc
semit emoS
Ġciteht sea
Ġno onretfa
Ġrete mo
Ġyrets ym
C H
Ġs f
na eb
re xe
Ġni ps
Ġse sahp
Ġgnit tif
sthgi R
Ġgni rif
ser gorp
rep poc
yl lufe
Ġb milc
... "
Ð° Ð
i J
se hsi
lo g
ĠA A
fo ib
ela P
Ġe iD
re llams
Ġht id
tnem trapeD
Ġder b
Ġyrassecen nu
Ġelbme ser
Ġs raW
ne thgil
noita tropsnart
Ġter ceS
o wT
w G
Ġel itref
sre tirw
hca b
are mac
Ġgni reviled
Ġgni mussa
Ġyl tsoc
dro W
Ġyr reT
Ġstna lP
yra gnuH
rre F
w es
sa N
Ġg id
pe ks
dnu b
Ġe de
Ġyb erehw
Ġnoit cartxe
Ġren nid
Ġgnine htgnerts
Ġesuo ht
Ġla cof
Ġgnille vart
Ġgni rac
Ġni boR
Ġsk law
Ġesa B
sy hpo
ĠO HW
Ġâ Ģ
Ġega lliV
Ġll itS
Ġsts ivitca
Ġgnim lehwrevo
Ġylevit isop
el li
xe nna
en rednu
ep pA
a buC
s pac
Ġtne lat
Ġnoita lipmoc
eta irporppa
sne S
ĠR O
re maC
Ġdna B
oo C
snoit utitsnI
kco L
Ġsir roM
s rehtorb
Ġs llab
Ġne miceps
Ġh sub
Ġdet nuocca
Ġsnoit seuQ
Ġsna eporuE
Ġat leD
ani tnegrA
Ġlaciv rec
K O
d O
ni me
et o
Ġeni hcaM
sev lesruo
ngi erof
ĠÃ ł
Ġlaib orcim
na issuR
Ġylla tnemnorivne
Ġg ro
Ġyllaci monoce
Ġerut cel
mo M
ira hc
Ġ2 291
Ġdezi es
Ġdloh serht
evita gen
R F
noita cilbup
sre pap
reta c
Ġevita vresnoC
yllau nna
Ġstsir uot
ser if
Ġero oM
eta neS
ĠD hP
sel or
Ġytivita erc
Ġre va
me xe
nes rA
Ġlag utroP
Ġed irp
Ġyev noc
bo M
Ġ7 391
ĠM T
p irt
gni tseretni
hc oR
noita tneserp
Ġsnoita luclac
sre wsna
Ġgnite grat
s raW
ne ew
gni su
Ġgni va
Ġsre di
Ġsre tsulc
Ġsna ol
Ġsret hgif
Ġdehc tam
Ġtliub er
Ġecneref retni
yllau tnevE
Ġde lcycer
aid epikiW
Ġslai retaM
a ksalA
Ġno c
gna M
Ġcit ca
eman tsrif
o orB
la uq
Ġre wen
Ġse ssam
Ġla rotcod
em rep
retni rp
ua s
Ġetauqeda ni
X E
Ġne K
eman tsal
Ġygre lla
ygre nE
Ġgniht oN
Ġyrts udnI
Ġnairati namuh
Ġde rongi
ye M
za M
Ġlati bro
Ġyrota dnam
Ġsde b
yo J
ero hs
Ġlaitne reffid
Ġdenil tuo
Ġstnec seloda
Ġde M
gi H
Ġsei pareht
wt uo
li pe
Ġnoita N
rt noC
Ġene co
Ġgnidi ced
Ġn mutua
Ġnoita mina
Ġnaini tselaP
ca T
Ġsnoita uqe
kca rc
Ġpa M
Ġno htyP
el gna
Ġci da
Ġci buc
tu g
Ġs levon
Ġsre monortsa
tna tsnoc
lum roF
Ġeva S
gnin nur
uc ser
Ġtnemniat retnE
V A
d du
t t
le F
Ġgnihc terts
hpa rG
á »
na hte
ita V
Ġdluo C
enil ced
Î ¿
tne txe
is narT
Ġgnin gi
za g
Ġcim soc
V P
o tni
x na
Ġtna illirb
ytila u
o ne
y rettab
Ġre enoip
go B
Ġsno illib
Ġsgni rts
Ġene igyh
lusni nep
Ġenacirru h
re wolf
ca p
Ġeta cifitrec
dna cs
Ġretti wT
Ġdelba sid
Ġsa H
dluo w
Ġla geL
nna M
ti rehni
ir roh
31 1
ingo C
Ġgnihc tam
ue nam
i ve
Ġse srev
su pmac
ma hs
Ġeta givan
Ġsgni ward
sec ruoseR
Ġdna mmoC
mo na
si uc
ir hs
mi k
Ġeta virP
Ġgnita ulave
tset orp
Ġnoisserp eD
Ġdaor liaR
Ġ rup
la citilop
Ġgni tsil
Ġnoita darged
Ġr h
Ġwolle Y
sedo sipe
Ġcit oib
ny sotohp
na droJ
Ġnoit cnitxe
Ġeru tinruf
Ġwoh emos
Ġpe ets
Ġatna ltA
ts urc
di ced
lev arT
Ġeri psni
xa T
I B
s wor
noita rtsinimdA
Ġeka tsim
Ġtsae y
nub irT
Ġo v
Ġni tsuA
el gooG
Ġcime dipe
x ordyh
Ġ ut
ar F
Ġecne sse
ema rF
Ġnots uoH
Ġnoitcaf sitas
m soc
s nug
Ġeni gamI
Ġelba trop
Ġmsi lobatem
uc riC
H O
Ġ cra
il O
ib orcim
tnev dA
Ġat te
Ġnagro M
( )
re papswen
pa dA
luci rruC
sk e
ere hW
Ġtiart rop
la noitan
Ġeni hs
Ġgniv reserp
Ġkoo c
eno tS
I C
Ġde tse
ht noM
Ġna ya
Ġstne dicca
Ġstnem hsi
noitce les
loo f
Ġsya ts
Ġrot pecer
Ġgniy napmocca
Ġsesa rhp
x al
Ġa buC
Ġgni tsoh
Ġsi la
Ġemo C
noi Z
ĠM G
roti noM
Ġgni tser
te ca
Ġralu celoM
Ġsta b
wolle f
d irt
Ġt or
Ġgnita roprocni
Ġnam ssenisub
olp u
Ġs motsuc
Ġde iler
gni suoh
uq o
Ġsse L
st repxe
Ġcit ene
Ġnoitce lloC
ni oc
po hsib
Ġeti nif
eta rucca
ur myC
Ġeuq o
y revocsid
si hw
Ġsti feneB
Ġtsi na
ecne difnoc
icnu norp
yllac ita
N S
Ġ baL
Ġsa G
mu noM
tna lP
Ġsega w
ylla reneG
Ġstna irav
ka wa
cca V
Ġtsila icoS
y parehto
ma illiW
ri ks
Ġh pargotohp
ren traP
ĠE L
not weN
Ġdemialc orp
Ġloop reviL
Ġnorda uqS
mo neg
de h
de tad
Ġyler us
s ngis
Ġ0 81
Ġle toH
Ġyt rof
dro ceR
dem er
yad noM
Ġtes pu
sno ssel
Ġner raW
a erA
z neb
ta hc
Ġse cudortni
Ġsno igiler
Ġgniga kcap
Ġecneref erp
sehc narb
Ġl raeP
rae B
iv ruS
Ġyno hpmyS
Ð¾ Ð
s tnec
Ġse vol
Ġ2 391
ĠC U
Ġdnal sneeuQ
Ġdezi sahpme
Ġgni zilitu
el tsac
eci wt
Ġdetib ihxe
Ġt la
Ġna el
to L
ut celletni
Ġgnit pecca
Ġeti nifni
Ġ6 9
Ġt fa
Ġro valf
Ġero b
Ġsle ehw
Ġsela hw
hpro mo
Ġima iM
Ġyl det
Ġnoit cudorP
Ġst rahc
ec noc
Ġsnoita srevnoc
ecne dneped
Ġgnire wolf
ee ffoc
ro dne
Ġlanoita zinagro
yl ortcele
Ġtrop mi
Ġedis nI
yr neH
Ġsir raH
esne fed
t toc
ta T
ut cnas
ua rt
Ġser usserp
Ã© M
sdnuo p
esiw rehto
P B
ht eB
Ġa ici
Ġse so
Ġro ts
Ġssel tnuoc
Ġyre tsanom
Ġstf ihs
Ġsaes revo
Ġtne miger
Ġsret hguad
Ġgnicna vda
aid eM
ro nrevoG
Ġgni hcaorppa
Ġera lced
Ġsro sse
Ġyf sitas
cirru h
Ġnoitacifit rec
Ġno xaS
Ġla san
Ġtne r
Ġreht raf
Ġaid epikiW
Ġaira lam
t purknab
Ġdet cepser
eg del
hpro ma
Ġgni ssa
Ġl uo
Ġlaci remun
pe S
tsi seR
Ġnois nemid
ecna netniam
03 81
woc soM
Ġt ob
la eR
gni neve
Ġti siV
Ġra F
sse lb
tu cexe
Ġema N
Ġsdna mmoc
Ġgo lana
isse M
Ġtnem hcatta
Ġevit pada
Ġ8 7
llec xE
nos rednA
Ġgniti c
Ġytniatrec nu
re ep
Ġde car
mo K
po ol
Ġylla citcarp
Ġeca rg
Ġseitila picinum
z te
Ġa itnemed
ta es
sa cuaC
eb ut
Ġw aj
st ruoc
Ġed on
Ġtes ffo
Ġsre ka
Ġgnik colb
Ġi e
Ġser tnec
41 1
Ġsuoi ruc
noitazi nagrO
Ġy baB
Ġne llop
Ġk ced
eni arkU
Ġxe dnI
egati reh
Ġgni tsop
Ġta eH
eta bed
sei golo
Ġrehc aeT
w arc
Ġe ir
lo ta
Ġeni uneg
Ġ5 391
Ġmu tnemom
Ġsehc tap
Ġei ri
ytilib i
Ġs pot
Ġnoit cartta
revo P
Ġx oB
sne v
Ġlacit ylana
sla tem
o la
Ġd E
Ġre llortnoc
doo hdlihc
Ġgniy rd
dl O
Ġetal snart
yru tneC
A PE
i lev
Ġgni tsacdaorb
noita lsigel
Ġlag nuf
2 681
Ġeg duJ
Ġ8 9
Ġet tolrahC
Ġsret lif
Ġdla noR
6 981
y rg
Ġ1 291
sp il
doht ro
Ñ Ģ
Ġht nin
Ġkram neD
Ġtreb reH
itpa b
Ġrevere hw
Ġre mraf
Ġsema rf
Ġdetib ihorp
Ġta E
Ġti usrup
Ġtuo yal
Ġgnid dew
Ġsrae f
deif itnedi
Ġgnits en
gi R
sna M
yti sned
pec retni
tsu G
Ġelp miS
ĠB SU
nid reF
tse roF
Ġ6 7
Ġsni oj
elp puS
Ġeruta retiL
Ġpa t
Ġena htem
Ġnoitati dem
Ġa ki
Ġlare nuf
Ġdetf ard
k cer
in s
reve rof
Ġsdi ulf
bre caxe
Ġ2 9
Ġeli ssim
Ġ3 291
Ġralu poP
lac se
x x
se pahs
lo ciN
Ġyti uqe
Ġyra rtnoc
lia B
Ġlanoit pecxe
elpma s
Ġsy ot
E B
Ġs ba
Ġse dom
Ġtnem ngila
Ġseni maxe
Ġseb ut
k laB
se P
Ġev iecrep
Ġcit se
Ġsnoitca snart
ST P
Ġevisu lcni
relo tni
4 981
s nwot
re W
ti N
Ġnoita icerppa
Ġ4 391
Ġsro taderp
Ġseni ppilihP
Ġsdi a
pla R
Ġsre noititcarp
cs bo
Ġtes sa
lau su
3 981
Ġh allA
Ġsuo ig
Ġsgni l
dnu H
8 881
Ġn bi
da raP
Ġsreht orB
3 681
u nitnoC
Ġnoita loiv
Ġh plaR
nos noc
Ġnoisser pmoc
dna le
Ġred nilyc
Ġerehw yreve
Ġssen suo
ste erts
7 981
no gerO
Ġyl lo
Ġtse uqnoc
Ġ4 291
Ġciteht a
Ġylla usU
Ġdni W
ter C
Ġselc ric
ra y
Ġyl dab
iw duL
Ġema lb
Ġseta lu
Ġazne ulfni
Ġ co
Ġsre lur
py la
Ġgnil lup
srot ca
Ġdesse ssop
Ġhg uH
sru cerp
Ġlarot celE
retsi niM
de reh
de cuder
Ġyaw htap
Ġsehsi w
Ġnaci nimoD
sa R
st nuocca
e rocs
Ġgni hsa
Ġro llecna
el lav
pa K
noitnev erp
nevo c
Ġdnuo p
cif icepS
Ġralu geR
Ġez norB
Ġmah arG
selba irav
w erb
Ġro oP
Ġht ieK
Ġl lot
Ġsu na
Ġevit cA
Ġcino rtcelE
mixorp pA
Ġelibo M
d r
Ġd riB
se hcaorppa
Ġ5 291
Ġser temolik
Ġdro ceR
n sah
Ġyti nummi
Ġtna W
Ġssa moib
Ġyhtlaeh nu
edici us
Ġgni ruobhgien
Ġno egrus
se tirw
se xat
ir ted
reve ileb
ĠM BI
Ġsnois se
nidro bus
Ġgnide cerp
Ġlacsi f
Ġde raelc
Ġsla soporp
Ġyf iceps
Ġgnicna hne
T M
T CA
so ediv
noc oc
sy en
hci w
ĠN OI
noissim snart
ytilib isnopser
Ġssenk aew
Ġgni hcaoc
si la
su ta
Ġtna tsni
Ġle t
hca R
seite icos
Ġe utriv
Ġa vo
Ġni gram
ta orht
le hC
ff ilc
Ġyas sE
ly htem
Ġhse lf
e miger
no tsa
ru guani
Ġsre kram
du arf
do H
tu eD
Ġecna nrevog
limis sa
yltne reffid
Ġraluc sum
Ġralle ts
Ġse sol
Ġeb ol
Ġeta u
Ġgnik cip
Ġsuo itibma
Ġx aw
hpo se
daor ba
Ġlaut riV
o hW
ts ub
ig eL
Ġeti sopmoc
lac S
sel ttab
Ġreg nuh
s dnab
Ġyl mrif
op S
hsi rK
Ġkci N
kco hs
roti dE
snia rg
Ġanne iV
nerhpozi hcs
s weiver
Ġre bmu
do C
Ġecna D
Ġseit itne
Ġlatne rap
Ġtim da
ã Ĥ
Ġ ~
ah dduB
noit pirc
Ġtse dom
Ġlaci ripme
pe H
ytila nosrep
Ġytu ped
seka l
Ġa mu
Ġot tO
Ġyra gnuH
Ġsd nopserroc
Ġtce ps
Ġli hP
Ġlanoit curtsni
Ġsdra zah
Ġdro l
sp it
ais yalaM
Ġnoita ralced
Ġlacigolo eg
Ġgnidne fed
orts A
Ġrag uS
Ġnoitanidro oc
co ni
al S
Ġet elhta
rc S
ste ehs
tnemel ttes
C DC
d n
Ġno saeS
Ġnoita tnemucod
Ġet ubirtta
Ġnos pmohT
sci monoce
u k
ra haM
Ġre llik
es laf
tu n
ĠA ACN
Ġkoo C
tsu ahxe
isrev er
y erp
Ġe tsap
ci monoce
Ġne leH
Ġ: "
Ġtse tnoc
Ġdene kaew
Ġevitce les
Ġlacip orT
lehca B
lehca b
rp pa
Ġder it
raw hcS
Ġrek laW
Ġmuid atS
ri H
o to
ne hc
lu V
Ġela p
ste p
Ġxe t
ni H
Ġ6 291
Ġlacit irC
ste nalp
srek am
Ġyratne mmoc
Ġdeec orp
S F
Ġht net
Ġel deen
tnem tsevni
eno g
Ġstce fed
Ġdraob yek
Ġgo D
ts ua
Ġro tnevni
Ġna H
Ġtne gru
Ġmsi hdduB
ĠT IM
Ġsrot pecer
Ġror roh
4 681
c ylg
Ġse lggurts
Ġret raC
Ġdra zah
erehw yreve
l roW
ni rg
Ġgni ugra
Ġsnoita gitsevni
Ġgnita oc
Ġem us
Ġha roT
Ġsedi citsep
ugir tni
ya ced
Ï Ħ
Ġe nut
ht ni
Ġt isop
ne hW
Ġo dna
or hC
Ġla sopsid
Ġeti ruovaf
nna H
sria ffa
Ã «
Ġre noissimmoC
cnu pu
eli laG
en raC
Ġylla citilop
ega P
Ġeca llaW
Ġepo H
sdra y
Ġdnim er
s mialc
ci ps
curts nI
Ġeka ns
edixo id
n nut
re gral
li cnuoc
am uart
sre cnac
ne draG
Ġsnoita roproc
cni tsni
Ġdedne fed
Ġnoitani gami
Ġtlu dA
Ġege is
Ġs locotorp
noita srevnoc
rb ilac
dnu S
Ġdecrof nier
Ġs puc
Ġdeta coler
Ġega b
wa j
neew teb
e meht
Ġeht a
Ġ4 8
Ġeg ufer
won S
mu lp
iti roirp
Ġdeti urcer
Ġ' '
Ġgnip pord
uc E
Ġroi refni
o eg
la es
hc ro
Ġgnid nopser
pe za
cna hne
Ġseiro ta
Ġo eL
ti V
Ġnoi napmoc
Ġs D
Ġse ssalg
da N
noita nimircsid
eh r
Ġ7 291
gre F
ore tsa
dnetni N
do cor
Ġega r
Ġtneme c
Ġlau darg
mot ce
rra bme
de redisnoc
Ġhc ti
Ġret timsnart
hsi B
Ġkrow emoh
ĠS H
thgil nus
hpsime h
hc aeB
Ġesa hP
ana idnI
Ġsren niw
t teS
ni mes
Ġt ten
Ġse na
lo seR
el it
sit rap
varg ne
Ġ, -
Ġye lekreB
eta virp
Ġtsaf kaerb
legna vE
N G
Ġ va
ci rb
Ġla dit
el sa
Ġnoita luclac
ĠI RM
Ġ2 8
Ġevit i
ĠS BC
Ġlaic nivorP
su A
elp met
Ġen yaW
rei sae
Ġlanim irC
P L
y ruc
y tsanyd
gni de
ga L
de nepo
dna C
hguo rob
sse ne
Ġsev ren
eno N
epo cs
Ġnorda uqs
no nac
Ġde tsurt
si ar
ga p
de vresbo
Ġci nagrO
Ġsti us
gra hC
yti di
Ġdeti soped
Ġstneme veihca
5 881
no nemonehp
hguo t
Ġdnal niam
las P
retta B
y poC
Ġgni gga
Ġsu iluJ
Ġseta rtsulli
Ġgnita erC
71 1
Ġel tneg
wa ps
Ġnet tirW
hci eR
s metsysoce
Ġel f
del la
thguo rd
a nu
ti S
si sa
ff its
Ġsre ggirt
Ġat reblA
Ġdetca ne
h Z
Ġs om
sei noloc
re enigne
gni lliw
Ġse lbmeser
il luS
Ġet ubirtsid
ingo ceR
Ġka o
Ġgnihc uot
htgne levaw
re sopmoc
Ġy recorg
Ġot at
Ġm laer
Ġpu kcab
Ġnam riahC
Ġecud ni
kcu B
sma rg
y reteme
re N
Ġni sab
Ġno ca
Ġn wal
Ġyti lit
Ġevah eb
Ġeno Z
sre g
ecne uqes
ero oM
Ġgnitf ihs
$ (
R W
Ġse uqcaJ
kca rb
Ġpihs nezitic
sgni k
Ġy gol
mil lim
Ġyltne g
pil ce
Ġesimorp moc
si F
Ġtne ipicer
sk nahT
Ġthgiew revo
d on
wo D
mit nec
Ġecne refeR
Ġecni vnoc
retca B
ha F
nab sirB
tai hcysP
y noloc
Ġ cniz
te ksaB
Ġsega nam
seiro lac
ime dipe
lar de
Ġy rtsinim
se ilf
ru ts
tne manruot
Ġeno N
ssa bma
trop riA
Ġdio retsa
dir roc
Ù Ħ
Ġde irf
or tS
Ġred le
Ġ1 391
Ġlau tneve
d erut
Ġt to
Ġgnita rtsnomed
scit sitats
Ġlav retni
Ġtim mus
Ġnaci lgnA
S DIA
gni dnats
Ġse gnahC
Ġyti rahc
llor ne
cudnoci mes
it irc
ti hw
Ġsev orp
Ġsel gna
Ġstsi laiceps
ag emo
Ġ61 91
Ġdenoit isop
tserof ed
Ġseti lletas
Ġte hporP
Ġlaru R
Ġmsi cit
Ġsdne irF
Ġevitarepo oc
Ġsnoitacif idom
soi ruc
Ġdeilp pA
sez is
s metsyS
dna liahT
tsa L
Ġi iawaH
Ġrae t
Ġdaer ht
nor I
Ġnoga rD
2 981
ffo C
Ġ51 91
senile diug
ro noH
Ġret tib
Ġsno si
mono xat
Ġslli f
Ġsetutits noc
e leT
Ġe neG
Ġs yoB
ta ehw
Ġte nibac
tna F
Ġesi crexE
Ġslle hs
Ġ ×
noita luger
Ġtsi mehc
mma rgorP
Ġevisse ccus
loi vart
s T
Ġtsu a
Ġevit roppus
Ġeda lb
rus nI
Ġer it
snoita ni
gnire enignE
Ġderuo loc
Ġh gniS
ff arT
Ġereh ps
a lu
Ġe is
Ġs or
Ġde dis
Ġ1 7
Ġeli N
Ġsya D
Ġeltta eS
Ġstnia rtsnoc
Ġdeto or
eltta c
9 881
nia ts
yo T
snoita cilpmoc
Ġdetnaw nu
icif orp
Ã§ narF
p pA
x elp
de irram
in rac
Ġeli nevuj
sk rap
sel tit
b orP
ro mot
Ġy ppaH
ti feneb
Ġyra g
evit ce
Ġredne rrus
Ġyrot cerid
Ġepoc selet
Ġt ramS
ga T
on K
Ġtso pmoc
loo C
Ġdrow s
cni oc
Ġscit salp
Ġelit soh
o idaR
si k
noitu loser
rete P
Ġrehti eN
Ġdeka ep
yev noc
Ġres worb
b uo
Ġnoit ome
Ġdesi la
Ġy pucco
ret pahc
Ġhc e
on k
wor cim
Ġeruta erc
Ġyraropmet noC
noitnev noC
Ġsna eco
Ġdere enigne
sirp u
Ġgnila ever
yca rucca
Ġsgnideec orP
Ġhc nul
Ġci norhC
ae P
Ġlaci gam
Ġ4 7
Ġreve tahW
Ġpuorg olp
Ġsrot cerid
Ġdehc uot
sega lliv
Ġsez ingocer
ekat ni
i reP
ni dnacS
Ġo ig
Ġgni vol
lp er
de cudortni
wolle Y
sseni ppah
Ġyfit suj
y ah
y tuaeb
Ġde sserd
se ciffo
ar A
Ġgniz ingocer
z uS
Ġne lots
gre S
mus er
sro rre
Ġkci D
T P
Ġde etnaraug
Ġa ic
ci F
Ġda s
Ġnwod kaerb
ygolo hcysp
Ġsb rev
Ġnom las
i iawaH
Ġs cita
so Y
Ġci reneg
Ġdes U
Ġstcaf itra
sevit cejbo
e raepsekahS
Ġla gneB
Ġylla tnedicca
Ġyrani ru
Ġdessim sid
u feR
y vaeh
Ġgni rots
el ca
Ġst raeh
Ġci nap
Ġsd do
Ġsei monoce
kcab deef
Ġytilauq eni
Ġga rd
naici syhp
s niatnuoM
x am
gni worg
le wej
de g
Ġlanoita pucco
Ġsro r
sk colb
Ġsma erd
Ġnoitani mile
Ġsnik poH
ht ped
se loh
Ġts rub
Ġtnec sed
murts nI
Ġdeg ru
Ġslau dividnI
ne htua
ru ps
da eD
roc se
ega ugnaL
Ġsne htA
Ġscit eneg
Ġstib ihxe
Ġs lla
Ġse et
doo F
sk nil
Ġderia pmi
regga xe
Ġla naC
Ġyl ralohcs
po nem
ser i
pe lipe
Ġi qarI
ol C
Ġyre llaG
Ġstim rep
eht sea
Ġh o
Ġtsa lb
arb egla
Ġhgrub sttiP
Ġre kaB
tne dnepedni
dna lecI
koob ecaF
Ġmad retsmA
Ġt il
mu iclac
Ġci ne
Ġsre ep
Ġelp irt
nois napxe
ĠE S
sp roC
ma M
mu m
tu citcennoC
Ġgnit naw
mar caS
I S
gni tnoc
ma erc
iv erbba
tse D
isrev id
Ġllif luf
Ġnuo n
ykcu tneK
Ġs piT
it ros
Ġre hsilbup
Ġci le
Ġtna rgimmi
lli K
sne t
Ġdedne csed
Ġnoitcurtsnoc er
Ġelbisiv ni
Ġyranom lup
d doG
gno le
yle kil
RE T
stf arc
Ġspohs krow
w yalp
w ahS
Ġpihs ralohcs
yb serP
Ġnoitati olpxe
Ġ32 02
gniti mov
Ġni t
yad sruhT
Ġenile sab
syd O
anne iV
re pa
Ġgni noitidnoc
hc neb
Ġeni zagaM
Ġnoci lis
ce C
fe iler
Ġtsi dohteM
sni geb
Ġnretsaeht ron
l yS
Ġe egufer
Ġola ffuB
ilev il
ta eF
uq inu
Ġeci rP
dnuo S
ĠS PG
der i
Ġsdna rb
Ġgnidi h
Ġnoitav reser
tne S
sret rauq
seda rP
ibo tua
Ã ¥
Ġgni man
Ġno R
Ġse snes
ti C
00 01
Ġ3 7
ek ila
Ġ7 7
sla ngis
itse t
gnin raeL
Ġnosi daM
Ġato kaD
Ġcime dne
Ġroiret xe
Ġs ffo
Ġde wener
noita vonni
Ġst ciped
ulf nI
elp meT
Ġsta rcomeD
Ġs oo
re lliM
Ġre hctip
pa M
sne drag
luf pleh
Ġ21 91
Ġderaeppa sid
ytiliba sid
e saesiD
x uL
ts yrC
Ġla rts
mu l
Ġci luard
Ġes nemmi
ka b
eru taef
edi uG
Ġyre gami
Ġdehc terts
Ġgnib milc
Ġtaert er
Ġeni ps
thg irf
snoit cennoc
Ġ01 91
yleta nutroF
lit rac
inne J
Ġnoita ngised
gi P
ĠA L
h e
o ykoT
Ġs llew
noita rtnecnoc
golo eht
suo i
Ġtneme cne
Ġseil la
Ġgnila ngis
Ġde dulcxe
sti mil
Ġ05 3
sta tibah
uj iram
Ġy xalag
la miH
Ġa en
fa es
Ġgnita tor
eno rht
Ġstna ruatser
dne irF
ic neg
Ġgnita luger
Ġmu iro
sser tsid
ĠN P
duo l
O HW
Ġera b
cit semod
Ġp il
ĠA H
cin hte
Ġnretsaeht uos
ne da
revo ceR
im s
Ġnoisse ccus
se hC
is o
Ġte kcit
Ġerut plucs
f c
le ihs
Ġek as
hca eb
Ġmu irbiliuqe
kci R
Ġsi sne
Ġsre tsi
Ġsu neV
pah S
Ġsni ur
mag il
Ġecrof nier
Ġ11 91
Ġlacilb iB
t cO
na ol
ci xot
Ġl wob
Ġseta rdyhobrac
doo lB
Ġygolo dohtem
Ġses run
Ġsevita tneserpeR
P i
s mitciv
Ġ Ï
ni ta
ne va
Ġno moloS
su ahxe
ba sI
Ġdeb bud
Ġetaci led
Ġeug itaf
Ġno raA
Ġyra dnegel
kci rC
Ġ01 1
Ġtnes ba
Ġseka L
Ġgnirut pac
0 41
e pacse
Ġde raef
Ġyb guR
lc yC
pe ehs
Ġelbat ciderp
Ġdela es
suc noc
Ġflo g
ni oP
Ġde ssa
lu caf
Ġsd roW
ib u
snoit ce
Ġpihs dneirf
Ġyleta rebiled
koo C
A V
Ġsre ga
Ġstne nop
rem ylop
eni zagaM
xo T
sta f
g ruS
Ġhc atta
ssa c
a it
Ġe pacs
Ġro loC
si el
de liaf
Ġel tiT
Ġecna ts
Ġ7 9
Ġsser tS
Ġeri h
Ġren raW
Ġyf irev
Ġ31 91
Ġgni noit
or tu
se htolc
noita gitsevni
Ġlacit uecamrahp
Ġhca b
Ġela meF
FI F
r Ã©
du ef
Ġela hw
Ġkram dnal
Ġdeta coL
ka erB
Ġselp met
a il
Ġci llatem
Ġdeta ti
yl go
Ġecar bme
deti derc
Ġdella cer
ro do
rev A
ve hC
ev nu
siv er
Ġsgni naem
snoit curtsni
Ġsne ercs
ytiliba ts
noga torp
Ġt nuom
Ġy revocsiD
la hc
ya rP
det cennoc
Ġa va
sne htA
mot A
Ġetu cexe
Ġz narF
Ġseb orcim
Ġytini rT
hse lf
rtlif ni
ra dnelac
ceps nI
Ġdne lb
kci hC
sd nuf
Ġhgrub nidE
1 981
Ġgni divid
Ġdeta colla
Ġyt rebil
Ġnia P
Ġsci lohtaC
bma hc
a lumrof
Ġecna dnetta
ko P
yli maF
esiw ekiL
Ġniets niE
S W
da ts
Ġnoita tropsnarT
Ġseta udarg
sla em
iro lg
elu dehcs
Ġdeta picitna
Ġecne feD
ste ssa
Ġnoitati libaher
spihs noipmahC
F F
si weL
Ġyl pmiS
pm ub
Ġsesu aC
lec raB
ime S
Ġgninil ced
Ġde dlof
Ġeta vitca
rg iM
Ġkci rt
Ġreti puJ
re gni
Ġgni tsa
Ġno sseL
Ġera ep
Ġtse noh
Ġgnib mob
Ġsredloh ekats
.... ....
s noisses
Ġeli hC
elb uort
Ġsts ep
ecna tsbus
secna tsbus
ona ip
ee uqs
Ġla yol
Ġla ertnoM
Ġte bahpla
Ġerut ciP
Ġy hposolihP
Ġse lli
Ġlau dividnI
daer ht
Å Ľ
pa g
6 881
Ġde lggurts
Ġyl ssel
mron ba
Ġeraep sekahS
a vo
y to
Ġy atS
Ġde lias
Ġne ek
de d
de raperp
de noitnem
Ġec ruoS
Ġte k
Ġsnoita nalpxe
ek irts
Ġerut xet
Ġsega ssap
ĠD IM
Ġyllaci nhcet
Ġsdoo w
Ġyhpargo tohp
ĠDH DA
e me
Ġre yalP
Ġnoita malc
ret tuB
cu l
ĠA W
hgi E
seta lp
Ġyleta mixorppA
nosi rapmoc
Ġy nomrah
Ġre kram
Ġsla vitse
yl dipar
pec noC
net fO
Ġsit itapeh
Ġa siL
Ġyl pmoc
cit cesni
Ġma of
Ġluf htiaf
Ġstna tullop
Ġcir taidep
Ġmui sengam
Ġgnili ec
Ġevitne verp
tnema tseT
U Q
la noisseforp
Ġev id
Ġtna dixoitna
Ġecne g
nib rut
ĠB T
Ġtnew rednu
Ġte kcirc
ĠE G
Ġlanoit roporp
Ġcit po
Ġcit sit
Ġsgni daer
detce torp
4 881
E H
h sedalgnaB
gni deef
or bme
Ġgnit rops
ka L
Ġlani cidem
Ġezi mixam
7 881
Ġy carco
Ġgni tsevrah
Ġna tebiT
el citrA
Ġev irht
Ġylla noitanretni
Ġesu fer
Ġ3 8
Ġevita rapmoc
Ġyleni tuor
w A
Ġs su
na hC
Ġla iv
Ġyle mit
h atU
Ġt rid
Ġde usrup
ma m
Ġ3 9
nos htimS
Ġy parehT
gni ppa
ca L
Ġsno inu
Ġnoitca snart
Ġeraf raw
a dne
Ġt ter
Ġgni tsevni
ci gol
Ġnoita tlusnoc
Ġsev itnecni
Ġelb ram
eu gnot
Ġfe eb
Ġre tso
Ġla rimdA
Ġtse lpmis
Ġgnid niF
Ġela d
ĠAB N
Ġre looc
me ta
tsa v
Ġrei vaeh
Ġcir taihcysp
Ġskca lb
lei ff
ĠOC SENU
Ġla rO
Ġtne top
lla tsyrc
Ġdet cejni
Ġylla tnem
Ġte nalP
Ġsnoita rtsulli
nes row
ip p
Ġetag itim
Ġs htgnerts
Ġm y
gra T
Ġrev uocnaV
ĠL MTH
dev il
noitamrof nI
M D
n rets
Å Ħ
le nap
su r
Ġtse f
Ġeni F
ort celE
e pat
ser fer
Ġeru tnevda
Ġlaci na
Ġdae L
Ġkci k
Ġksa T
t luda
gni h
sa K
Ġstne rruc
Ġsk cehc
Ġseta g
tan gis
yad sendeW
Ġtcej er
Ġgnikrow ten
ses nopser
Ġs citamehtaM
is reP
de k
Ġnoita vitluc
Ġai senodnI
Ġdno maid
Ġyad sendeW
Ġyleta uqeda
Ġedu ti
Ġ <
ne ts
Ġn neP
roc S
eno t
ohc e
Ġrota erc
Ġe faS
lla mS
ih poS
Ġya J
Ġdlo b
sei mene
za L
Ġykcu l
Ġnettog rof
Ġdeta nidrooc
Ġemo somorhc
seit luciffid
Ġt feL
gni mraf
dne refer
Ġsu do
yad seuT
mod siw
Ġskca l
Ġnais surP
i no
Ġe divorP
em margorp
Ġtnem yolped
yel lav
snia lpxe
Ġesirp retne
fa c
Ġdeif inu
Ġylba muserp
Ġyre nihcam
yrev iled
Ġne taeb
Ġsuo iverP
sro d
Ġmra la
Ġytlu caF
Ġsen not
Ġla vo
Ġ; (
Ġsesu b
Ġstrop xe
Ġnoil leber
7 681
ne J
Ġgni usrup
Ġni suoc
tso H
sel ca
Ġnoitacif idom
Ġediw noitan
Ġylde soppus
Ġsetad pu
T SI
Ġ1 8
val sne
Ġcito xe
s milsuM
Ġy nne
Ġgni suoH
Ġstne noppo
Ġema nkcin
Ġsts er
k nalp
la d
Ġla id
nam saT
Ġtna vres
Ġyt hgim
yb iL
cir tnev
Ġelibo motua
Ġna ra
sa G
Ġh pmyl
dnal niF
ecna vda
Ġlanoit utitsnoC
scit oibitna
Ġneet riht
Ġgnikci lc
sesi crexe
Ġs taert
Ġse gA
Ġti eb
eni ma
Ġtsi pareht
Ġsb reh
yllaci pyT
8 681
re yarp
ra uQ
hg aB
il lE
Ġk u
Ġra C
al lu
Ġdni b
ese ehc
d p
gni hsif
Ġla itse
Ġna itaorC
su T
de divorp
en ruobleM
vo iG
Ġdev ihcrA
Ġyr temoeg
lC cM
de corP
Ġevit o
Ġdne keew
Ġytiliba iler
Ġesrev inU
s pah
Ġy ot
yti varg
gol yhp
Ġesiw ekil
Ġgnirps ffo
no paew
Ġgni zarg
Ġnois nepsus
stne mmoc
Ġesi ngocer
Ġsci sab
Ġylba nosaer
Ġcihpargo med
Ġselca tsbo
e civ
à ¸
Ġ, (
Ġci namreG
Ġsnoit ciderp
eni n
Ġtro ser
Ġsnoi pmahC
t pircs
Ġk niL
Ġtna hcrem
erc noc
Ġle pahc
Ġcit nehtua
ka J
Ġsesne pxe
o mem
Ġse ef
Ġdeta idem
Ġemit iram
Ġdeti miL
Ġ7 8
Ġslli H
ay neK
dle iF
ecneref noc
Ġdekca l
Ġrat la
Ġde do
Ġde rohtua
Ġa teb
Ġ" ...
Ġyra noroc
Ġsu idar
Ġlanoita tupmoc
Ġi L
Ġylevit celloc
wolla H
e va
no dnaba
Ġsa llaD
noit curtsed
Ġwo gsalG
iv A
Ġyra ili
Ġnam taB
Ġretaw rednu
c snart
d laB
Ġa lusnineP
Ġyl nepo
nu d
po hc
Ġes lup
snoit u
sgni n
not limaH
Ġmuelor tep
s mraf
Ġno loc
Ġne vaeh
id alV
wa lf
Ġyro s
Ġredne t
aib moloC
ĠDIM P
8 481
O A
re wot
Ġla t
Ġnoita dnemmocer
ep xE
Ġyli daets
Ġdehsi loba
Ġyruc reM
a J
Ġ lohoclA
Ġk rahs
po nac
Ġuo ht
Ġye noM
Ġsevit cepsrep
a ri
Ġgni retaw
Ġm lehliW
xe somoh
Ġsni lloC
Ġydob on
Ġnoitcudorp er
cua erub
ht ne
le pi
nim tseW
eni k
Ġtsi om
Ġgniwo nK
Ġsn giS
Ġtnec seloda
Ġedo hR
sam tsirhC
ecit suJ
Ġse erga
cu fnoC
Ġsnai livic
Ñ ģ
Ġa goy
or D
de cne
Ġdet ubed
Ġtnem trapa
Ġgnit fil
Ġlle ps
rbe leC
Ġgnilli rd
Ġretawe tsaw
lota nA
h erp
Ġse hsid
Ġna l
ma b
da uqs
on na
Ġst uanortsa
Ġya we
Ġgnita cinummoc
man ydo
Ġyr te
Ġyr lavac
sla u
Ġgniog rednu
Ġroiret na
a ga
Ġd or
eni p
Ġnoissim da
sle uf
Ġlio S
Ġrek raP
Ġtsila icos
ĠX I
Ġeniv iD
le iF
si sne
lia vA
Ġi ku
srae Y
Ġaro lf
Ġro hcna
ĠA C
Ġgnit poda
suo hT
Ġluf roloc
msi es
tra uq
ses sol
noga tna
goga dep
n ruB
t nuoma
re lle
le ahciM
Ġ0 61
ĠA RI
Ġgnit revnoc
Ġsm ron
Ġdere n
Ġedi seb
Ġmsi car
ĠR OF
daol nwod
y tse
Ġla nretnI
tu S
Ġyra las
ua L
yt riht
y dutS
Ġ0 41
sgni w
Ġytiliba irav
Ġsnoi si
noitca retni
ne ila
ci lfni
su ma
ya C
Ġgnita ti
Ġden mednoc
Ġevita roced
noitid epxe
Ġnai senodnI
Ġwon S
Ġdecalp sid
snoitca retni
Ġne me
Ġp m
Ġsna elrO
Ġniar ret
it revda
me op
Ġev love
Ġtne vda
Ġp uoc
Ġden worc
er hT
ĠS A
sta es
Ġlaut pecnoc
i lppus
se lcyc
Ġro pav
in hceT
Ġsu gnuf
Ġeda girB
Ġlani du
Ġycne tsisnoc
Ġeruta lsigel
Ġre peek
le wT
en neK
reht aR
Ġdev ruc
rec ylg
Ġerawa leD
D N
Ġe gnellahC
Ġs neg
no ila
Ġde nosirpmi
Ġnoita lusni
Ġsto lip
Ġia hT
o lik
de ssap
Ġpihs ro
sgni tniap
y ler
re la
Ġni lbuD
noit ilo
Ġp sarg
st nioj
nutrop pO
Ġdig ir
Ġta ep
Ġbo J
Ġnoit cepsni
bo lG
lav iuqe
yh R
Ġrotca er
Ġgreb ne
Ġotiuq som
Ġtsua coloH
s lortnoc
w ar
Ġla picinuM
Ġsno m
loc laM
Ġdep uorg
Ġniw raD
t tocS
luf ituaeb
elba irav
kco s
ubirt noC
la nigiro
Ġre ffub
de tna
ya J
rop metnoc
lof trop
Ġdesserp mi
l lub
n ro
hc tuD
kci P
Ġseiti ru
re tem
Ġgni tseT
nu st
Ġnoita iva
Ġsev ired
sk nat
Ġyleta rapes
Ġgniz eerf
Ġstse ug
Ġsla minA
Ġdnal ni
yaw yna
sti b
Ġevitca er
ata D
Ġdeta icossA
ua w
sna eco
Ġx op
ecne refer
Ġredne G
Ġyk cor
neve S
e gnahC
t ceps
Ġnoit cart
at naltA
sop xE
Ġytila noitcnuf
Ġsnoi sacco
Ġsde ef
Ġsserp xE
Ġeiro lac
el B
Ġtne b
noit cidda
Ġsro i
Ġyrtsi mehC
er iw
mu rt
Ġdesa ercnI
Ġtneme ergA
Ġraelc nu
y rotcaf
Ġeni N
Ġx ua
teg eV
ly hte
no y
Ġelba if
Ġai sa
ĠT RA
isa ef
Ġralo pib
a do
n raB
Ġdna lg
Ġm rotS
Ġtne K
Ġtsa ef
pu P
Ġso iranecs
Ġdep pihs
Ġgnicna d
1 881
se T
ti dE
Ġte loivart
Ġdesolc ne
Ã ª
Ġgni to
hca erp
dda p
2 881
d leh
Ġgni poc
Ġlaci de
eru ces
Ġralu gnis
5 01
ma ne
Ġret roper
Ġsei xalag
liv iC
Ġesir pmoc
D R
M U
Ġre monortsa
Ġeli xe
Ġerutam erp
( .
M N
b E
i ka
Ġde tsevrah
Ġa f
Ġre lpmis
Ġeno zo
Ġsnoita vonni
Ġ9 8
ha dI
seitiliba pac
L N
e poh
p xE
s revo
Ġm iws
Ġgnit curtsnoc
Ġsnoit pirc
snoita vresbo
Ġyad htrib
gnik law
a itnemed
Ġy kS
yl wols
ĠN O
Ġtsen rE
r hC
Ġd ira
ma eT
ba taD
il loc
noit ome
Ġtca tni
ĠU PC
a o
re it
Ġy riuqni
Ġyl daorb
nu aL
Ġsel ttob
reb O
msi lobatem
euq inu
meh oB
ĠSI G
Ġnoy naC
Ġgni po
Ġre ni
Ġne h
lu g
rts bA
Ġeca R
mma rG
snoi sacco
s loohcS
Ġ inna
Ġa rtsehcro
ci barA
noc er
ser gga
sre ep
Ġylde gella
Ġla tnorf
ru e
Ġeb uTuoY
Ġnommoc nu
Ġecrof ne
seno z
Ġsht ym
Ġseir tne
gnid nuf
smrof talp
Ġre lp
hc narb
me rof
ir raM
Ġhc narB
Ġrae B
rbe rec
bab miZ
Ġniahc kcolb
Ġde du
Ġla vi
Ġl wo
de hcS
cifit rA
Ġlate icos
p is
ret ybserP
Ġssen gnilliw
Ġroi retsop
Ġetairporppa ni
Ġeniram bus
Ġnav I
s raw
Ġralu catceps
dno yeb
Ġdero noh
goga nys
aeh rraid
1 781
Ã Ĺ
Ġgni revocsid
se leT
Ġta h
Ġreht aeW
sre yal
ega ruoc
FE U
a naisiuoL
ð Ł
ro meh
Ġtne tepmoc
noita lsnart
Ġruo lf
Ġtna picitrap
Ġes roH
Ġ9 7
Ġep or
Ġstca tnoc
K A
Ġeta rtsbus
ila T
Ġ8 091
kci N
tsu M
egnahc xe
rebme meR
Ġcite neG
s niamer
su ah
id loS
eb irt
Ġci ssalC
Ġeu nitnoC
ms itua
sla tipsoh
Ġdere dne
wolle F
Ġenile pip
Ġstnia lpmoc
Ġtp ews
Ġse lat
Ġna ttahnaM
sgni teem
Ġdep pets
Ġdeifit rof
Ġgniwor G
Ġlanitsetni ortsag
Ġrepo oC
Ġ ihsa
ni pS
Ġse ro
Ġlleb pmaC
e reves
ni draC
ir raW
Ġsti ucric
Ġsev ihcrA
eno yna
Ġscit cat
Ġlaic remmoC
Ã¶ K
noitani maxe
Ġci pe
Ġnot pma
Ġevi red
Ġderia p
r its
nim reg
Ġlau rtsnem
ĠM P
Ġseig rella
RO L
ibih pma
su cca
Ġera hS
Ġstne dnopser
vei hcA
rbetrev ni
Ġnyl koorB
Ġyset ruoc
a tem
f lesreh
Ġsi syla
li maF
Ġsk raP
Ġgnin thgil
Ġyt rebiL
gnik ooc
Ġgnille pmoc
b eF
Ñ Ĥ
Ġsi nneD
ha Y
Ġdetaler roc
Ġdeta relecca
og eiD
RA S
Ġstca F
Ġmah gnimriB
e it
Ġgni nosiop
moc lew
pa T
ps E
yo V
ye S
niba C
Ġy mo
sa snaK
Ġere hpso
Ġcit elhtA
nois sapmoc
Ġpo tS
Ġser iw
Ġycna N
Ġlarde htac
uaw liM
ra lc
Ġyl raey
Ġesi hcnarf
Ġa ksarbeN
mu rtceps
Ġdet utitsnoc
ur U
Ġskco ts
y let
Ġs pihc
ret naC
Ġra B
Ġlai cifitrA
gno T
Ġe niaM
Ġla poc
Ġyra rtibra
ua S
Ġlai calg
era uqS
kci r
Ġstup ni
yde nneK
ipp ississiM
o itar
noita uqe
Ġyti dilav
Ġyli dob
sega ssem
Ġnoisnet xE
6 781
a li
s pmac
Ġot ne
ti pac
po eL
at co
Ġsn rub
Ġhta enrednu
meda rt
Ġtra utS
Ġracs O
s bulc
x op
Ġe j
Ġht worG
nuo cer
Ġci not
Ġci vic
Ġ1 01
Ġsla dem
Ġ4 9
eni lpicsid
Ġx ineohP
Ġedi roulf
xa w
s tsil
Ġseta lsnart
ema c
Ġtsei sae
L T
lla M
Ġtna tropmI
illi M
Ġlani gram
Ġdetne mmoc
dnab sid
Ġnoila ttaB
i veL
Ġ à¤
Ġe sivda
Ġre ganaM
bo J
Ġelb uoD
Ġdnats htiw
Ġcino ci
Ġgni ruo
Ġse dulcnoc
Ġna oJ
cit raP
cit naltA
Ġes ruoC
Ġdero vaf
Ġnretsew htuos
Ġla mo
ff u
Ġeta relecca
daeh a
Ġdeppa rw
ycneg reme
- (
3 881
Ġt ceriD
Ġsre erac
Ġlaci monortsa
lle C
Ġpo h
dehsi nif
Ġsei rotcaf
Ġsno llag
ecne serp
ha K
Ġselp uoc
ste grat
Ġyno mitset
Ġyar G
Ġlaici ffO
demrof rep
ĠAD SU
ytivita erc
V M
Ġret tub
Ġtnem hca
Ġthgi E
ksa S
seira dnuob
gni cne
su greF
lf eR
Ġmu igleB
luf rewop
ai regiN
Ġegnahc xE
noisiv orP
Ġerohs ffo
sroti siv
w arC
Å ¾
sa rd
Ġeti c
yh pa
Ġnoisse forp
g trom
no roC
ra co
Ġri ovreser
Ġsna cilbupeR
Ġdnal niF
Ġsra llip
Ġlia R
Ġsdraw retfa
ti urcer
Ġnoita snes
Ġsla tsyrc
ref i
Ġrot curtsni
ĠO SI
Ġcitsa tnaf
Ġdna liahT
Ġniat ta
Ġnot weN
secne tnes
Ġdenoit seuq
Ġwolle F
yrota robal
rtsehc rO
5 781
ru enerpertne
Ġn rot
gi M
Ġeli p
Ġnia lpxE
ygolo htym
Ġdelle ps
nots uoH
Ġloco torP
gni raeh
Ġa hplA
yleta mitlU
Ġse mussa
Ġeso pxe
eta tse
Ġgniv love
Ġevita nretlA
ug sid
Ġais yalaM
Ġgnipe eK
ĠoÃ£ S
Ġtieb la
Ġsi uL
Ġse mehcs
Ġna moW
hg nahS
Ġeso pmi
Ġsna muH
Ġli arT
eta G
yl tna
lav retni
Ġredne r
sto ps
cer roC
sma erts
Ġse e
Ġyra lli
Ġsmu rd
T SE
cer P
Ġega trohs
red rO
Ġle b
Ġecni rp
Ġrek rad
Ġseka ns
Ġwerd htiw
e veileb
ne gni
Ġno l
Ġsi lopa
reht aF
Ġsnoita redisnoc
cna S
Ġyro tirreT
msi nahcem
Ġsnoi sel
Ġsdna lg
Ġnoitalu mits
Ġgnicna nif
Ġos no
fe rof
sne l
Ġem margorP
irts udnI
Ġlav iver
Ġtnia s
ytivit cudorp
Ġtrofmoc sid
ropo etso
nu C
Ġnoita u
Ġgno lefil
snoita cif
erut luC
sehc tam
ma to
de ni
Ġeta icossA
Ġytiliba il
Ġnoisi V
Ġevi siced
Ġil le
legna ve
Ġde pma
Ġeb olg
Ġci dica
Ġlai rota
Ġtxe T
Ġllab teksaB
Ġselu dom
sa f
ma erD
Ġyb boB
eni ru
Ġmu ni
Ġydob itna
gnit toN
Ġyllanoit netni
Ġsepo ls
Ġd nop
ed oC
rep sid
dna pxe
Ġeno ynA
tsil b
Ġsesi ra
Ġs moorssalc
re daer
Ġeta gergga
at reblA
sla i
f reP
de ksa
Ġno J
Ġna ila
el tneg
Ġtne cniV
pa b
loo W
Ġsla itne
Ġecudorp er
Ġesop orp
yltne ceR
Ġgnili ob
pits noc
e mehcs
Ġs C
Ġn ro
Ġnoit seggus
ya rG
ai retirc
cifit reC
Ġti cifed
gi L
Ġmu im
ĠII V
Ġenummi otua
gur D
ew t
Ġeni tnegrA
lf ed
Ġecne H
ud iser
Ġdra H
Ġsna retev
Ġhsu r
noitazi livic
sseni suB
Ä ĥ
Ġe mil
Ġse de
ti aw
ir dA
em O
in redom
Ġevit cejbus
Ġruaso nid
Ġt rawetS
Ġsre wot
Ġsnois net
Ġati pac
sria ffA
Ġdnom yaR
Ġs ragus
mo ra
Ġev E
hp E
Ġese bo
Ġsu m
cilf noC
noitani gami
Ġgi arC
meta uG
ra bme
sa ciremA
di b
Ġsre tsis
tsi lanruoj
ylla usU
kcu A
buo dnu
Ġne hc
Ġn ruteR
Ġtnem elpmoc
Ġ1 9
Ġegnar ra
Ġsrek roW
gola eneg
Ġs llaF
Ġo dnetniN
Ġa ruaL
noita tnem
Ġnoita dixo
Ġeg ru
Ã© d
Ġtre seD
Ġep icer
ĠCB N
Ġgnita rbelec
not toc
Ġnoisiv repus
Ġnoiti nifeD
Ġy demer
Ġdna nidreF
ti baH
Ġti gid
cu T
Ġte N
Ġsnoi pmahc
Ġnaib reS
it e
ya lc
Ġsre da
Ġdet upsid
Ġsu ti
Ġyleta virp
ly T
Ġyar p
naz naT
B B
Ġt resni
Ġf lehs
Ġgni sserd
Ġre y
Ġeni arkU
Ġdere wol
Ġnoisiv er
sta erht
selo hw
Ġcite baid
egna ro
cne pS
yti n
00 7
stne idergni
gnire ffus
icsor ueN
Ġa ts
Ġti uq
go b
yad rutaS
Ġscit oib
ĠR A
leiff ehS
ed rebA
Ġeta itnereffid
Ġci snirtni
poc so
ny eR
s mota
x orp
mu C
Ġci gaM
gi lo
Ġdnal reztiwS
slli H
Ġseo reh
Ġgnidra ob
seg noc
5 21
D O
U G
o lle
gni og
Ġna retev
Ġlai noloC
yti nutroppo
Ġgna s
Ġ iw
se sag
cej art
luc sam
Ġyro tnevni
ytila trom
seiro tirret
sseleht enoN
htae D
re ed
Ġde sserpmoc
Ġeni tselaP
Ġdesa elp
Ġdeli at
Ġsezi sahpme
Ġnoilli rt
Ġgni lcyc
Ġsre tsam
ĠA FEU
rec sid
Ġsci nahcem
Ġtcirts er
zz id
ER F
Ã¶ G
Ġde tsisni
hp mu
Ġeni ppilihP
Ġyllau siv
Ġu nem
Ġani tnegrA
Ġytici xot
ylet elpmoc
ro toM
Ġsa v
Ġema lf
Ġsu nob
itna S
not tub
sega tnavda
ĠB G
idua lC
CB A
Ġward htiw
Ġehta erb
Ġl ler
Ġnoita gilbo
tse lim
Ġ5 091
ka N
Ġdehsi lomed
sro taderp
Ġelc nu
emoc tuo
Ġsesne l
ni tsuA
Ġgni llatsni
da g
Ġgniht emoS
Ġdelle pxe
Ġdetf il
noita lfni
Ġec remmoc
Ġci pocsorcim
Ġdet curtsni
Ġnac itaV
sop er
Ġyad sruhT
orb if
Ġso ni
ssab mA
Ġauh soJ
Ġnoitnet er
Ġtisop ed
sa et
tne mailrap
Ġek af
Ġgnid lew
Ġecna niF
Ġlaitne diserP
Ġso tsebsa
mma lf
tup sid
Ġslav retni
Ì ģ
Ġsi zaN
wo k
ae niuG
ria ts
Ġrehtaf dnarg
deec cus
o ts
Ġde gralne
Ġgni yojne
Ġg ub
ecna cifingis
yev ruS
ssenev it
9 681
gni thgif
Ġdeta oc
snoita zi
Ġelt nam
del p
Ġbu h
Ġeseco id
i pa
Ġgni poleveD
Ġn rutaS
ka ep
Ġnoitpirc sni
Ġni oJ
nu rp
Ġg erG
Ġes net
Ġsya p
sdraw retfa
Ġy kcoR
da em
Ġero doehT
Ġeni losag
hsi nif
sret hguad
Ġgniyl F
9 781
Ġy uG
se soM
Ġsa snakrA
Ġyra noissim
Ġkrow tra
Ġdehc ram
Ġgnihsi lbuP
den recnoc
Ġleu naM
Ġsetutits nI
s pu
Ġt pmorp
Ġa il
Ġa mra
Ġsei napmoC
Ġsrot coD
seru taerc
Ġdeni oc
Ġea di
gni rutcafunam
dne v
Ġtse dle
Ġtna hpele
Ġserut cel
rec xe
rednu ht
Ġeca rG
Ġdedi a
Ġdedeec orp
Ġre ne
Ġse toN
Ġm siv
wo lb
yl P
Ġyro lg
ruoc sid
Ġygolo ce
Ġrota cude
Ġena L
Ġo idutS
Ġtne noppo
yti li
scit irc
Ġlave ideM
k riK
Ġta C
Ġelba borp
sei rettab
Ġygolo hcysP
nor tap
Ġyf itnedI
Ġdaor ba
Ġemerp us
ĠÂ »
a u
Ġsk nom
sna f
Ġgnita rgetni
reb mahc
Ġlacigolo eG
Ġyen rottA
len nosrep
Ġnosir raH
Ġnevo w
Ġnaw iaT
t U
Ġ ida
Ġre daeL
hg uM
de xim
tu rcs
Ġyra ronoh
Ġgnit ciped
Ġsev irra
Ġlacigolo eht
Ġelu R
sem irc
Ġs ruot
Ġd nopserroc
Ġde worrob
ci eL
Ġtnem dnema
dro C
seit ud
Ġil u
T RA
U I
or noM
ĠC C
Ġsne gohtap
Ġgu lp
LC U
Ġsehca eb
Ġts dim
Ġte ewS
Ġ6 091
Ġsci monocE
Ġseu lc
sle nnahc
k ralC
Ġre ppa
Ġse ih
Ġyt rid
yaw liaR
dega mad
Ġadne ga
8 781
id ne
Ġnoita rtsulli
tse hgih
Ġydob yreve
Ġcita melborp
sec namrofrep
Ġdeweiv retni
de dnuof
mu R
Ġero s
Ġsd riB
Ġngi erevos
rco S
sela cs
p rac
Ġd iv
ro hp
Ġyl pmi
Ġsei retra
Ġevit inifed
Ġytiliba renluv
retra uQ
3 01
Ġt lem
Ġht enneK
is leC
Ġst revnoc
Ġeta hpsohp
Ġeta iliffa
rap S
Ġmu res
d rO
Ġsk curt
Ġcit laB
Ġtu C
na y
re bmemer
Ġde nim
Ġna hgfA
Ġh pm
Ġnwo lb
sei re
xo f
tneme voM
Ġsetu psid
Ġslavitse f
4 01
Ġde T
Ġrem murd
Ġhsa r
yno merec
t p
Ã ¯
Ġgni reffid
Ġna iluJ
ru lb
noita tneiro
Ġeta K
Ġle pahC
Ġyre llag
Ġrota reneg
lahp ecne
Ġgnie oB
Ġelcy cib
ma es
Ġyl modnar
Ġdeta covda
deta col
Ġsehc terts
leht ipe
Ġlauxe S
Ġrots ecna
se mu
se grahc
Ġyl tnioj
de drocer
mrof noc
Ġtsa cerof
ws nurB
nidro oC
smu rd
ne volS
Ġse vac
sa na
Ġera d
Ġsti rips
Ġsn hoJ
nepo C
yltne uqerf
retirw gnos
Ġdevo leb
e ir
Ġylla bolg
Ġdeka n
detiderc nu
2 781
Ġs llor
re ka
Ġdehsi w
Ġstna rgim
Ġsdnal tew
ytila uqe
snois rev
Ġnwo nK
Ġseni lpicsid
Ġelo R
y er
ni lbuD
da won
Ġtne conni
noita rgim
Ġst op
Ġemit emos
Ġnois neherpmoc
Ġrete marap
o ve
la rtuen
di mitni
Ġst cudorP
Ġdet purretni
leb eR
Ġtneme cnuonna
Ġdem margorp
luo B
Ġna mu
nuo F
ĠM OR
bba S
seig rella
Ġe ot
gni daeR
Ġse vomer
Ġel sI
Ġret rahC
tu R
ĠA FIF
hca B
Ġselp icnirP
Ġdema lb
Ġtid erC
yrota robaL
" ...
h nepoC
ts itneics
su raleB
es or
Ġecne iliser
Ġdi k
Ġden nam
tneme vorpmi
ngi er
Ġgnicne uqes
Ġain soB
no pu
de tset
pa rt
in nA
Ġtse nif
Ġyr D
Ġsp irts
Ġnosi op
Ġknu rt
laitne sse
kcol B
Ġe ip
Ġs gnoS
te T
Ġlai rotide
Ġrev iecer
Ġseti hw
E F
Ġs robhgien
Ġse sserts
Ġlai bor
Ġka O
sm ubla
Ġenots emil
Ġsseleht reven
e sae
Ġe tsaW
Ġs goD
Ġeta itini
ylla cificepS
msi hdduB
roba lloC
Ġsso L
Ġzza J
negor tin
tne migeR
de ilppa
Ġci v
e ef
Ġse lop
Ġn uR
Ġnoita cilppA
sti art
sai selc
nu j
Ġsnoita tneserper
Ġi F
eta D
bmu loC
hta raM
Ġekat rednu
Ġthgi erf
ĠM AR
Ġgo la
Ġgniri uqca
Ð¸ Ð
Ġec nuo
Ġnoit ciderp
Ġeta repmet
Ġdet cartnoc
Ġnwo te
era wa
Ġdlo nrA
Ġkni P
porht nA
2 01
a Y
na yc
Ġgni snes
ma dA
de eN
noita ulave
Ġkca rc
Ġsla nruoj
sk nird
sdloh esuoh
Ġne taerht
me G
pa nys
Ġsre htaf
Ġeti vni
los noc
sei bab
Ġyro meM
dro F
setis bew
ytisrevid oib
a lusnineP
e vael
v ar
ya K
Ġst repxE
Ġsre hta
Ġdnuo rG
Ġsnoita repO
Ġeci ruaM
Ġnai barA
Ġdeb rutsid
Ġynapmoc ca
Ġgniyf ilauq
Ġciluard yh
L G
d los
y lbmessa
Ġy monotua
Ġyl thgit
Ġyti ralimis
Ġg n
loh kcotS
ai namoR
ten gam
ngi lam
iuq eR
Ġdetalu mucca
ilb ib
ro valf
Ġse vas
Ġsa r
Ġla rberec
si xa
mit sE
ut cA
Ġtce s
nois nemid
Ġgniy ler
net hgi
Ġgnip muj
Ġel gniS
Ġsna ir
krow emarf
sgni K
Ġ00 51
Ġcir temoeg
eso d
Ġa ig
lb o
Ġsdnuo r
d lef
Ġs htgnel
it suj
Ġa bu
mo olB
si sylanA
Ġlle nroC
ot pyrc
nwo hs
Ġreg rem
Ġo ob
ru saem
Ġm iH
Ġesua lc
Ġmo oR
Ġyca covda
Ġlam rehto
kni rps
lus noC
Ġelgna irt
Ġyratnem elpmoc
Ġre poleved
Ġsre ganeet
Ġreht ael
Ġyti so
Ġeni effac
Ġgnin nacs
Ġyad seuT
inu mma
sm row
yrt na
Ġelc riC
pur ba
vol sohc
eet timmoc
Ġecnassi an
Ġeig enraC
t h
Ġde erf
Ġgni pahs
pe cartnoc
Ġsde erb
retta P
porhtna lihp
volsohc ezC
n rutaS
ni ts
Ġni girO
rap eS
Ġsk ruT
Ġsna vE
Ġkca L
ila M
Ġyllau dividni
ylla cificeps
Ġdni M
ĠT NE
Ġwe F
yrt nuoC
pircs bus
Ġt toc
ce hporp
erg er
Ġnai iawaH
sni mativ
ĠN A
o iranecs
t nuoC
ru dnoH
xe S
Ġra seaC
Ġle etS
zi roH
ema N
e y
n rE
Ġf eer
Ġa ja
ha L
Ġgnihc tac
Ġtsew htuoS
Ġsuoig itserp
gni ni
ser ca
ev iL
Ġ.) %
Ġ000 3
Ġsnoitid e
Ġreb mahC
Ġig nuf
icsor uen
docor c
lle ms
Ġhguo roB
Ġtce fni
tnec sed
tni rP
dlo H
tsir K
ugne p
9 581
d rihT
h sac
s hpargotohp
y lo
Ġo h
lp metnoc
Ġ) !
Ġgnid lof
Ġegna R
Ġdesae ced
Ġla sab
ri T
lc ycne
hguo r
Ġsnoit pecrep
tsni W
Ġerawa nu
Â »
Ġnoit segid
Ġeta ivella
om E
snoita cilbup
ye lekreB
Ġyleta irporppa
ĠL HN
Ġmuina ru
ht diw
Ġk lis
mu D
Ġsre hposolihp
du rp
sre V
Ġreh pargotohp
Ġsm elborP
ĠN OITA
Ġgnil ttes
Ġsessa pmocne
T G
Ġt oob
Ġde tsa
Ġn roh
Ġder uot
Ġmu roF
Ġdere imerp
ĠJ D
Ġf rawd
ts irB
Ġla tsaoC
xe L
Ġyra idisbus
Ġb rubus
Ġsra tS
rehte goT
a mohalkO
o tS
Ġla cita
noita terpretni
bme ssa
Ġyro tu
Ġsreht aef
Ġotat op
Ġtce laid
ela d
Ġgnir rucer
Ġeuga lp
Ġc raM
Ġsuoro gir
Ġa ks
Ġsnoita terpretni
eg duj
Ġua da
Ġnor tap
srek aeps
lahp ec
7 581
g eN
se ro
ru goy
Ġn bI
Ġti olpxe
tu lc
Ġyt revoP
Ġseit lausac
Ġluf sserts
noitu lovE
sren rael
Ġskaerb tuo
P DG
Ġs do
Ġgni lias
il S
de dnemmocer
Ġsk col
ud bA
yt pme
ĠF AR
Ġstce tihcra
RE H
ro ser
Ġgni raelc
Ġse touq
ceps reP
stne ilc
Ġstna picitraP
ton na
ku F
y ciloP
na duS
Ġa itilim
Ġna u
noit ingocer
mu ht
Ġsd lrow
Ġevit ingoC
Ġgnitca retni
Ġi z
uqe S
elbat rofmoc
Ġyru xul
smsi nahcem
Ġnote cnirP
o y
li V
ner haF
Ġgnitce ted
Ġgnisi ra
Ġtiforp non
Ġlate f
g n
Ġs muesum
ni B
ro lehcab
Ġp ils
Ġred nimer
ets urt
srev da
Ġnoitacif i
Ġa hpla
ca rg
ylla itne
ĠT U
Ġnoitu lovE
tob or
srot ces
ycne icifed
noisu fnoc
e ed
i gna
ni lusni
na ti
mi niM
es U
pu ts
Ġdehc tip
Ġtib ihni
Ġa moc
Ġni saB
lo vo
Ġra h
Ġeru net
Ġlli M
g ruB
o bme
ih leD
go H
Ġsnoita mrof
Ġevitati lauq
Î ½
Ġ rap
Ġla ets
sa lP
noita pucco
Ġgnit uo
Ġsci no
Ġsserp pus
nek orb
Ġlarts ecna
e mu
n ruoJ
Ġde epS
Ġgni oG
se mo
Ġelba z
ici ffeni
Ġreb yc
cet zA
Ġgni jieB
ta hT
tne ilc
de xif
tim da
Ġor deP
Ġetalu pinam
S SI
Ï ģ
uo rT
ts urT
Ġsi bannac
Ġeta relot
eni tuor
Ġyro sivdA
G cM
Ġ bmuht
Ġta P
Ġm loclaM
de yalp
ega revoc
tneme veihca
seit nuoc
srot cod
lot P
Ġ ja
Ġy ssa
ce ted
id oM
81 1
Ġgnita m
srev res
Ġsdoo lf
drow s
P O
ni arB
oc narF
tna ngerp
Ġthgie W
Ġdesiv repus
Ġ itna
se cnivorp
Ġht urT
di W
Ġnoit cirf
Ġle ber
pma v
Ġsev iw
Ġralu b
Ġyltne uqesnoc
pil f
pmu j
Ġsteehs krow
k k
se nalp
Ġg nuh
cilp mis
03 02
Ġeka ts
Ġsuoi xna
rru M
rosse forp
6 681
7 781
na elC
la peN
Ġle irbaG
rut cel
Ġnoisi lloc
deec orp
Ġdehs retaw
tne d
Ġdet cudni
Ġralu gna
Ġnabru bus
b e
Ġs gip
gni rf
si f
su lP
Ġte liot
llo D
Ġcif icepS
seite irav
] .
Ġecna veler
Ġreh pargo
raw A
Ġela M
Ġlaru guani
cart ni
ĠR I
Ġetutits ni
Ġdeg duj
tno rF
Ġs pe
Ġgni rotser
Ġdet raped
elpma xE
Ġgnitsac daorB
Ġrim idalV
ircs bus
Ġdyol L
Ä Ł
le urc
de nifed
Ġrev reS
Ġhcae T
ai barA
gnik nird
Ġme etse
Ġtnecse roulf
Ġni f
se darg
ca bot
Ġht om
lp ma
ret lif
Ġega neet
hsi rI
ram bus
irc serp
Ġeg rus
Ġstnem ngissa
Ġgnire dner
sta ob
Ġsroti de
s noisivid
y gol
Ġy monortsa
Ġo gol
ga daM
lu ah
ya lC
Ġralu gnatcer
yo L
sor B
Ġsecne idua
Ġyreteme c
e narbmem
Ġy vaeH
Ġre gae
Ġema f
Ġeu laV
ycne rruc
ĠÂ ©
ugne P
s orp
Ġde rapmoC
Ġre nosirp
Ġl lop
Ġst reboR
red noW
Ġsgni tar
Ġdetti me
t M
gni leef
Ġa bo
se ssenlli
el g
Ġret til
Ġeca pso
lub rut
bm E
Ġflo dA
Ġsuri va
m liF
Ã ģ
ne llA
te ulB
sna ira
Ġcit obor
Ġevita repmi
Ġyt ngierevos
Ġgnidnats tuO
Ġsdoo F
u rb
ro na
si ra
Ġeta rdyhobrac
hta B
Ġlanoitid noc
âĢ Ĳ
re dnet
Ġre zi
Ġci gart
Ġsna idanaC
Ġnois orroc
Ġlanoit netni
Ġs revocsid
gni neppah
ĠI G
Ġwor ra
Ġpot ksed
Ġsdnuo w
issa lC
Ġref inneJ
rek am
Ġdeifit suj
w erB
le seno
le llarap
Ġci neg
Ġsnoit cuder
Ġdno maiD
Ġgnihc nual
Ġgnimoc ni
ugni txe
Ġroti siv
gnid liuB
Ġteloivart lu
ne vaeH
Ġla srod
Ġecne rolF
Ġkca ts
del f
erom yna
Ġetelpmoc ni
ix nA
Ġor teM
Ġlate leks
Ġstsila nruoj
ne rap
Ġni erehw
noita lucric
Ġci nomrah
Ġeg diR
los it
Ġ7 091
Ġmrof eR
Ġswo c
rehtegot la
Ġylf rettub
Ġssenk rad
mato po
N OI
m roN
Ġy htgnel
retni W
Ġsnoit cudorp
Ġ5 21
ffo H
Ġyev raH
Ġsdooh robhgien
n ger
Ġni kS
id nac
Ġk nup
sir raH
nev noC
Ġrem ylop
ng I
Ġlufsseccus nu
Ġyhpargo eg
Ġtius wal
o vni
Ġs oc
noita sinagro
fa rg
Ġnoo llab
Ġslau tir
3 781
a V
t cudnoc
gni lb
xe H
Ġnoita unitnoc
noit cuder
nil B
Ġlia s
seitila uq
na tsi
Ġsre ta
Ġega yov
Ġsnoita gilbo
sre papswen
Ġren ruT
Ġsta eb
Ġsdeec orp
Ġa dniL
Ġla tsyrC
ir raH
iv bO
Ġdne b
Ġyre mogtnoM
ro tseR
Ġera ps
rt uo
dra W
Ġgniru ces
gnis sim
Ġsret nuocne
itua c
Ġre musnoC
si P
cit na
eh nerhaF
ms it
pp ih
ecaf retni
Ġruf lus
te iD
bo motua
Ġsnoita lu
tsi pe
Ġstna nmer
Ġkna lb
noD cM
ore maC
sra lohcs
Ġgniniat er
Ġcihpargo eG
V H
re niatnoc
no f
no ziroh
Ġgni rotinoM
Ġne go
noita tegev
Ġsre tsinim
Ġseta roprocni
Ġlo raC
lei naD
noisserp eD
Ġsht ped
or iH
se vo
Ġnoita litnev
cud noC
Ġtsu ahxe
pi ks
ert uo
Ġspo hsib
hpsom tA
Ġyhpargo ib
s lobmys
Ġel g
noit caf
Ġda d
luc reH
Ġyr c
erut lucirgA
gnu j
elddi M
Ġgni darg
tne V
Ġeta G
Ġylla noitan
Ġsgni rps
Ġgniy lp
yb raen
yen siD
Ġse hcaoc
ig il
st rahc
Ġ5 0
Ġtu nococ
ecna rusni
parg oib
yad htrib
Ġkci R
Ġsuore muN
ore hC
yre llaG
Ġadna gaporp
Ġada veN
siseht opyh
hpsime H
s tsop
Ġde looc
Ġgni lif
Ġla trom
hg is
Ġci n
Ġ0 63
Ġseta nidrooc
ol F
Ġyldet buodnu
e aeca
s tsa
Ã ł
Ġt hc
gni R
ita rts
ir ta
noita icossa
Ġreve rof
xa laG
seiro eht
Ġdnom hciR
ylgnid rocca
[ .
Ġde ledom
Ġre yolpme
Ġsre dnuof
nam rod
yl dneirf
61 01
RA C
Ġseiro tS
Ġsb lub
Ġneet ruof
dooht luda
A DF
e soR
â Ĩ
Ġsa erA
Ġsts en
11 1
yr reb
Ġyrg nuh
matopo seM
er taeht
Ġtne g
Ġyti repsorp
do P
ip xe
arb etrev
Ġay neK
s lio
se rof
Ġruo p
Ġg iwduL
dra ug
Ġtneme ga
Ġniatrec nu
Ġeni brut
Ġsk rahs
nom las
snoita cinummoc
stnem elppus
sma dA
swo dniW
Ġse ve
Ġsu coF
Ġeci R
Ġnot el
Ġht fiF
hp ortsatac
nif noc
yra lubacov
Ġylsuo i
Ġgnika b
Ġgnicna lab
Ġetamit ni
Ġy spo
Ġde yevrus
se nomroh
Ġtne ced
Ġsu rpyC
Ġ1 0
Ġgnita udarg
Ġssa lG
ĠO TAN
Ġcirotsih erp
Ġysa tnaf
4 781
li T
Ġk nis
nret xe
Ġsni ev
Ġ05 4
Ġhtam retfa
Ġyroti dua
Ġn ruT
Ġi ru
snoita tcepxe
Ġstna dixoitna
Ġevres noc
Ġyhp orT
T BGL
o nom
o eN
Ġt nrub
Ġa lumroF
Ġel totsirA
gna ro
Ġ4 091
Ġnet ragrednik
trap S
cifin giS
Ġngis sa
esrev inU
Ġnaga eR
naeb biraC
mu la
Ġecne dnopserroc
nom dE
od A
Ġseti sarap
gru til
Ġnoitaiv A
Ġeseco iD
Ġyeb bA
F G
Ġci de
fles ym
ly sa
fil C
muid atS
gnide elb
s kcab
re ywal
Ġre rolpxe
ila H
we neR
dnuof weN
scit si
Ġaira gluB
Ġs waL
Ġro niM
to cin
Ġlle hctiM
suo ires
ecna ssi
n ruT
p ort
hg irb
po nan
Ġnoit cirtser
Ġsre weiv
ae su
Ġelba eciton
Ġsd nopser
Ġsnoita lsnart
Ġgnin nips
sab eS
II V
Ġhtgne levaw
ecalp krow
tnorf noc
Ġdesiv ed
aira gluB
Ġy tsanyD
ta ksaS
Ġse ralced
lp S
noita tnemelpmi
ua M
Ġsla uqe
sm rots
Ġecit oN
Ġevitce ffE
Ġdesserp ed
Ġgnig gol
Ġytla yol
a di
a teb
u W
re do
Ġno dnaba
erc xe
kci rb
Ġdo hteM
Ġtsila noitan
Ġsenil tuo
ĠIII V
z ed
la nac
Ġgni roloc
le ye
Ġp i
wa S
eni ps
noitani tsed
ytu d
m yh
m irglip
si lopa
su ro
Ġeta ig
Ġstne munom
ĠA V
tta t
Ġeda M
Ġsser tsid
mina nu
stneme tats
s dnob
Ġa nera
Ġsa ltA
oo s
Ġsre enignE
Ġsnoita lumis
sre tsa
Ġtsi latipac
Ġ9 091
rco dne
Ġdelb uod
si K
Ġci htapo
ep yto
Ġlaci rtcelE
tnem gduj
ua B
Ġlaru lp
sel rahC
Ġetalp met
Ġsretsa sid
Ġrollecna hC
P U
gni nim
ti F
Ġst elbat
Ġeta rgim
Ġsnoita loiv
Ġsk cits
Ġevit cepsorp
Ġeci oV
Ġdes palloc
Ġnoitati c
T B
ret tal
et ercnoc
Ġdema nkcin
Ġlainne rep
C W
Ġsre yarp
Ġdeta rgim
ĠS G
erb if
pyto erets
Ġyti unitnoc
Ġsuo enego
tek raM
Ġdnum dE
Ġy dnas
la eppa
Ġgni dulcxe
se H
Ġse pacsdnal
Ġel gaE
erp us
Ġgnin roM
Ġsp mup
Ġylba tiveni
s yalp
Ġgni deen
Ġ0 981
Ġega toof
Ġevita itinI
hgi L
hgi eN
ĠS D
ai poihtE
Ġedi co
eci uj
Ġsuoicsnoc nu
Ġeuqo raB
d worc
z S
Ġla teM
Ġtne cifingam
Ġnoita reneG
to pS
Ġlai nomerec
nosre ffeJ
? ?
Ġa repO
Ġsre if
et na
Ġedis A
e lop
me ti
Ġret nirp
yti rojam
ytila picinum
stna ruatser
h ahS
u aeB
hs I
eta m
Ġmo ob
Ġhta b
Ġsmu g
E A
s llaf
Ġo rts
Ġne llo
de iduts
Ġero lpxE
Ġecne cse
Ġecna noser
dra b
ren niw
sle nap
Ġaib moloC
seo hs
sehca daeh
o zo
Ġ [
Ġo nai
Ġ3 091
Ġevita tneserpeR
ero mitlaB
sgni r
Ġselp icsid
Ġded worc
eka uqhtrae
Ġsrood tuo
rorep me
Ġaeni uG
l m
s noisse
Ġne sir
Ġst u
Ġhguo c
sre nosirp
kca H
Ġseiti C
Ġslli kS
Ġgrub ne
u lu
ht ruof
se po
eca laP
tel luB
Ġsde ew
Ġesop pus
Ġelit xet
Ġsuc raM
Ġtsef inam
Ġlaitse lec
Ġde vap
go h
dne W
yl C
Ġtsi nimef
ecna hc
Ġydob emos
Ġecrof krow
Ġevitce lfer
sdra wa
Ġdedna rb
seg dirb
retsa M
Ġneddi brof
hgrub nidE
uo b
Ġni ev
Ġla rips
ru hT
ĠA G
wa R
nil ced
Ġnos dnarg
Ġz ed
Ġnoitani mon
Ġita nnicniC
da eM
Ġnoita ili
Ġya S
Ġle hcaR
Ġsk lof
Ġdi muh
Ġytilib issecca
Ġded nim
rota tcid
Ġado s
noto res
L D
ra ga
Ġgni do
Ġev irts
noita raperp
Ġgnik col
Ġdnuo sartlu
Ġgnita nretla
eni tselaP
Ġer tem
txe T
Ġdene htgnerts
Ġelbats nu
ido mmoc
eltta eS
la mona
Ġnoit pyrcne
bo D
Ġtsa P
lia F
Ġx elpmoC
Ġcitsi loh
retse y
Ġduo lC
Ġselt rut
Ġt laW
se tov
Ġec rovid
Ġseit ivitcA
Ġdetset noc
Ġecu deR
h eM
Ġa se
Ġa val
Ġdeta roballoc
Ġra ilucep
Ġrev neD
dni S
stne dicca
Ġdraw pu
Ġde moclew
Ġro nod
Ġna rehtuL
tne nopmoc
Ġeru ssa
elb on
Ġemoc leW
hci l
Ġyca ripsnoc
stsi la
Ġtsigolo hcysp
esne cil
Ġegaw es
7 01
T O
e simorp
Ġy res
Ġst pircsunam
Ġyti vac
Ġsret nuh
sserp xE
Ġdep pot
Ġnoila ttab
E K
x as
mo iB
Ġnoit cejer
Ġylla rutluc
ut cnup
Ġpot pal
Ġsed it
Ġtnirp toof
V S
u lg
sna elc
ces retni
Ġedi rolhc
elba iler
det pecca
Ġytini civ
Ġsdaer ps
e las
gni laeh
se cnarF
noita losi
Ġsd nimer
sre divorp
yti ni
Ġsni ar
Ġsthg if
hcti w
Ġpihsre daeL
syaw la
deb ircsed
nosni boR
o ro
reta p
Ġdene trohs
Ġnae lihC
Ġnegor tse
Ġstnia S
noitroporp sid
Ġs dnatsrednu
Ġgni yolpme
te K
de C
Ġsre dno
Ġmu rof
Ġyrt luop
sno igiler
sta r
Ġlia n
Ġska ep
Ġyllo hw
Ġa im
Ġci marec
Ġlli rd
ĠS SU
ama bO
gniv ird
Ġtnemecalp sid
Ġege livirp
F R
Ġla na
elba T
sd nim
msi nagro
Ġsnia lp
too hs
Ġevisnepxe ni
h allA
as rev
tem leh
Ġrota rtsinimda
Ġgnil tserW
my sa
evita itini
Ġtreb liG
yllaci rotsiH
Ġlairo tut
S K
Ġy si
di oryht
Ġelba hsi
ob A
Ġeli garf
Ġevis olpxe
ry B
Ġelbatrofmoc nu
Ġgni R
ri eht
Ġeta noissap
Ġcit en
Ġlarut lucit
Ġyrani retev
Ġtir ksnaS
e vals
o ci
Ġa hsa
Ġgni redro
noit p
Ġdra W
Ġli ah
pm A
ĠR U
ea gla
Ġih leD
k ia
Ġsa na
Ġeta snepmoc
Ġdra noeL
Ġeu c
kco C
Ġmod les
Ġevito motua
a woI
m yS
s f
s rab
Ġs ruasonid
Ġse lo
Ġnoit pecer
Ġle gnA
Ġlatnem irted
it pecsus
la nosrep
Ġde il
Ġla nummoc
Ġnoit seuQ
Ġtnem riapmi
lle ps
Ġdeni ard
Ġytivit cA
Ġevitne cni
ylevita nretlA
i leD
m O
Ġt pursid
Ġde muser
ma lA
Ġnoita mroF
ua n
Ġnoi gileR
Ġtf ahs
Ġnai noshtimS
lup its
ytiliba niatsus
pil le
rtne ced
s lo
Ġy hcrareih
Ġse icna
sa ib
di pE
Ġsel citrA
sro H
Ġlacigolo hcysP
yra terceS
Ġevo meR
ema F
Ġama naP
Ġina tsikaP
Ġslia rt
cinummocele t
E W
e gip
Ġde noitats
Ġre kaew
se doc
Ġev irD
Ġeru saert
Ġtsu rc
Ġ2 091
Ġsna cs
ez reH
Ġnoitalu pinam
Ġeid dE
Ġmaerts nwod
elif orp
noita nalpxe
Ġere W
lli ci
Ġseu tats
Ġsb mob
6 581
Ġa cit
Ġre mo
et iteppa
Ġred leif
ka volS
Ġrot ubirtnoc
Ġdeniat ta
Ġse hguH
Ġk i
Ġsuo reneg
bmu cni
dnuo rG
Ġgna W
teba hpla
Ġseka uqhtrae
Ġset yco
Ġtsigolo ib
stca pmi
t E
y xO
Ġ boR
no ca
de dnuow
nia rg
Ġgnid raw
Ġevit iteper
Ġgnita lumits
Ġli pup
gro F
Ġeuq som
roh pa
Ġderevoc nu
ylgni tseretnI
Ġota mot
d raeh
Ġro srucerp
ba N
Ġeta nimod
gna T
Ġeso J
nois ore
sk roW
c no
su alp
Ġnoit pursid
Ġsu ga
Ġseta bed
eru solc
los bo
Ġssa rb
Ġhsa rt
SE R
gnit nuh
Ġsthgi ew
Ġette ragic
Ġlacir taeht
Ġelita lov
h nE
p roc
Ġgni ws
Ġgni diug
hc tah
Ġci lohocla
curts noC
reb I
ny so
Ġyltcerid ni
RO F
Ġdesse lb
Ġyparehto mehc
cnupu ca
p it
Ġe elf
gni B
uo F
Ġnoita vonnI
ig id
tse ug
Ġecna iler
Ġgnita rapes
Ġgnita nigiro
hta N
Ġssel dne
Ġsesa batad
sserped itna
seuga elloc
s tsir
Ġsa l
noit cid
noit pecrep
Ġma erD
Ġedu alC
cil ffa
idi xo
Ġrob raH
Ġyhto miT
p orc
t tA
re wt
re divorp
Ġde hsarc
Ġse hsarc
li g
Ġsu rua
irep mi
Ġneet xis
Ġetalu mucca
c orb
ra ilimaf
Ġre nil
Ġh pargo
mu L
Ġsse corP
Ġelp maxE
Ġssor cA
Ġdetaler nu
stnem erusaem
gni moc
Ġgni hcraeser
noita redisnoc
Ġci ssa
ep ip
yra v
Ġlo nahte
Ġcitehta pmys
s gab
t tel
Ġsre ffus
ĠI MB
Ġder caS
ev ruc
Ġsdne ps
esi ra
Ġsevita n
Ġgnikni hT
g ev
s lios
Ġy limE
Ġo naclov
hc taW
gi vaN
ib reh
Ġedis tuO
gg E
Ġdeif ilpmis
Ġnoitid E
hte bazilE
CB B
eraw drah
Ġanne tna
guj noc
snev etS
Ġe nutrof
ni loiv
se unitnoc
le doM
Ġro lehcaB
ba s
de veihca
Ġnoita roproc
Ġg orf
pi uqE
corp icer
Ġdecne mmoc
Ġsdraw dE
Ġsep icer
Ġlev arT
Ġredi ps
s dlo
t resed
ne kcihc
ti derC
Ġna ts
Ġret teL
reve B
sna elrO
Ġgniv id
.) .
Ġsp illihP
Ġez eerf
Ġssen redliw
Ġ] ...[
Ġsenile diuG
hpmu irt
ta hC
Ġro do
ya ts
ua H
Ġeli F
Ġnois lup
sdi o
Ġsrae t
Ġdetf ig
c nuJ
e niaM
Ä ĵ
Ġs rots
so rea
Ġtsa F
Ġseu lb
ese rof
set te
ale dA
Ġtnemecne mmoC
s moorssalc
ni eR
re oc
se li
Ġna tsi
ita F
rof fa
yh ed
xel fer
Ġded nimer
dev iecer
e vac
ro J
gni tnirp
Ġnoit cudni
go ls
ev res
dra ger
wor ht
pma T
sla nif
Ġsrota gitsevni
inne lliM
Ġnara haS
Ĺ ı
Ġf laH
ci us
Ġna eS
Ġci nilc
yti litref
roc cA
Ġyro sivda
Ġsser trof
Ġsnia mod
ht in
Ġgni ssecca
tne r
noita vresbo
Ġnoita nod
st lu
ye H
Ġseru liaf
Ġlani draC
yra rtnoc
Ġsnoi su
rco med
Ġsseldra geR
Ġy doolb
Ġde naelc
Ġgni lesnuoc
el le
Ġsre gnaR
ic so
Ġte kcop
tsi V
Ġsna issuR
Ġsev ruc
Ġssel nU
Ġcita milc
lua ssa
Ġs yolpme
Ġd lab
ti nU
Ġm gidarap
Ġsre nim
hp lus
D VD
y i
Ġo ira
ru htrA
Ġnoita relecca
dne rt
Ġgniti bro
Ġnretsew htron
vog ezreH
Ġlaht el
Ġtne tnoC
Ġtna tculer
ut riV
Ġtce ffE
Ġedi W
ĠV PH
nimu l
Ġhp lo
aesu an
Ġde decerp
se G
de wolla
Ġdeta rgetnI
Ġts orf
Ġyra it
hsi V
ram marg
dnu der
cirb ul
s ffo
Ġm roF
Ġgnit lusnoc
golo pa
Ġygolo edi
yr temoeg
Ġdaeh revo
Ġhcir nieH
noitisop po
Ġyda l
Ġgnikci ffart
Ġegab rag
Ġa iluJ
li ec
mo sni
ca P
Ġsu nimret
ira vni
Ġdi A
gno ps
Ġtneme cnavda
Ġpa el
Ġeneg uE
Ġloohc serp
Ġdnih eB
ecnedneped nI
Ġe ce
Ġo z
Ġdna lloH
es lE
reta eht
Ġx af
Ġsts issa
ddi M
Ġngi apmaC
Ġroi retnI
Ġgnisi crexe
Ġselif orp
Ġot ua
Ġdeta es
eru tsiom
Ġgnire enoip
Ġnoitani ssassa
sevita ler
Ġinna voiG
s rehtom
Ġd op
na id
re mu
xe dnI
Ġgno rtS
Ġi b
Ġelb bub
Ġffo nur
Ġro s
Ġk raps
Ġci getartS
sse corP
Ġda ba
pm ilg
pihs noipmahc
Ġb mil
SA B
enil nO
Ġgniyalp sid
Ġaid emit
rehp ehS
Ġsthgin K
s dno
se pip
02 81
ler bmu
mad retsmA
gnit tuc
Ġsdeec xe
no rF
Ġde hgiew
noita tneserper
ya led
lla T
Ġecna rusnI
Ġevit pircsed
Ġevit isoP
eu P
sgni dnuorrus
Ġkcol B
GI F
Ġtsli hW
d lim
Ġgni hgiew
ci mitna
hc ni
bo s
sna r
Ġnos taW
srete marap
d nuf
se wa
Ġse ssentiw
Ġsre irrac
ih W
vo G
zi uq
ega nam
Ġlaitne ssE
Ġb ur
Ġore Z
Ġseunev er
I R
Ġe yd
ni meS
Ġde gnar
Ġa e
Ġgni llewd
Ġl m
Ġn revog
Ġle psog
ua b
Ġder ussa
Ġloo w
mah arbA
Ġsulp rus
n f
Ġgni ripsni
or to
Ġnoit pure
res worb
Ġsei nomerec
tim retni
Ġtcerroc ni
Ġba rg
Ġlab reh
e hcra
la edi
su sne
Ġelp ma
Ġecne inevnoc
nna b
Ġyr ref
Ġesi uoL
idem retni
t leb
Ġs maxe
Ġt cudorP
it sev
Ġht iaF
Ġeta dnam
Ġsu cit
Ġred lO
Ġes nopseR
Ġsk sam
bu ts
Ġyllausu nu
evita rran
C G
Ġde tekram
lo hC
Ġtnem ssarah
eru tam
deM buP
Ġevi sav
yranoit ciD
a knaL
l co
s levon
ca lP
Ġsnoit itepmoc
los sid
Ġym moT
sni lloC
Ġeman rus
Ġdeni lcni
Ġtsaeht roN
Ġsehsi lbatse
Ġ Ù
re ip
me lid
Ġn ni
Ġn raw
Ġylla tnemadnuf
Ġecne lis
bmu lp
Ġnoi pmahC
virp ed
seni ccav
vorp mI
l k
noit pecxe
Ġyltne rruC
Ġsecne referp
Ġxe S
s kaerb
Ġd liuB
Ġde srepsid
Ġni loC
lu dni
Ġnoita gergnoc
Ġdet cerroc
f I
Ġe mina
Ġt lover
Ġ) )
Ġsna cirfA
Ġda uqs
Ġthgir ypoC
Ġedi aledA
Ġnoitu cesrep
rat la
n roh
gni nem
Ġgni ve
mit pO
Ġecna nimod
nos pmohT
Ġsta mrof
nai rotsih
Ġnoitpirc snart
" =
ne rG
Ġde reht
me etse
Ġgnire ets
ĠP L
my nonys
8 581
o tohP
Î ¹
ti naM
de S
Ġtsu rht
emo neg
ks A
ĠC N
Ġytila rom
eu nitnoc
Ġsret teL
Ġnote leks
Ġretso F
d lihC
t la
Ġs Ã©
Ġs leber
ne ma
noit seuQ
Ġygolo eht
seira rbil
hka zaK
Ġseca lP
nger P
Ġe tne
Ġs ÃŃ
Ġt elbat
Ġgni rednow
Ġni ka
li uq
sa usrep
Ġel zzup
Ġra j
Ġtnem llorne
Ġgnit cerid
Ġtsi monoce
sy oB
ĠE E
stna rgimmi
rra N
Ġspihs rentrap
Ġlano ga
Ġelbid e
ni llop
Ġo gnoC
Ġeta D
Ġlla B
Ġsu tsuguA
yt la
RE P
Ġs noc
Ġre zti
Ġta olf
su na
ba jnuP
lu llec
uq raM
Ġsre yalP
Ġra mmarG
yl F
mma et
noitce lloC
Ġsenil riA
ilo ehR
gni thgil
gni rotinom
Ġtso hg
Ġlau naM
ngi S
gnit nuH
Ġsrevres bo
seota top
Ġsuro hpsohp
a po
Ġy os
gni nosaer
se va
Ġnoit itrap
yti nummoC
Ġreta ehT
srev ird
Ġlau gni
Ġtrop S
Ġslle W
snois nemid
sedi citsep
Ġdesimorp moc
a en
re nuf
ci los
Ġm eh
Ġev obA
noit pircsed
Ġp ud
Ġyt laiceps
Ġssa pyb
ylla rutan
Ġdecne refer
Ġsto lp
Ġstib ro
Ġnwa d
u lb
sa F
ah eb
Ġte hporp
ek naY
Ġnai se
met rA
Ġtes bus
ĠP G
Ġsl uos
Ġhai asI
z U
ht riB
Ġy revoceR
ra er
Ġgni gnahC
Ġtne ibma
Ġci ffarT
Ġek ila
tsa tem
Ġsya l
za lb
Ġenil ria
greb ne
seka tsim
niets niE
Ġsyen dik
gniyl lub
6 481
a ksarbeN
É Ļ
Ġy v
Ġa yaM
Ġne ts
Ġmu lucirruC
nois siM
Ġmi retni
Ġlam roN
III V
Ġtnanetu eil
Ġsur tic
gni vom
Ġgni voM
Ġsa erehW
Ġla nomroh
te W
to G
Ġlare til
Ġflo w
wehc taksaS
m el
no raB
ne hC
Ġna P
Ġret toP
Ġtna hc
tnem tnioppa
Ġelbati veni
Ġsmsinagro orcim
Ġevitareneg ed
B D
O W
Î µ
Ġa itaorC
se necs
de revoc
Ġte kcirC
Ġesa ercnI
00 71
cej e
Ġb lub
Ġu reP
sel t
noitu cexe
Ġsde eL
Ġgnimrof snart
Ġkcart dnuos
nats I
tnemhsi nup
deru jni
Ġgni ruot
Ġgni wehc
Ġla suac
id erc
Ġsu nim
Ġle wov
lleta S
dloh esuoh
vel uoB
rorep mE
n rev
y ug
Ġte kcap
Ġgnid dA
rf er
Ġmu itros
ha J
eca p
bm yS
evita nretla
Ġyru saerT
strop S
lar tneC
Ġyl feihc
Ġsre ywal
Ġemo d
Ġerut rot
Ġstsi noloc
deti nU
Ġyde gart
Ġsuoit irtun
Ġedut itlum
Ġt ciped
Ġse rapmoc
gi z
Ġema D
eru saelp
ĠT CA
eer T
eti S
llab teksab
Ġsren roc
Ġkcu l
Ġnoitib ih
Ġyranoit cid
re paP
la mrof
su la
ya rg
Ġesa el
Ġseta G
Ġsya led
Ġai le
Ġevis nopser
Ġlani gav
Ġtnalp snart
cip sus
tnemel pmI
X I
y erg
Å ł
Ġs barA
ne rg
Ġa rtsehcrO
Ġeta mixorppa
ae H
Ġyrati dereh
tek cor
Ġsdraw er
ht iaF
Ġd lef
bme xuL
luci dir
Ġylsuo icsnoc
sci nortcele
Ġsrae w
6 01
P D
Ġ um
Ġn ÃŃ
Ġret nuH
Ġdi ordnA
pe ced
tsi hw
niat pac
Ġai regiN
sdi K
Ġnair yssA
f lus
Ġs M
Ġt lah
il cu
de ew
Ġwo lloh
tnem moC
Ġsnoit pecxe
Ġsna ilartsuA
Ġsser gorP
Ġso iduts
sno ruen
Ġkco tS
Ġdega ts
Ġgnine drag
Ġsrev iled
sred rob
Ġerihs pmaH
ato kaD
Î »
de nimreted
rt ta
hp my
Ġlaci hparg
Ġseiti ronim
tf ihs
Ġylp itlum
Ġdrawrof thgiarts
Ġde kcart
Ġse idemer
ca rb
Ġeta itogen
to rac
Ġeti nu
noi L
Ġreve nehW
Ġselba c
ry T
Ġsroti nom
f lu
k ah
z e
gni llews
so lC
Ġdev irped
Ġgnin naps
Ġerut cetihcrA
eca lP
Ġlo tsirB
scit eneg
Ġedarg pu
Ġpma ts
srood tuo
Ġyreteme C
e rob
m lac
se xob
Ġtna rgim
Ġdec nuo
yle man
lati paC
Ġrag dE
Ġgnirae H
Ġdelle cnac
Ġro N
Ġla rtceps
noita picitrap
hta K
Ġnia ger
snoit seuQ
hP i
orb mA
sro mut
Ġmsi rorret
dum reB
remo lg
Ġd reh
Ġsre bmuN
loo w
elb issecca
nev E
Ġstna hcrem
Ġdei poc
Ġkoob txet
Ġslli m
ssen suo
Ġcir te
egnahc retni
Ġcihpargo tohp
selc ric
Ġe aeca
li arT
noita dnuof
Ġtuo cS
Ġgnik iV
Ġai barA
Ġedi citsep
o iduts
s C
s rotsecna
no en
la gneB
Ġnoita colla
Ġya ler
Ġeni tsuguA
hsi loP
eg ufeR
Ġelt rut
Ġdepp irts
Ġcitse moD
s nommoC
Ġgni mia
le ssev
Ġg uA
eru tinruf
Ġpo P
Ġstna vres
Ġana ujiram
Ġesop po
kcu l
dev irra
Ġoo Z
cib reh
Ġler rab
Ġgnilia verp
Ġdecar bme
v los
y rot
z ar
ni latS
no F
la vni
se nim
se meht
Ġero tS
Ġhguorht kaerb
Ġef ink
Ġluf wal
dda S
thgi R
Ġref snarT
Ġdeka b
Ġmsit uA
tiuq ibu
Ġsera uqs
li L
ga B
Ġnwo lf
pma r
Ġycne rapsnart
Ġpa lrevo
rewop me
ada veN
Ġeltsac weN
dirt rac
t fo
se tuor
Ġhc nub
va F
Ġsuo mynona
wor romot
Ġym A
Ġlanoit isop
Ġlacigolo edi
msi cit
rtsa sid
Ġxa ler
Ġcihp ortsatac
artsehc rO
l riG
Ġo fni
Ġnoita xaler
ic laC
revo C
st xetnoc
Ġyf iralc
Ġenalp ria
F U
P R
Ġe nac
na yM
Ġsre icalg
Ġsu lumits
del lortnoc
llab esab
reti puJ
Ġdedeec xe
Ġsesse ssop
Ġe nabsirB
gni mo
Ġnoita rebiL
Ġsno o
Ġkca rT
Ġnai retybserP
cov dA
laci mehc
la k
Ġa eh
Ġno saM
Ġn h
Ġdeta lumrof
Ġdei lpmi
yltne iciffe
Ġnair dA
Ġebirc serp
P OC
a moc
Ġde hsurc
Ġgni tsissa
id ep
Ġev aeL
mi rep
rap pA
wa es
Ġai nemrA
Ġedis er
tneme c
gnita eh
roe teM
Ġsgnin rae
ra zi
li rets
sa me
pa L
Ġp iks
suo igiler
suo ivbo
ega tlov
Ġgnisu fnoc
RE V
M L
j A
u hS
Ġa hc
Ġa reneg
Ġa veneG
hc nual
Ġro noH
noita leR
Ġda p
ot orp
Ġerut carf
Ġhca erb
deta cilpmoc
Ġhcra nom
N OC
Ġs dohteM
ga rD
reht E
ruf knarF
Ġylba ugra
Ġezi retcarahc
Ġsuoena tnops
Ġyhto roD
della tsni
s tseggus
re dnammoc
Ġy htapo
Ġne raK
Ġnoita ercer
di o
Ġti ucriC
Ġlli hcruhC
Ġnoi sulcxe
Ġlacit saiselc
thg irB
dda s
Ġlo tipaC
Ġsecna ilppa
Ġhsa lF
DH DA
d erp
s nur
Ï ĥ
Ġse sserpxe
Ġk c
Ġte moc
ecna diug
Ġsega kcap
hpargo eg
Ġevi hcra
Ġlap icnirP
ni hS
Ġt od
gni si
Ġno rtuen
iw D
sre dne
nar U
TT H
8 01
Ġe par
rev liS
Ġsre sopmoc
Ġtna relot
Ġsnoita raperp
Ġsnoita leR
Ġsla nimirc
Ġso idutS
teg rof
Ġgnorts mrA
eraf raw
noitilo ba
Y B
Ġe teP
Ġse nnahoJ
su rc
Ġeta romemmoc
noi savni
Ġetar tenep
sme op
Ġd doT
noita rolpxe
tu lP
in K
Ġgnit nuom
Ġsrota rtsinimda
Ġyllacit sitats
Ġcite op
m irt
ts ivitca
Ġre ehs
Ġna lc
ma hS
Ġst recnoc
en niM
Ġsre goR
Ġdi ma
Ġgnita lucric
py H
eca eP
Ġylba kramer
den rael
Ġssele moh
ydaer la
e tneves
Ġgni sopxe
ta mu
le dA
Ġci mim
Ġtna tlusnoc
Ġdi or
Ġgnita eper
Ġai namoR
Ġekat pu
ero hc
tpe N
ylsuo iverp
noitnev erP
9 01
y lli
gni rfni
di loH
Ġsnoita rbelec
Ġdev iver
ai sa
Ġmsi latipac
Ġniw dE
srota cude
Ġd ih
gni hsilbuP
Ġelp ats
pe ets
dlo b
nos leN
ku M
slli b
citne rppa
Ġhtneet hgie
Ġgnitrop puS
a nemonehp
ra gna
Ġgni mag
Ġgni weiver
Ġse tim
Ġ8 0
Ġgniwo lb
Ġsecna hne
Ġcimonoce oicos
ny C
Ġelbati forp
Ġseire hsif
Ġreit norf
a Q
m siv
na moW
nu N
Ġci at
Ġsu B
sei rota
thgil s
05 3
Ġytin gid
Ġsudo xE
Ġt nor
Ġy ah
Ġo lo
Ġyl neve
Ġyl keeW
Ġec reif
et noM
Ġseta geled
Ġgnita luclac
Ġeda vni
Ġkrow emarF
Ġtneme sab
sei poc
Ġnai nablA
Ġstnem tsujda
Ġsesu fer
ĠT BGL
yhpargo tohp
Ġlaud iser
l yts
gni noitcnuf
Ġtne idarg
rehto M
det curtsnoc
ws toB
Ġnaga p
Ġdu arf
Ġgnideec xe
Ġxet roc
4 581
K cM
Ġd ri
el dnah
da woN
ya rtrop
Ġnai sa
Ġpa l
Ġlanoisser gnoC
Ðµ Ð
Ġreil raE
pis sid
Ġs taefed
Ġre tsu
mi hS
rts ag
Ġem irC
ĠT N
gu B
ĠL FA
Ġelo hW
ylsuo enatlumis
sdne rt
Ġsfe er
retti wT
gni gnahc
ru g
ir ym
Ġci do
rts iger
sse d
snoita timil
ffa cs
Ġdetce lgen
msi ruot
Ġgnite eM
Ġsga lf
llit sid
Ġgnithgil hgih
ygre lc
Ġlec xE
l K
Ġo moH
ser tem
Ġylla reneG
sre niatnoc
ot rot
ug urU
dnal sneeuQ
Ġem yL
Ġyr reP
Ġstrop mi
n Ã©
Ġy getartS
el ggurts
Ġnoita lletsnoc
es uom
Ġega enil
ega ssap
Ġnoga rd
relc s
________ ________
ehca daeh
z O
no nabeL
Ġeta nni
tu cesorp
Ġdoo ht
pe eD
Ġdeti olpxe
Ġsro lias
Ġste op
art lu
ylla reneg
yap xat
ama rd
nosi daM
rewt nA
la citirc
Ġre tsop
Ġla su
hs loB
Ġh pmu
Ġesu er
Ġsei ca
Ġs lessurB
Ġt po
Ġo p
Ġdet norfnoc
Ġcit sy
Ġsro olf
Ġcilbup er
ssen luf
Ġdero liat
zz ub
nid rO
a leuzeneV
Ġna llA
de ts
de ppa
Ġnoit pmus
gi W
dra uG
21 81
Ġso itar
tel lub
der ia
à¥ į
la ertnoM
Ġti me
Ġenrob ria
Ġseri sed
Ġlair dnohcotim
htni roC
z u
Ġs tsacdaorb
Ġnoita ulavE
Ġh ka
hp muH
Ġsna ps
yte irav
ugni tsiD
Ġdeda usrep
ryt ram
t hc
Ġe rbif
ti hC
tne B
Ġnoita cilper
Ġnoit civnoc
du T
ylla itinI
elp ord
tneme gagne
seni cidem
strap retnuoc
Ġsga t
Ġdetiderc ca
peza ido
Ġ Äģ
Ġse soporp
li saB
so H
lu me
ya rruM
Ġelba toN
sre enigne
Ġgnita cude
Ġx irP
suo ra
bu h
Ġnoitisop ed
stnem traped
Ġsg orf
s fe
la ej
Ġev org
ba llys
Ġnoita rebil
Ġte iD
irep uS
mono tuA
cid nys
lub ma
Ġlor tap
7 481
s soR
Ġse ssarg
hc oC
si lE
Ġev arb
91 1
noit cnitxe
Ġnaira niretev
Ġrehti E
Ġtiart S
â Ī
na ir
re eb
se bO
ff i
Ġylla icnanif
yti snetni
yti roirp
Ġ5 981
Ġdezi rogetac
Ġeterc sid
Ġenitna tsnoC
Ġsnosi rapmoc
L H
s niart
Ġt liuB
se hsa
Ġm elborP
te elf
Ġnoita gitim
Ġevita dixo
stne mugra
Ġrot plucs
Ġreg it
hd lihC
Ġyllacit sard
Ġycna tcepxe
Ġnoisser gga
de krow
Ġst rof
sse ccuS
Ġsecna lab
sso lb
noitati dem
Ġyros lupmoc
n worc
li O
Ġna sitrap
Ġyra motsuc
Ġskca rc
slli h
sn muloc
s ruoloc
u rF
ret lehs
seta rdyhobrac
Ġdraw nwod
Ġde rednow
se cit
Ġnoita refilorp
cu c
Ġega irrac
sir roM
eru saeM
Ġdro hc
nik S
Ġa eT
Ġnoita zilitu
Ġsuo r
Ġsu ni
Ġstna hpele
Ġyrota vresbO
lap pA
CP I
b if
i ru
Ġt nrael
ne mu
ra seaC
Ġst oohs
sre temolik
Ġsla es
Ġssel niats
sro snes
gniv iL
sreb if
Ġegaruoc nE
Ġyllaiceps E
si o
Ġnoita ton
Ġeta losi
Ġsna rt
Ġsya W
Ġlanoit po
Ġseni zagam
Ġserut pac
Ġytiru tam
Ġgnila eppa
Ġde red
su t
Ġev resed
Ġdi paR
Ġtce lgen
Ġgnil tserw
Ġraeppa sid
nima l
Ġdneg eL
Ġhtoo teulB
1 581
r dauq
Ġgni retla
ĠR CP
Ġded leiy
Ġyltna tsni
rim hsaK
Ġsso b
Ġsref snart
j i
n worg
n rohT
Ġm ed
Ġl uoS
Ġsu lP
ygolo hcysP
ena L
Ã¼ f
a citcratnA
eru c
ĠF A
Ġytiru ce
Ġgnitne rap
losit roc
gni ma
Ġgni hsurb
Ġre naelc
Ġeta lumis
Ġeta rebiled
Ġsei rotsih
Ġsk nu
irp yC
Ġrev E
Ġyltne rehni
noissim rep
eso culg
Ġrailimaf nu
noitacif issalc
des sucsid
F S
u eR
li rt
Ġla miced
Ġht riB
Ġdeta itnereffid
st cepsa
Ġsro irraw
Ġcibo rea
P T
d do
Ġ iti
ma B
Ġg ip
ae D
Ġtnem tsujda
Ġsnoita cilppA
sni g
itu aeB
Ġnoisserp pus
Ġmui htil
Ġytira lc
b up
no onretfa
Ġa ko
lu K
tu hS
Ġtso merof
ua K
nai G
Ġesruoc sid
Ġrets nimtseW
Ġde srever
Ġgni W
ir fA
da uG
de nibmoc
Ġylla noitidda
Ġte elF
ceb eR
Ġseta luger
Ġcit pes
Ġelb isrever
Ġ8 981
snoita dnemmocer
Ġpo ta
eer hT
dim hcS
dev orpmi
Ġdetsil ne
Ġenog rednu
ĠnoitatS yalP
Ġdna H
Ġci nesra
Ġtce le
Ġli oc
Ġmo olb
Ġlani mon
Ġu ruG
Ġgnip mup
ned rub
Ġni etorP
se telhta
Ġsna itpygE
Ġsega reveb
Ġsy ortsed
secna tsni
Ġit te
loohc serp
B H
na G
Ġde nut
pa S
Ġret pocileh
Ġevit pac
Ġseiti roirp
Ġseu c
sci hte
yek co
noisnet repyh
Ġdedarg pu
muht sop
Ġe loC
no rts
dne K
snoit celloc
Ġereh da
semit emos
Ġsniat er
à ¦
gni ward
te j
Ġnoit uac
tna veler
Ġmu mitpo
man ruoT
Ġsni p
py rC
Ġscit iloP
ly D
ku Y
Ġlia j
Ġsise nego
] )
o talP
no x
Ġre noos
Ġdeta tilicaf
Ġsrot caF
Ġlatne mirepxE
Ġderuo p
Ġedut ital
B N
h eT
o ciR
s wolf
Ġy g
de yolpme
noit segid
Ġsuo niatnuom
Ġsnoita tneserp
Ġi lo
00 00
Ġesi urc
k in
o ig
Ġe noc
re cnaC
Ġtne nim
Ġec remmoC
Ġst od
Ġseiceps bus
rets A
eti b
evit u
Ġsria ts
bba c
gni gami
se dulcni
Ġne tsiL
Ġeni rolhc
Ġdnuo rrus
ua G
Ġyle sool
Ġrot cudnocimes
nne tna
Ġgnib rosba
Ġsuoici led
Ġtceps orp
ce M
lu H
in mo
st nirp
ev reser
ĠAI C
Ġlatineg noc
Ġnox iN
y uG
no lybaB
Ġgni maerts
Ġse ussI
sa L
ret faereht
Ġle hciM
stne dutS
Ġnioc tiB
noila ttaB
2 581
Ġo yrbme
ti uG
co id
Ġeb odA
gna Y
Ġeni P
Ġsnoit uacerp
Ġkca ns
Ġgnire wsna
Ġka el
Ġdeni gami
Ġyk liM
kni p
s dniw
s lipup
Ġgni tsaf
ci rt
ma rt
Ġyl revo
de ilp
Ġgnit erpretni
Ġlanoita puccO
man y
Ġlacit cat
ai nemrA
pihs renwo
Ġsy ellav
ror rim
Ġcil rag
ra los
Ġde hcaoc
gni yalp
ci dnah
Ġsi sor
Ġsre dart
eta rtS
Ġgniy lppus
not pma
yro ehT
Ġseo tiuqsom
Ġs yo
ro jaM
Ġev orppa
Ġpu tes
sy hpatem
Ġsp il
Ġu h
Ġgniniat rep
snia hc
Ġseota top
a fa
er neg
gni ts
se im
Ġna p
Ġnoit cud
Ġtso C
pma l
ega kcap
ned iw
dep rot
sevita nretla
Ġyer ffeJ
Ã ĸ
Ġs hgiew
bo L
Ġsu lu
yti libom
retca bo
Ġu iL
Ġtre ssa
Ġdetne lat
Ġdednuo b
Ġtnia lpmoc
l klof
Ġs loop
ne X
Ġy erG
ga l
gna S
ys rev
Ġle naP
sna moR
Ġtneme ticxe
Ġrot cA
Ġso yrbme
Ġskna B
Ġsuoro giv
Ġs nev
Ġno eL
le veR
sa llaD
Ġeta roballoc
up er
Ġsk car
ert xE
Ġet iteppa
za lg
kco tsevil
Ġnoitasi nagrO
OG N
Ġlanidu tignol
a ic
Ġ ug
Ġa lliV
Ġtne serP
lla P
Ġwo diw
hp elE
Ġsu iP
tnem ngissa
sre gnif
Ġda H
Ġ? "
Ġetats retnI
elc nu
Ġylgni sirprus
sso lg
ytiru ceS
seh oc
( "
3 581
re doM
Ġt purroc
Ġgni lloR
Ġsi a
Ġse tir
Ġne llE
Ġyl leb
Ġ2 0
Ġdra b
tim bus
Ġsta e
Ġyca retiL
y llo
Ġsa ciremA
yl tsaL
Ġdesa ib
Ġeva worcim
Ġseu lB
yca retil
tcu rf
e tem
n roH
Ġni tsuJ
ce les
Ġne katsim
Ġci sne
Ġyle vol
Ġyltne serp
Ġseil lA
Ġdla reG
ytne wT
W A
e eB
e sirprus
w R
x ulf
Ġy ebo
ta s
Ġno op
Ġst pecca
Ġeta repsed
hca lappA
Ġyllau tnevE
ie M
hne siE
Ġylevit cepser
Ġdetani ccav
dnep rep
t rahC
Ġre mmah
Ġm laP
Ġp mal
nia rts
eta locohc
yl tnacifingis
ets O
ici ffE
Ġthgir pu
Ġam mE
idra co
eruta retiL
snaici sum
du D
Ġecne c
rem usnoc
Ġtsi car
Ġtsi levon
Ġai nomma
hci d
ĠL LA
rets ec
Ġytilib is
seg de
seh sid
Ġnoisser ger
Ġeo hs
Ġysa E
Ġrim hsaK
Ġy uB
Ġo vo
le ym
Ġta F
Ġm saisuhtne
Ġsla col
ot yhp
noi ca
ylla nif
Ġcitsa lP
Ġorg eN
d nop
s robhgien
Ġs mad
ni A
se snes
Ġse narbmem
pa ns
Ġts nrE
Ġsnoita tpada
Ġsm rA
tam orhc
Ġlatne manro
Ġcino yrbme
Ġnoitati nas
sdro W
elu dom
Ġht i
noit cA
hp yt
Ġli cnep
ka H
repo oc
Ġdesi crexe
Ġsio Ã§narF
s P
u naD
la ma
Ġre gg
el totsirA
Ġek arb
Ġg ud
Ġlli ps
dni F
Ġdesop sid
seni lpicsid
isrev inU
ii i
Ġnwa D
Ġtsina ip
Ġt tel
ci C
ti art
Ġna idrauG
Ġk in
Ġhc teks
Ġdeta icerppa
Ġtna rbiv
Ġsei pucco
nom raH
Ġlle n
Ġlacit sitatS
bu B
ren nid
Ġegnahc retni
hpo xas
tnes ba
iuq a
Ġseitila mronba
Ġyllufe poh
b reh
ni R
Ġgni snecil
hc nul
hguo roht
ep moP
Ġeer ced
Ġngi la
eka tsim
Ġretirw neercs
Ġyk sir
ile F
Ġgnigg id
s neg
Ġe pa
Ġy riaf
Ġde srodne
Ġre giT
Ġse saesiD
Ġne b
Ġylla srevinu
Ġret ta
to lc
sre etnulov
00 9
Ġsev lav
Ġdnal troP
ylla bolg
ren nur
ĠT EN
sd uolc
Ġsb rubus
Ġgnika epS
73 81
4 481
z ih
Ġse not
il sdnal
de epS
Ġsre worg
Ġtse roop
ev ruS
ot nA
Ġsuoi roton
Ġgniga naM
Ġseda lb
Ġdeli evnu
Ġsretsa M
E CI
re niM
gni jieB
Ġa sa
Ġgni tsujda
Ġre roop
Ġla turb
Ġle unam
Ġeu lg
Ġria ffa
Ġdeif itar
Ġsehc uot
rets yM
Ġsb mil
tlus noC
ti gid
Ġk laW
Ġnoita gerges
dna lg
Ġlaci pot
rem mah
Ġnois reV
Ġdne tni
kci M
Ġyllaci doirep
msi car
gnik at
enoi P
Ġseso ohc
s doow
Ġde doolf
Ġtne utitsnoc
Ġnoita icnunorp
Ġecna tirehni
Ġsno il
yt rof
Ġlatne dicca
Ġspa rt
tov ip
Ġnward htiw
e mik
ni htiw
Ġo rp
Ġot te
ya diloh
Ġst xetnoc
Ġri ahC
Ġtse gid
Ġega ilof
bmu M
sla ci
Ġsria per
Ġelf ir
I G
ni sab
na pmi
ti we
Ġh sem
mad nuF
Ġnoitacif iceps
ima iM
Ġroda ssabmA
Ġao coc
many dom
5 481
B T
a mi
Ġe ner
re rp
Ġne wO
Ġel live
Ġya P
Ġyle uqinu
lav orppa
cid nI
Ġgnis ruN
tf ard
Ġdenia dro
Ġoni piliF
Ġgnicne ulfni
Ġgniri h
Ġepocs orcim
Ġlanoisser gnoc
9 481
u hcS
Ġe loP
Ġnoita nimret
Ġeso lC
Ġnaht aN
sni giro
Ġseru tnevdA
Ġlarutan repus
erihs pmaH
Ġgnikni rD
Ġyret top
Ġaht raM
Ġsrosse forp
p ps
to lla
Ġeru siel
Ġgniru dne
Ġsega mI
Ġsni g
Ġnot liM
Ġren rael
Ġselp pa
Ġsit ita
hpm ys
retso tset
h eR
Ġe hcna
Ġs yojne
Ġgni caR
si nuT
di cnI
uq iL
ssa H
hsi weJ
ka volsohcezC
ffo eG
pma co
Ġ6 0
ria C
Ġsp ih
ĠT AS
Ġdliub er
pmu rT
uga ra
esiw rehtO
Ġsuoici lam
re krow
re idlos
li giv
ret niap
02 2
Ġseit ilitu
kci ffart
oru e
Ġeruta inim
Ġei re
reg nuh
sma erd
r te
Ġna igroeG
Ġnoita cided
Ġnoit oM
ve gnol
Ġ6 981
rre ug
ene co
Ġsiso n
5 581
k eb
k wa
n Ã¶
t ruh
Ġgni docne
noita rgetni
Ġlaci suM
Ġseta rapes
reb mit
Ġnrob wen
Ġren nur
Ġseti learsI
noga rd
Ġyllanoit ome
setad idnac
ilb iB
Ġlapoc sipE
k cits
l yte
s namreG
Ã ĩ
Ġa hsi
ga S
Ġdeta u
Ġylla itinI
Ġret ov
Ġgnit cartta
yti rohtuA
Ġgnita ks
Ġtsi srep
sy ot
rednu hT
sim orP
yhpargo eg
ssor ca
sg ub
Ġo lli
Ġgni nid
ir neH
de la
Ġeta nobrac
Ġgnit timmoc
rol hC
Ġciv lep
Ġgni noitseuq
Ġeru tsop
Ġsuo nego
sre rutcafunam
yt rebil
Ġnois sec
dni h
ia w
Ġsecne refnoc
nevo C
Ġsrotca er
Ġsera tceh
i xa
ta laP
Ġse lissim
le nnahC
ma P
Ġnoita udarg
ec nirP
eg dir
Ġgnire wop
Ġyre uq
Ġs reveileb
na ib
Ġt rahC
Ġy motana
gni tupmoc
Ġgni ralced
Ġl luB
am O
sed nuB
im da
to lip
Ġsnoita rtsnomed
sed on
Ġsya diloh
ila ter
nac loV
ĠR ET
Ġag nam
Ġsw erc
Ġsgnideec orp
yles revnoC
F D
L O
m irp
re moS
Ġro v
noita vitom
Ġra llip
va G
Ġlaci rehps
erg eD
nar raw
Ġffo yalp
ĠK O
nae narretideM
Ġssene rawA
Ġaw attO
t lA
le ehW
ga H
tnem erusaem
pma d
Ġsel gniS
Ġet noM
ron s
Ġdec rovid
Ġyllacit si
Ġyrts erof
ara hP
Ġ iv
Ġo ciR
er itne
Ġgni lbmeser
rep er
Ġci motA
ut rats
reb mahC
Ġdnal tew
Ġlani drac
Ġyrati los
pp ord
ena tnops
pse fil
o eG
s tuc
Ġde hcraeser
Ġgni ussi
sa ef
Ġev lewT
Ġn nelG
Ġtsa erB
Ġstna iG
rru B
eka ns
h oc
o ti
p rahs
s deb
ht yM
Ġno remaC
Ġnoit cerroc
Ġtse hcir
eda hs
Ġyrot cudortni
Ġnoisu ffid
Ġdetrop xe
t ten
y erG
ne hctik
ro sseccus
Ġde rac
se illa
Ġl lub
gi mA
Ġts ylatac
Ġgnisu fer
snoit nevretni
Ġflo W
neme rof
o tuA
la rutluc
ti dua
ba rg
Ġst cartta
reta rf
Ġsro noh
Ġog uH
sev reser
git il
Ġsette ragic
gni lp
Ġa ssi
Ġek ahs
zi p
yti nummi
Ġgnin nuts
noitid noC
sac cO
der it
Ã¡ haB
Ġhtdiw dnab
C cM
Ġy loponom
Ġo de
de tsixe
Ġera pmoC
Ġnoita tcepxe
Ġts ylana
Ġecne f
Ġle uqes
Ġevit ciderp
e nu
k sid
y ram
y taert
gni drocer
Ġno otrac
Ġse nibrut
Ġla oC
de sserp
Ġeti sarap
Ġsla edi
ot yc
bu T
Ġgniy pucco
Ġtel lub
Ġthgin revo
na ttahnaM
Ġk nom
cu b
mu ira
Ġeno emoS
Ġkoo h
elp uoc
Ġstce laid
se rocs
yl dnoceS
nna cs
Ġlanoit cerid
trofmoc sid
Ġy van
la iciffo
co va
ar ta
ig nuf
rac sid
Ġ5 01
det cefni
tnalp snart
secna tsid
Ġyratne mailraP
ĠeÃ© n
Ġebol G
Ġy cuL
Ġse ot
me hT
noit nevnoc
rep pep
cu llah
Ġdeta dnam
in niW
reht ael
ev irD
Ġcit enik
Ġstna nimatnoc
ny d
Ġeuga elloc
thgir W
ssele moh
ugara ciN
W M
y vaeH
Ġel zz
Ġsre bmahc
zi W
sno rtcele
Ġei voM
Ġtel tuo
Ġdezila nosrep
ylsuo ires
emik iW
p el
y xalag
ht i
re wsnA
Ġsa i
Ġht f
Ġhci nuM
Ġte uq
Ġeni pla
Ġylt erces
Ġsehc tiws
Ġezi mitpo
Ġdez il
tf il
Ġtim muS
Ġleu giM
roda ucE
o boR
v ir
Ġgni dnatS
Ġni ser
or teM
Ġro hpatem
Ġgnit nu
Ġsei rotciv
ua lg
Ġdi pil
oc cabot
00 51
eta didnac
ici ffO
Ġto G
Ġwor ram
Ġga T
Ġsela T
v nI
Ġa erdnA
se og
Ġyti ed
st cilfnoc
51 81
luci ffiD
Ġgnir refsnart
rga rf
Ġnoitati vni
Ġgnizi laer
icif itra
sesne pxe
tame n
Ġtnasaelp nu
Ġd ic
Ġeta nigiro
Ġhci R
ec er
Ġelba liavA
Ġsnoita nod
sre tsis
yti ralupop
Ġpo leveD
pihs nezitic
tca tni
Ġseid isbus
esa rhp
raelc nu
Ġir neH
lleb pmaC
Ġrob rah
icneg reme
Ġsrega lliv
y rammus
Ġde eh
ruo bmexuL
Ġyra utcnas
rec co
ia C
snoit itepmoc
Ġdelle pmoc
Ġdekool revo
nosir P
raj uG
a itaorC
Ġe dnarG
Ġy tsa
Ġgni noitisop
Ġne vaeH
Ġsnoit pecnoc
Ġecna tsiseR
Ġnia gA
pec ni
Ġelt tuhs
Ġlacimehc oib
Ġyme reJ
Ġfa ed
Ġnoitam rifnoc
s llab
er w
Ġro htuA
ya G
Ġtnem tiurcer
Ġ9 981
Ġdega reva
hcru P
varg ga
Ġsnoitisop moc
Ġylevis sergorp
la dem
mu ts
Ġeta erua
nam reP
Ġyra retiL
Ġmu imerp
emit naem
Ġesi R
elba c
tap sid
sci syhP
sl riG
sya sse
Ġytilibi siv
Ġskci rb
yreteme C
i ced
Ġde valsne
Ġla hguM
Ġyti dommoc
Ġgnit ciderp
Ġsla eppa
Ġyllaci mehc
Ġdenia lpmoc
stna fni
Ġesop sid
Ġeil uJ
Ġnoitav las
detcepxe nu
Ġhce epS
o nummi
r teprep
Ġtne dnetni
de tucexe
Ġ) ?
Ġek ralC
lle f
Ġsnoit nevnoc
00 61
sy D
mma H
Ġgnim lif
Ġyc rem
Ġstlu dA
L FN
e varg
e cifircas
Â ®
Ġy niar
Ġa D
Ġgni niatsus
se gamI
le hc
Ġla tce
tne snoc
Ġtne rehoc
po ib
Ġri eh
Ġelba rud
Ġecna brutsid
Ġdeif irev
xo darap
Ġycne utitsnoc
Ġerac htlaeH
Ġgnip po
Ġlanosrep retni
06 3
Ġtni rP
D NA
e naJ
se sab
Ġro irraw
de tnemelpmi
Ġeti us
Ġdehsi nimid
nor ca
Ġpa rw
mma M
Ġelbi gnat
nik O
Ġdetimil nu
Ġreka epS
aino muenp
seitilib isnopser
b mot
o si
t raB
er up
Ġde ucser
Ġre ida
Ġci msies
Ġret rats
Ġsna reteV
rus ba
sni w
Ġstnem ides
Ġserut ciP
selo dA
8 21
l luB
m htyhr
en nA
Ġtse llat
suo R
Ġmsi aduJ
Ġdnuorg rednU
ez napmi
secne uqes
mom reht
ilp mexe
Ġih ci
Ġdeppa m
ssenk rad
Ġsrep eek
Ġsgnin raw
Ġynna D
Ġuada iloehR
nemerof a
W N
a ca
u ha
so g
go V
gi lid
Ġgnid nirg
Ġeda usrep
ĠE M
sts ep
Ġsem loH
Ġretsinim da
[...]
