{"<|pad|>":0,"<|bos|>":1,"<|eos|>":2,"<|unk|>":3,"!":4,"\"":5,"#":6,"$":7,"%":8,"&":9,"'":10,"(":11,")":12,"*":13,"+":14,",":15,"-":16,".":17,"/":18,"0":19,"1":20,"2":21,"3":22,"4":23,"5":24,"6":25,"7":26,"8":27,"9":28,":":29,";":30,"<":31,"=":32,">":33,"?":34,"@":35,"A":36,"B":37,"C":38,"D":39,"E":40,"F":41,"G":42,"H":43,"I":44,"J":45,"K":46,"L":47,"M":48,"N":49,"O":50,"P":51,"Q":52,"R":53,"S":54,"T":55,"U":56,"V":57,"W":58,"X":59,"Y":60,"Z":61,"[":62,"\\":63,"]":64,"^":65,"_":66,"`":67,"a":68,"b":69,"c":70,"d":71,"e":72,"f":73,"g":74,"h":75,"i":76,"j":77,"k":78,"l":79,"m":80,"n":81,"o":82,"p":83,"q":84,"r":85,"s":86,"t":87,"u":88,"v":89,"w":90,"x":91,"y":92,"z":93,"{":94,"|":95,"}":96,"~":97,"¡":98,"¢":99,"£":100,"¤":101,"¥":102,"¦":103,"§":104,"¨":105,"©":106,"ª":107,"«":108,"¬":109,"®":110,"¯":111,"°":112,"±":113,"²":114,"³":115,"´":116,"µ":117,"¶":118,"·":119,"¸":120,"¹":121,"º":122,"»":123,"¼":124,"½":125,"¾":126,"¿":127,"Â":128,"Ã":129,"Ä":130,"Å":131,"Æ":132,"Ç":133,"È":134,"É":135,"Ê":136,"Ë":137,"Ì":138,"Í":139,"Î":140,"Ï":141,"Ð":142,"Ñ":143,"Ò":144,"Ó":145,"Ô":146,"Õ":147,"Ö":148,"×":149,"Ø":150,"Ù":151,"Ú":152,"Û":153,"Ü":154,"Ý":155,"Þ":156,"ß":157,"à":158,"á":159,"â":160,"ã":161,"ä":162,"å":163,"æ":164,"ç":165,"è":166,"é":167,"ê":168,"ë":169,"ì":170,"í":171,"ï":172,"ð":173,"ĉ":174,"Ċ":175,"Ġ":176,"Ģ":177,"ģ":178,"Ĥ":179,"ĥ":180,"Ħ":181,"ħ":182,"Ĩ":183,"ĩ":184,"Ī":185,"ī":186,"Ĭ":187,"ĭ":188,"Į":189,"į":190,"İ":191,"ı":192,"Ĳ":193,"ĳ":194,"Ĵ":195,"ĵ":196,"Ķ":197,"ķ":198,"ĸ":199,"Ĺ":200,"ĺ":201,"Ļ":202,"ļ":203,"Ľ":204,"ľ":205,"Ŀ":206,"ŀ":207,"Ł":208,"ł":209,"Ń":210,"Ġe":211,"Ġs":212,"ht":213,"ni":214,"Ġd":215,"na":216,"re":217,"Ġt":218,"no":219,"Ġeht":220,"Ġ,":221,"ne":222,"ro":223,"Ġy":224,"ra":225,"it":226,"la":227,"Ġo":228,"er":229,"Ġf":230,"Ġ.":231,"Ġfo":232,"Ġde":233,"gni":234,"uo":235,"Ġdna":236,"Ġa":237,"ts":238,"Ġot":239,"Ġgni":240,"Ġni":241,"ta":242,"ci":243,"Ġre":244,"Ġno":245,"or":246,"se":247,"Ġsi":248,"Ġse":249,"le":250,"ti":251,"hc":252,"li":253,"Ġro":254,"Ġsa":255,"Ġla":256,"mo":257,"Ġta":258,"si":259,"Ġna":260,"ce":261,"ca":262,"ita":263,"lo":264,"sa":265,"hT":266,"ru":267,"Ġm":268,"Ġht":269,"wo":270,"el":271,"su":272,"Ġne":273,"ma":274,"id":275,"tne":276,"ri":277,"hw":278,"is":279,"Ġl":280,"Ġyl":281,"me":282,"Ġev":283,"Ġn":284,"ir":285,"nu":286,"Ġtaht":287,"ĠehT":288,"lp":289,"ba":290,"orp":291,"Ġrof":292,"iw":293,"da":294,"hg":295,"so":296,"il":297,"ga":298,"te":299,"Ġtne":300,"noc":301,"rev":302,"lu":303,"ah":304,"de":305,"Ġera":306,"Ġk":307,"eht":308,"xe":309,"po":310,"Ġhtiw":311,"us":312,"ruo":313,"moc":314,"ser":315,"Ġsaw":316,"ed":317,"pa":318,"rae":319,"rof":320,"noita":321,"Ġyb":322,"Ġnoita":323,"Ġ-":324,"hs":325,"nuo":326,"91":327,"Ġec":328,"rt":329,"Ġel":330,"Ġere":331,"co":332,"mi":333,"ret":334,"di":335,"Ġti":336,"Ġh":337,"Ġhc":338,"Ġeb":339,"am":340,"noit":341,"eb":342,"Ġmor":343,"oo":344,"es":345,"02":346,"Ġmorf":347,"rep":348,"uq":349,"on":350,"ff":351,"Ġnoit":352,"cit":353,"ya":354,"cu":355,"Ġst":356,"ub":357,"ps":358,"mu":359,"lc":360,"en":361,"Ġp":362,"Ġeta":363,"dna":364,"Ġci":365,"Ġsre":366,"rts":367,"Ġreht":368,"Ġ)":369,"rap":370,"rg":371,"Ġyti":372,"row":373,"Ġruo":374,"du":375,"et":376,"Ġri":377,"lla":378,"Ġwo":379,"Ġdl":380,"ve":381,"Ġw":382,"at":383,"em":384,"Ġtuo":385,"Ġevah":386,"Ġdet":387,"do":388,"Ġos":389,"Ġ:":390,"ih":391,"Ġton":392,"go":393,"Ġnac":394,"ar":395,"Ġhci":396,"Ġuo":397,"vo":398,"Ġek":399,"Ġlla":400,"Ġ\"":401,"Ġya":402,"Ġdeta":403,"Ġra":404,"ec":405,"Ġeno":406,"rop":407,"Ġylla":408,"Ġret":409,"Ġhcihw":410,"nam":411,"Ġsiht":412,"Ġg":413,"hguo":414,"Ġrieht":415,"va":416,"ĠnI":417,"ew":418,"ep":419,"Ġdluo":420,"to":421,"lb":422,"gna":423,"sse":424,"Ġuoy":425,"Ġ0":426,"Ġero":427,"gi":428,"dne":429,"ic":430,"tu":431,"Ġerew":432,"Ġeru":433,"Ġsih":434,"Ġsah":435,"sid":436,"iv":437,"Ġlli":438,"in":439,"cer":440,"Ġstne":441,"bo":442,"Ġtse":443,"Ġemo":444,"mit":445,"Ġyeht":446,"Ġts":447,"lev":448,"hp":449,"op":450,"hC":451,"Ġosla":452,"Ġeh":453,"Ġesu":454,"nia":455,"Ġte":456,"Ġsti":457,"pmoc":458,"ae":459,"Ġyra":460,"Ġtna":461,"Ġtnem":462,"ig":463,"Ġtso":464,"erc":465,"Ġsse":466,"Ġrehto":467,"nI":468,"ef":469,"cud":470,"Ġtub":471,"Ġega":472,"002":473,"ĠA":474,"erp":475,"Ġerom":476,"mrof":477,"Ġese":478,"red":479,"mmoc":480,"Ġlaci":481,"Ġeni":482,"ut":483,"revo":484,"tse":485,"lle":486,"Ġlliw":487,"Ġelba":488,"lf":489,"reht":490,"Ġema":491,"if":492,"ssa":493,"Ġelp":494,"Ġruoy":495,"serp":496,"Ġthg":497,"eh":498,"tnoc":499,"Ġecne":500,"ys":501,"tS":502,"ĠI":503,"Ġnwo":504,"res":505,"Ġgnik":506,"Ġ;":507,"itne":508,"Ġsuo":509,"rp":510,"Ġhguo":511,"ceb":512,"Ġsu":513,"Ġsd":514,"llo":515,"rif":516,"lli":517,"Ġgnit":518,"raey":519,"81":520,"Ġsei":521,"ĠsihT":522,"Ġred":523,"ĠtI":524,"nim":525,"hW":526,"Ġdnuo":527,"Ġohw":528,"fa":529,"Ġdah":530,"Ġle":531,"zi":532,"caf":533,"wt":534,"tnem":535,"bme":536,"rd":537,"retni":538,"neg":539,"gra":540,"Ġtuoba":541,"Ġes":542,"nk":543,"tsa":544,"ob":545,"nif":546,"hsi":547,"Ġgno":548,"rots":549,"ira":550,"rem":551,"Ġ,)":552,"Ġeso":553,"Ġneeb":554,"up":555,"Ġsnoita":556,"Ġdoo":557,"Ġsk":558,"ua":559,"Ġtsa":560,"Ġdi":561,"Ġew":562,"Ġdesu":563,"lA":564,"st":565,"reve":566,"fo":567,"golo":568,"Ġlai":569,"sna":570,"Ġtsu":571,"lcni":572,"sre":573,"Ġotni":574,"Ġtsom":575,"sed":576,"oc":577,"nA":578,"Ġsnoit":579,"cne":580,"102":581,"rb":582,"Ġnehw":583,"Ġnaht":584,"hca":585,"rac":586,"div":587,"Ġye":588,"yti":589,"Ġgnid":590,"Ġder":591,"ud":592,"roc":593,"Ġtsrif":594,"Ġ2":595,"Ġtce":596,"Ġyle":597,"pe":598,"teb":599,"sop":600,"lg":601,"Ġecna":602,"ceps":603,"tsi":604,"pi":605,"leh":606,"dulcni":607,"Ġyam":608,"lia":609,"Ġ5":610,"Ġ1":611,"Ġreta":612,"ces":613,"Ġevit":614,"loo":615,"Ġesa":616,"cna":617,"wa":618,"Ġdra":619,"Ġeti":620,"ffid":621,"Ġyna":622,"duts":623,"ram":624,"tta":625,"rut":626,"pu":627,"gno":628,"nuoc":629,"les":630,"ev":631,"Ġpu":632,"Ġylno":633,"Ġemos":634,"Ġhcus":635,"Ġsno":636,"Ġlanoita":637,"Ġsna":638,"Ġdluow":639,"lim":640,"erg":641,"Ġkca":642,"Ġed":643,"hgih":644,"Ġda":645,"Ġseta":646,"nom":647,"yt":648,"Ġeseht":649,"rht":650,"Ġma":651,"tnec":652,"Ġlle":653,"Ġi":654,"Ġelpo":655,"rA":656,"Ġeli":657,"Ġesua":658,"iti":659,"Ġcit":660,"Ġeci":661,"Ġ.)":662,"Ġynam":663,"ruc":664,"fe":665,"Ġsla":666,"ert":667,"sir":668,"ler":669,"Ġdev":670,"gne":671,"irc":672,"991":673,"Ġgnita":674,"its":675,"trop":676,"rot":677,"Ġli":678,"Ġrevo":679,"00":680,"om":681,"Ġowt":682,"Ġeda":683,"dra":684,"remA":685,"Ġgniru":686,"ciremA":687,"eN":688,"tir":689,"ka":690,"'t":691,"od":692,"eta":693,"yl":694,"cudorp":695,"ĠeH":696,"Ġdesa":697,"Ġemit":698,"Ġsya":699,"ced":700,"Ġelpoep":701,"eru":702,"Ġgnin":703,"Ġ3":704,"lihc":705,"tni":706,"Ġhsi":707,"nE":708,"rf":709,"Ġ4":710,"siv":711,"ffo":712,"Ġereht":713,"rus":714,"tna":715,"polev":716,"calp":717,"Ġwen":718,"ets":719,"Ġfi":720,"ib":721,"wor":722,"Ġsgni":723,"poleved":724,"emo":725,"reta":726,"as":727,"cif":728,"Ġeu":729,"im":730,"eni":731,"Ġnois":732,"Ġekil":733,"Ġeg":734,"era":735,"Ġgniv":736,"Ġdeti":737,"Ġx":738,"hcs":739,"pma":740,"tuo":741,"Ġneew":742,"Ġeer":743,"Ġmu":744,"loc":745,"Ġden":746,"lop":747,"bus":748,"noC":749,"reffid":750,"bmu":751,"htiw":752,"Ġtahw":753,"srev":754,"kca":755,"ila":756,"lbup":757,"Ġ6":758,"Ġretfa":759,"los":760,"Ġneewteb":761,"Ġ'":762,"Ġreh":763,"Ġevita":764,"pus":765,"Ġnet":766,"eR":767,"Ġsev":768,"Ġwoh":769,"Ġmeht":770,"Ġerehw":771,"nU":772,"gnahc":773,"Ġtsi":774,"sy":775,"curts":776,"Ġyt":777,"..":778,"suo":779,"vni":780,"ffe":781,"Ġod":782,"irp":783,"raM":784,"Ġkoo":785,"sne":786,"Ġelb":787,"ico":788,"gis":789,"hta":790,"irt":791,"moC":792,"col":793,"Ġhguorht":794,"ek":795,"Ġon":796,"ol":797,"pm":798,"elb":799,"irep":800,"Ġdne":801,"cs":802,"og":803,"rec":804,"Ġrebme":805,"ot":806,"orP":807,"dnuo":808,"uqer":809,"gral":810,"Ġyrev":811,"nois":812,"we":813,"Ġkrow":814,"Ġ7":815,"ug":816,"Ġnoi":817,"Ġnia":818,"cep":819,"niat":820,"uf":821,"liub":822,"rael":823,"leb":824,"ks":825,"ppa":826,"rednu":827,"Ġrev":828,"divorp":829,"01":830,"vom":831,"krow":832,"Ġralu":833,"hgi":834,"reneg":835,"Ġyaw":836,"ms":837,"Ġtneme":838,"laeh":839,"ref":840,"Ġneht":841,"riv":842,"itca":843,"Ġerof":844,"Ġdluoc":845,"Ġgnirud":846,"uA":847,"corp":848,"nalp":849,"bmun":850,"dnal":851,"srep":852,"sim":853,"llac":854,"rF":855,"lav":856,"mra":857,"dom":858,"noitid":859,"rats":860,"cej":861,"ger":862,"maf":863,"gro":864,"nil":865,"Ġgnieb":866,"Ġekam":867,"vres":868,"891":869,"gre":870,"Ġesuaceb":871,"Ġdlo":872,"ĠS":873,"ĠyehT":874,"Ġedam":875,"meht":876,"cA":877,"dni":878,"rob":879,"Ġ8":880,"ĠnaciremA":881,"llof":882,"ega":883,"yalp":884,"ĠfI":885,"Ġdluohs":886,"nrevo":887,"inU":888,"cele":889,"Ġmo":890,"Ġrae":891,"noi":892,"Ġrewo":893,"pop":894,"nuf":895,"Ġtu":896,"sei":897,"Ġsel":898,"isnoc":899,"pec":900,"al":901,"raP":902,"nop":903,"tropmi":904,"sae":905,"Ġyli":906,"muh":907,"ercni":908,"pac":909,"Ġlau":910,"daer":911,"Ġet":912,"ted":913,"mil":914,"Ġer":915,"um":916,"nwo":917,"liba":918,"pyt":919,"irav":920,"Ġsro":921,"pah":922,"Ġtrap":923,"luc":924,"loohcs":925,"Ġneve":926,"Ġyro":927,"yh":928,"uorg":929,"cca":930,"Ġhcae":931,"man":932,"yo":933,"Ġll":934,"Ġllew":935,"ur":936,"Ġtca":937,"Ġgnisu":938,"ron":939,"Ġecni":940,"reb":941,"sor":942,"ihs":943,"mets":944,"revewo":945,"emos":946,"ici":947,"Ġnwonk":948,"luser":949,"citrap":950,"tirw":951,"ria":952,"dnats":953,"snoita":954,"ĠroF":955,"eno":956,"raeser":957,"Ġerut":958,"ĠweN":959,"Ġ9":960,"tad":961,"Ġsts":962,"nev":963,"Ġnam":964,"nummoc":965,"erb":966,"nna":967,"doo":968,"Ġnev":969,"Ġlacit":970,"Ġgniwo":971,"cen":972,"Ġesoht":973,"Ġniat":974,"791":975,"dro":976,"Ġgniht":977,"stne":978,"Ġtnereffid":979,".)":980,"level":981,"snart":982,"Ġhtob":983,"ics":984,"Ġdellac":985,"cerid":986,"rdlihc":987,"Ġretaw":988,"Ġsraey":989,"hcet":990,"os":991,"niam":992,"reh":993,"Ġnre":994,"Ġ\",":995,"Ġseit":996,"geb":997,"sum":998,"eg":999,"iD":1000,"71":1001,"Ġdehsi":1002,"elpmoc":1003,"mrofni":1004,"ped":1005,"ecne":1006,"Ġelihw":1007,"Ġai":1008,"ĠsA":1009,"rotsih":1010,"Ġtrop":1011,"nO":1012,"Ġdnuof":1013,"ĠerehT":1014,"Ġtsuj":1015,"Ġ?":1016,"Ġsm":1017,"Ġemas":1018,"Ġpleh":1019,"luf":1020,"dis":1021,"kci":1022,"tan":1023,"Ġedis":1024,"Ġem":1025,"isop":1026,"iL":1027,"ffa":1028,"thg":1029,"Ġteg":1030,"Ġef":1031,"Ġerofeb":1032,"\".":1033,"irts":1034,"Ġyr":1035,"nac":1036,"Ġgnidulcni":1037,"roW":1038,"roN":1039,"oJ":1040,"Ġrot":1041,"eL":1042,"ĠC":1043,"Ġhca":1044,"orppa":1045,"Ġeerht":1046,"Ġhcum":1047,"Ġmrof":1048,"reves":1049,"Ġdno":1050,"Ġehs":1051,"Ġdel":1052,"nagro":1053,"niop":1054,"gised":1055,"Ġssa":1056,"bu":1057,"lif":1058,"Ġdnal":1059,"emit":1060,"ecna":1061,"gg":1062,"Ġssel":1063,"dob":1064,"Ġrep":1065,"nopser":1066,"loh":1067,"nrevog":1068,"nret":1069,"cita":1070,"ortnoc":1071,"Ġnetfo":1072,"ia":1073,"Ġeca":1074,"niaga":1075,"Ġhguoht":1076,"Ġtf":1077,"repo":1078,"nitnoc":1079,"Ġrednu":1080,"uqe":1081,"Ġluf":1082,"Ġylrae":1083,"Ġpo":1084,"Ġrebmun":1085,"Ġdeen":1086,"snoit":1087,"rahc":1088,"Ġsp":1089,"rgorp":1090,"Ġgniy":1091,"divid":1092,"691":1093,"pmi":1094,"Ġ%":1095,"Ġmets":1096,"Ġyllau":1097,"lgnE":1098,"ac":1099,"Ġtnatropmi":1100,"til":1101,"sab":1102,"Ġnai":1103,"Ġyltne":1104,"ĠdetinU":1105,"parg":1106,"ceffe":1107,"edi":1108,"sla":1109,"Ġdek":1110,"ĠeW":1111,"ruoc":1112,"ĠnehW":1113,"Ġym":1114,"51":1115,"rruc":1116,"Ġees":1117,"srevinU":1118,"metsys":1119,"oru":1120,"Ġekat":1121,"cni":1122,"elborp":1123,"ei":1124,"Ġdo":1125,"mono":1126,"tam":1127,"Ġyad":1128,"Ġwon":1129,"tem":1130,"Ġdesab":1131,"mow":1132,"61":1133,"Ġhtuo":1134,"dl":1135,"Ġswo":1136,"Ġpe":1137,"rub":1138,"dem":1139,"iceps":1140,"erG":1141,"dA":1142,"raw":1143,"Ġdnuora":1144,"ĠesehT":1145,"lloc":1146,"cilp":1147,"Ġser":1148,"ero":1149,"txe":1150,"csid":1151,"Ġdere":1152,"Ġto":1153,"Ġsega":1154,"ĠD":1155,"torp":1156,"tis":1157,"nod":1158,"itna":1159,"Ġpihs":1160,"sac":1161,"Ġste":1162,"Ġelt":1163,"luci":1164,"issop":1165,"Ġesi":1166,"hP":1167,"Ġseiti":1168,"noriv":1169,"hcS":1170,"xE":1171,"nem":1172,"Ġyte":1173,"Ġ000":1174,"ai":1175,"med":1176,"loC":1177,"art":1178,"irB":1179,"Ġhgih":1180,"dael":1181,"tneserp":1182,"ye":1183,"reG":1184,"ylla":1185,"Ġdae":1186,"ls":1187,"cude":1188,"gnis":1189,"Ġela":1190,"lupop":1191,"idem":1192,"za":1193,"Ġygolo":1194,"eler":1195,"cus":1196,"sni":1197,"inu":1198,"Ġsyaw":1199,"hS":1200,"Ġevis":1201,"Ġkcab":1202,"worg":1203,"deen":1204,"Ġenil":1205,"rutnec":1206,"ĠtuB":1207,"rup":1208,"491":1209,"orb":1210,"ĠnO":1211,"fni":1212,"sk":1213,"lpxe":1214,"giro":1215,"Ġytila":1216,"retca":1217,"iger":1218,"ulf":1219,"rO":1220,"Ġ,.":1221,"Ġtsniaga":1222,"gel":1223,"Ġthguo":1224,"Ġcif":1225,"yad":1226,"Ġstnem":1227,"lba":1228,"idnI":1229,"fA":1230,"hoJ":1231,"Ġtxe":1232,"pS":1233,"icos":1234,"dda":1235,"tro":1236,"revewoH":1237,"Ġ\".":1238,"Ġstneduts":1239,"nhcet":1240,"nar":1241,"ere":1242,"ĠtahW":1243,"Ġsemit":1244,"ugna":1245,"sser":1246,"met":1247,"Ġtes":1248,"Ġlit":1249,"Ġllits":1250,"Ġsek":1251,"Ġsser":1252,"trap":1253,"nep":1254,"vda":1255,"hsa":1256,"lov":1257,"nes":1258,"eH":1259,"Ġlaru":1260,"mus":1261,"eu":1262,"pihs":1263,"Ġdni":1264,"Ġseru":1265,"iec":1266,"Ġefil":1267,"Ġmetsys":1268,"Ġtsum":1269,"niht":1270,"ĠuoY":1271,"21":1272,"del":1273,"sgni":1274,"Ġnerdlihc":1275,"Ġecalp":1276,"lP":1277,"Ġsni":1278,"591":1279,"Ġemaceb":1280,"Ġdezi":1281,"dneped":1282,"Ġmih":1283,"illi":1284,"llec":1285,"Ġlaitne":1286,"Ġnoitce":1287,"Ġlareves":1288,"raeh":1289,"Ġdoog":1290,"Ġtro":1291,"Ġstna":1292,"htua":1293,"jam":1294,"leif":1295,"gnol":1296,"ussi":1297,"iW":1298,"Ġdid":1299,"Ġhs":1300,"tsu":1301,"num":1302,"civ":1303,"Ġtcej":1304,"Ġllams":1305,"lC":1306,"Ġnihtiw":1307,"Ġnoitamrofni":1308,"dnah":1309,"Ġrehte":1310,"Ġseod":1311,"Ġsec":1312,"ha":1313,"tsis":1314,"Ġytiliba":1315,"ie":1316,"maxe":1317,"Ġemoc":1318,"Ġlitnu":1319,"Ġraey":1320,"'re":1321,"Ġthgir":1322,"tsni":1323,"'d":1324,"lum":1325,"Ġdias":1326,"ip":1327,"seuq":1328,"cod":1329,"uoy":1330,"Ġeri":1331,"norivne":1332,"Ġcilbup":1333,"forp":1334,"iler":1335,"raC":1336,"Ġ&":1337,"rc":1338,"oruE":1339,"rehto":1340,"naC":1341,"irepxe":1342,"seR":1343,"sro":1344,"Ġlani":1345,"rG":1346,"Ġatad":1347,"taert":1348,"eD":1349,"seta":1350,"ilop":1351,"oj":1352,"Ġegral":1353,"ort":1354,"erP":1355,"Ġsesu":1356,"Ġyrau":1357,"Ġlaico":1358,"gnar":1359,"Ġtuohtiw":1360,"Ġlati":1361,"Ġetats":1362,"Ġeva":1363,"elc":1364,"ĠytisrevinU":1365,"dno":1366,"retam":1367,"tsid":1368,"Ġdedne":1369,"Ġnamuh":1370,"grene":1371,"mina":1372,"ĠoT":1373,"dividni":1374,"Ġdetce":1375,"Ġria":1376,"Ġhtlaeh":1377,"Ġlanoitan":1378,"Ġecnis":1379,"sA":1380,"Ġgnol":1381,"nosrep":1382,"Ġedi":1383,"iuqer":1384,"mot":1385,"cirts":1386,"yna":1387,"Ġyduts":1388,"Ġyrt":1389,"non":1390,"ugnal":1391,"Ġecud":1392,"41":1393,"Ġreve":1394,"ll":1395,"hcaet":1396,"Ġb":1397,"cart":1398,"ĠlanoitaN":1399,"monoce":1400,"ccus":1401,"bmem":1402,"sub":1403,"uts":1404,"Ġgnidroc":1405,"31":1406,"lB":1407,"arb":1408,"391":1409,"Ġez":1410,"Ġemoceb":1411,"saer":1412,"utits":1413,"Ġnot":1414,"htem":1415,"Ġkci":1416,"sI":1417,"Ġsci":1418,"Ġlare":1419,"Ġydob":1420,"Ġnwod":1421,"Ġdeif":1422,"cnuf":1423,"Ġredro":1424,"ren":1425,"redisnoc":1426,"tneC":1427,"illim":1428,"nuoC":1429,"tset":1430,"Ġdewo":1431,"neb":1432,"ircsed":1433,"kram":1434,"Ġnos":1435,"py":1436,"Ġyreve":1437,"ord":1438,"raeppa":1439,"ĠretfA":1440,"syhp":1441,"llew":1442,"mod":1443,"Ġniam":1444,"irb":1445,"itnedi":1446,"Ġwef":1447,"Ġsn":1448,"hparg":1449,"Ġmsi":1450,"tes":1451,"hci":1452,"orpmi":1453,"Ġ,\"":1454,"oof":1455,"ard":1456,"uoh":1457,"xo":1458,"Ġlatnem":1459,"ĠT":1460,"Ġnommoc":1461,"elba":1462,"iecer":1463,"efil":1464,"ĠE":1465,"Ġthgil":1466,"oob":1467,"Ġhcraeser":1468,"not":1469,"Ġ00":1470,"Ġsret":1471,"tso":1472,"rtcele":1473,"margorp":1474,"Ġhsit":1475,"Ġloohcs":1476,"Ġretal":1477,"Ġeman":1478,"Ġlanoit":1479,"rT":1480,"Ġog":1481,"Ġegnahc":1482,"Ġwonk":1483,"Ġthgim":1484,"elp":1485,"Ġgnire":1486,"Ġnoitid":1487,"Ġsecne":1488,"lana":1489,"ganam":1490,"elpma":1491,"Ġrewop":1492,"led":1493,"itap":1494,"hto":1495,"sraey":1496,"net":1497,"ruos":1498,"Ġrehtona":1499,"Ġedulcni":1500,"Ġdnoces":1501,"Ġgniwollof":1502,"htlaeh":1503,"lac":1504,"Ġssor":1505,"ruf":1506,"saem":1507,"saes":1508,"Ġyllaci":1509,"Ġso":1510,"eB":1511,"ssecorp":1512,"Ġlacigolo":1513,"yc":1514,"sev":1515,"ird":1516,"Ġeud":1517,"lovni":1518,"ĠenO":1519,"ereht":1520,"Ġyleta":1521,"Ġylev":1522,"ĠdnA":1523,"kco":1524,"Ġtseb":1525,"Ġdnif":1526,"yra":1527,"Ġsdra":1528,"Ġcita":1529,"Ġdlrow":1530,"Ġffo":1531,"rib":1532,"wop":1533,"unitnoc":1534,"aM":1535,"ĠdlroW":1536,"iduts":1537,"fles":1538,"taef":1539,"Ġnek":1540,"eew":1541,"cifin":1542,"eci":1543,"nirp":1544,"top":1545,"Ġaera":1546,"Ġnreht":1547,"sno":1548,"Ġsle":1549,"udni":1550,"sserp":1551,"rP":1552,"eS":1553,"lat":1554,"tap":1555,"Ġetu":1556,"rbe":1557,"Ġpuorg":1558,"eG":1559,"hcra":1560,"dlrow":1561,"mad":1562,"ĠemoS":1563,"Ġdoof":1564,"liava":1565,"Ġu":1566,"Ġ.\"":1567,"neG":1568,"Ġtaerg":1569,"ĠtA":1570,"ssap":1571,"elpmaxe":1572,"ov":1573,"yaw":1574,"Ã©":1575,"Ġsne":1576,"dlo":1577,"yS":1578,"uqes":1579,"roF":1580,"Ġtsal":1581,"nab":1582,"Ġruof":1583,"Ġfles":1584,"nihC":1585,"uS":1586,"eca":1587,"Ġnrob":1588,"weiv":1589,"irf":1590,"uJ":1591,"lah":1592,"Ġ01":1593,"lbatse":1594,"Ġlaicos":1595,"gam":1596,"suM":1597,"iB":1598,"Ġlacol":1599,"Ġren":1600,"sit":1601,"Ġtup":1602,"mih":1603,"Ġtnemnrevog":1604,"bal":1605,"Ġsrot":1606,"Ġgnoma":1607,"nib":1608,"ida":1609,"pme":1610,"vei":1611,"oN":1612,"Ġlanoitid":1613,"wen":1614,"cifingis":1615,"Ġsnaem":1616,"uos":1617,"ĠP":1618,"cirf":1619,"wonk":1620,"teg":1621,"raE":1622,"ruter":1623,"Ġedivorp":1624,"ceD":1625,"nuoy":1626,"sd":1627,"Ġyllausu":1628,"rah":1629,"Ġgnikam":1630,"ohc":1631,"nur":1632,"mag":1633,"niamer":1634,"ees":1635,"limis":1636,"noM":1637,"Ġygrene":1638,"ssalc":1639,"eM":1640,"ton":1641,"kil":1642,"msi":1643,"lib":1644,"solc":1645,"mA":1646,"Ġssen":1647,"ĠhsitirB":1648,"erut":1649,"icna":1650,"itneics":1651,"eporuE":1652,"Ġgnola":1653,"Ġdep":1654,"Ġwe":1655,"ĠnhoJ":1656,"Ġscit":1657,"tneme":1658,"icossa":1659,"Ġtnec":1660,"naJ":1661,"limaf":1662,"Ġylimaf":1663,"Ġtroppus":1664,"erts":1665,"uG":1666,"vit":1667,"ubir":1668,"rD":1669,"sol":1670,"naM":1671,"cirfA":1672,"Ġloo":1673,"Ġhta":1674,"elpo":1675,"rtnec":1676,"rtsi":1677,"Ġecaf":1678,"reP":1679,"poc":1680,"ralu":1681,"niatnoc":1682,"yolp":1683,"Ġru":1684,"tim":1685,"Ġnevig":1686,"tats":1687,"Ġdeb":1688,"roY":1689,"seit":1690,"sel":1691,"ool":1692,"reted":1693,"hcraeser":1694,"ĠehS":1695,"Ġnoitu":1696,"icep":1697,"dnu":1698,"Ġlo":1699,"tel":1700,"11":1701,"retaw":1702,"fed":1703,"Ġlan":1704,"291":1705,"lur":1706,"niart":1707,"cof":1708,"ric":1709,"mehc":1710,"Ġrojam":1711,"got":1712,"ten":1713,"Ġylt":1714,"Ġselp":1715,"wal":1716,"Ġthgi":1717,"Ġ02":1718,"cennoc":1719,"ĠR":1720,"oB":1721,"feneb":1722,"Ġesuac":1723,"Ġdei":1724,"niap":1725,"reS":1726,"cO":1727,"pxe":1728,"raH":1729,"gu":1730,"rucco":1731,"Ġeuq":1732,"Ġlarut":1733,"ĠL":1734,"Ġycne":1735,"Ġylba":1736,"det":1737,"Ġlatne":1738,"Ġemoh":1739,"nart":1740,"retcarahc":1741,"darg":1742,"Ġretteb":1743,"niM":1744,"Ġz":1745,"ingo":1746,"Ġssecorp":1747,"mia":1748,"riht":1749,"rtsuA":1750,"ĠhtuoS":1751,"nuoma":1752,"ĠwoH":1753,"II":1754,"Ġkoob":1755,"tsixe":1756,"Ġlortnoc":1757,"nifed":1758,"Ġdaer":1759,"cnac":1760,"ddi":1761,"ygolo":1762,"nuJ":1763,"kcab":1764,"nisub":1765,"yr":1766,"Ġtnempoleved":1767,"ĠV":1768,"ĠM":1769,"erof":1770,"Ġtniop":1771,"Ġepyt":1772,"loP":1773,"utca":1774,"fas":1775,"repxe":1776,"cS":1777,"Ġyalp":1778,"ĠhsilgnE":1779,"icS":1780,"deta":1781,"...":1782,"rab":1783,"verp":1784,"ggus":1785,"nos":1786,"Ġksir":1787,"Ġsuoirav":1788,"daeh":1789,"noisse":1790,"vitca":1791,"ilartsuA":1792,"Ġseci":1793,"Ġgnivah":1794,"Ġnoillim":1795,"ffus":1796,"reporp":1797,"ĠyB":1798,"saercni":1799,"Ġelbissop":1800,"cuder":1801,"roper":1802,"Ġsdne":1803,"tom":1804,"oC":1805,"Ġdemrof":1806,"Ġdoolb":1807,"Ġsnois":1808,"tua":1809,"Ġtneserp":1810,"ĠN":1811,"Ġllab":1812,"Ġka":1813,"ivah":1814,"Ġseni":1815,"Ġlarutan":1816,"citra":1817,"raB":1818,"irtnuoc":1819,"Ġnosrep":1820,"voN":1821,"ĠsiH":1822,"Ġtnaw":1823,"refer":1824,"ĠsetatS":1825,"Ġmaet":1826,"Ġdraw":1827,"itlum":1828,"nne":1829,"Ġnemow":1830,"iR":1831,"roC":1832,"Ġelttil":1833,"paJ":1834,"Ġeruta":1835,"curtsnoc":1836,"ĠnA":1837,"Ġytic":1838,"eer":1839,"Ġnageb":1840,"Ġtfel":1841,"sirhC":1842,"Ġweiv":1843,"carp":1844,"saesid":1845,"ĠelihW":1846,"nor":1847,"nepo":1848,"sseccus":1849,"dot":1850,"Ġdesop":1851,"wot":1852,"Ġstneme":1853,"ehT":1854,"Ġdnats":1855,"Ġnoitazi":1856,"let":1857,"Ġkoot":1858,"Ġtxen":1859,"bot":1860,"Ġyre":1861,"revoc":1862,"htnom":1863,"Ġsdi":1864,"Ġlevel":1865,"eW":1866,"Ġseiceps":1867,"Ġmret":1868,"tsop":1869,"roh":1870,"hpargo":1871,"Ġngi":1872,"Ġylekil":1873,"Ġyrots":1874,"tpe":1875,"gnik":1876,"Ġydaer":1877,"yreve":1878,"elpoep":1879,"Ġdetaler":1880,"ĠhtiW":1881,"Ġnoitca":1882,"cid":1883,"niw":1884,"Ġnem":1885,"Ġsta":1886,"fer":1887,"Ġdesi":1888,"las":1889,"siD":1890,"suR":1891,"mron":1892,"Ġpa":1893,"mix":1894,"eP":1895,"idar":1896,"Ġkool":1897,"ĠhtroN":1898,"Ġtnedis":1899,"deM":1900,"ruoser":1901,"af":1902,"Ġwohs":1903,"recnoc":1904,"Ġdlihc":1905,"icepse":1906,"pap":1907,"delwonk":1908,"Ġsthg":1909,"etS":1910,"pA":1911,"Ġylsuo":1912,"Ġwor":1913,"Ġgnidnats":1914,"Ġoot":1915,"ceS":1916,"Ġyf":1917,"ulfni":1918,"Ġssorca":1919,"milc":1920,"Ġrota":1921,"Ġevo":1922,"luciffid":1923,"Ġ!":1924,"52":1925,"pot":1926,"Ġerac":1927,"Ġyllaicepse":1928,"iH":1929,"sm":1930,"Ġgnikrow":1931,"Ġkco":1932,"nerF":1933,"yts":1934,"Ġkniht":1935,"Ġdec":1936,"eps":1937,"tuf":1938,"Ġevif":1939,"Ġdro":1940,"ner":1941,"car":1942,"Ġevig":1943,"tsil":1944,"repmet":1945,"ivaheb":1946,"thgil":1947,"moR":1948,"Ġnoisi":1949,"Ġsyawla":1950,"ciM":1951,"hpo":1952,"lF":1953,"upmoc":1954,"Ġsehc":1955,"Ġelbaliava":1956,"ĠyaM":1957,"Ġnoitisop":1958,"rapmoc":1959,"ssecen":1960,"Ġesae":1961,"tpeS":1962,"itini":1963,"Ġreven":1964,"bah":1965,"Ġdehsilbup":1966,"rpA":1967,"dnuof":1968,"ortni":1969,"Ġnoitalupop":1970,"Ġemac":1971,"Ġeerf":1972,"laer":1973,"tot":1974,"tseretni":1975,"ĠllA":1976,"geta":1977,"Ġdehc":1978,"Ġralimis":1979,"SU":1980,"Ġpeek":1981,"yolpme":1982,"rom":1983,"ws":1984,"seiti":1985,"Ġetaerc":1986,"cidni":1987,"Ġniatrec":1988,"yas":1989,"Ġezi":1990,"bA":1991,"rahC":1992,"ym":1993,"cilbup":1994,"Ġrebmem":1995,"cilppa":1996,"uQ":1997,"Ġyrotsih":1998,"igiler":1999,"Ġsgniht":2000,"pmys":2001,"sec":2002,"Ġtliub":2003,"Ġetis":2004,"Ġhcrae":2005,"cor":2006,"ĠO":2007,"Ġtsael":2008,"Ġcificeps":2009,"dive":2010,"Ġelor":2011,"03":2012,"Ġgninrael":2013,"Ġelgnis":2014,"irP":2015,"sucsid":2016,"Ġslli":2017,"ceR":2018,"iretam":2019,"Ġsaera":2020,"Ġdael":2021,"dias":2022,"botcO":2023,"Ġgnidne":2024,"Ġtnerruc":2025,"Ġesaercni":2026,"liv":2027,"naem":2028,"xa":2029,"hte":2030,"ĠhcraM":2031,"Ġsecna":2032,"Ġeka":2033,"moceb":2034,"sti":2035,"ivitca":2036,"Ġgnip":2037,"ssen":2038,"Ġseno":2039,"Ġesac":2040,"gif":2041,"Ġraen":2042,"gnella":2043,"Ġgniog":2044,"dE":2045,"Ġseires":2046,"gol":2047,"Ġderedisnoc":2048,"iro":2049,"Ġytiro":2050,"orts":2051,"cejorp":2052,"raW":2053,"Ġgnidliub":2054,"pirc":2055,"Ġgnihtemos":2056,"Ġdleif":2057,"picitrap":2058,"Ġtluser":2059,"sp":2060,"Ġsnoi":2061,"Ġdetaerc":2062,"noitu":2063,"cejbo":2064,"22":2065,"ĠgniruD":2066,"yro":2067,"Ġdepoleved":2068,"eT":2069,"Ġnekat":2070,"cim":2071,"Ġevil":2072,"Ġwol":2073,"nuocca":2074,"Ġyrati":2075,"ĠynaM":2076,"Ġstsi":2077,"lE":2078,"Ġdeyalp":2079,"Ġ*":2080,"Ġdrow":2081,"Ġyel":2082,"rw":2083,"ĠyraunaJ":2084,"Ġgnis":2085,"Ġtpec":2086,"hguorht":2087,"Ġsekam":2088,"mma":2089,"gid":2090,"ned":2091,"der":2092,"Ġdevres":2093,"Ġyek":2094,"Ġdleh":2095,"Ġnees":2096,"rahs":2097,"Ġelo":2098,"12":2099,"reva":2100,"Ġlacitilop":2101,"love":2102,"erac":2103,"091":2104,"mis":2105,"Ġseu":2106,"revewoh":2107,"Ġrehgih":2108,"yrt":2109,"meda":2110,"Ġremrof":2111,"Ġsemoc":2112,"ĠenuJ":2113,"ciffo":2114,"Ġgnuoy":2115,"ubirtnoc":2116,"cilop":2117,"sci":2118,"ĠraW":2119,"tA":2120,"liaf":2121,"tneserper":2122,"ĠF":2123,"Ġdeir":2124,"Ġevei":2125,"Ġevom":2126,"seD":2127,"itsirhC":2128,"Ġsrebmem":2129,"vart":2130,"laeH":2131,"Ġdesaeler":2132,"roppus":2133,"Ġrehtruf":2134,"uqerf":2135,"boR":2136,"oR":2137,"Ġtnemtaert":2138,"Ġdeman":2139,"Ġpot":2140,"iverp":2141,"nwod":2142,"grahc":2143,"Ġrehtehw":2144,"stnem":2145,"itra":2146,"Ġrehtie":2147,"Ġnoisiv":2148,"moh":2149,"cre":2150,"Ġnrael":2151,"nretnI":2152,"Ġedo":2153,"oM":2154,"Ġskrow":2155,"nioj":2156,"Ġrehtar":2157,"revocsid":2158,"ĠhcnerF":2159,"ĠyluJ":2160,"sega":2161,"sirp":2162,"kna":2163,"Ġei":2164,"Ġdega":2165,"rewop":2166,"wol":2167,"ĠlirpA":2168,"napmoc":2169,"taht":2170,"Ġegaugnal":2171,"Ġtra":2172,"ĠrebmetpeS":2173,"udividni":2174,"hgiH":2175,"xes":2176,"Ġdevom":2177,"Ġlareneg":2178,"rets":2179,"ĠnamreG":2180,"ĠtsoM":2181,"esu":2182,"Ġlanigiro":2183,"Ġ03":2184,"Ġdecalp":2185,"Ġgniti":2186,"guA":2187,"aeps":2188,"cudortni":2189,"rapes":2190,"weJ":2191,"ubla":2192,"ĠrebotcO":2193,"utis":2194,"nibmoc":2195,"cudnoc":2196,"Ġegnar":2197,"itep":2198,"Ġtnecrep":2199,"SA":2200,"ttes":2201,"Ġsdna":2202,"Ġsma":2203,"itse":2204,"etorp":2205,"ĠB":2206,"issuR":2207,"Ġnoitcudorp":2208,"Ġelc":2209,"Ġsegnahc":2210,"ĠetatS":2211,"illiW":2212,"retnI":2213,"ediv":2214,"Ġyhw":2215,"tits":2216,"toof":2217,"nerdlihc":2218,"Ġhcru":2219,"cidem":2220,"Ġ21":2221,"Ġlabo":2222,"citcarp":2223,"Ġdelli":2224,"nga":2225,"Ġdnuorg":2226,"Ġetal":2227,"vaD":2228,"tca":2229,"dohtem":2230,"ko":2231,"ela":2232,"cM":2233,"Ġsuoi":2234,"Ġyrutnec":2235,"roffe":2236,"gnellahc":2237,"Ġylralu":2238,"Ġtnuoma":2239,"yte":2240,"Ġdeid":2241,"pmac":2242,"Ġlacisyhp":2243,"yb":2244,"ssel":2245,"Ġdez":2246,"rips":2247,"mitse":2248,"som":2249,"ema":2250,"irtu":2251,"napaJ":2252,"cinummoc":2253,"rete":2254,"lis":2255,"Ġevitca":2256,"Ġtrats":2257,"motpmys":2258,"norf":2259,"tseW":2260,"pso":2261,"isnopser":2262,"Ġyas":2263,"vael":2264,"sylana":2265,"borp":2266,"ez":2267,"tser":2268,"05":2269,"Ġyawa":2270,"hcys":2271,"reB":2272,"ĠmorF":2273,"luda":2274,"namrof":2275,"Ġecno":2276,"ĠrebmeceD":2277,"Ġsnoitid":2278,"lab":2279,"Ġnopu":2280,"ruoh":2281,"redro":2282,"Ġnettirw":2283,"Ġraf":2284,"yrutnec":2285,"Ġydaerla":2286,"lec":2287,"nahc":2288,"Ġtsomla":2289,"32":2290,"Ġrem":2291,"rbeF":2292,"Ġyrtnuoc":2293,"reH":2294,"Ġsepyt":2295,"Ġrewol":2296,"Ġesuoh":2297,"ĠhguohtlA":2298,"Ġderu":2299,"Ġnoissim":2300,"Ġsyad":2301,"noitaler":2302,"tsir":2303,"mem":2304,"Ġrehtegot":2305,"gnin":2306,"Ġgnir":2307,"ĠgnidroccA":2308,"981":2309,"Ġyrota":2310,"Ġsme":2311,"rga":2312,"Ġdetaicossa":2313,"ĠtsuguA":2314,"roeG":2315,"tit":2316,"Ġlluf":2317,"Ġgnihc":2318,"Ġhguone":2319,"noisseforp":2320,"ĠoS":2321,"laW":2322,"ruj":2323,"eti":2324,"Ġslevel":2325,"mucod":2326,"fos":2327,"lesmeht":2328,"mialc":2329,"drocer":2330,"Ġevi":2331,"Ġnredom":2332,"ingocer":2333,"ĠrebmevoN":2334,"Ġgnidrocca":2335,"riF":2336,"tohp":2337,"reg":2338,"Ġdaeh":2339,"Ġtnalp":2340,"Ġtnacifingis":2341,"Ġgnivil":2342,"Ġesaesid":2343,"Ġytinummoc":2344,"rtsinim":2345,"llams":2346,"nap":2347,"Ġdedulcni":2348,"mI":2349,"ĠtahT":2350,"nys":2351,"Ġcimonoce":2352,"erged":2353,"mef":2354,"cip":2355,"ĠnaeporuE":2356,"Ġssecca":2357,"Ġ51":2358,"Ġdnatsrednu":2359,"retil":2360,"loiv":2361,"Ġstluser":2362,"Ġserut":2363,"rB":2364,"doirep":2365,"Ġmargorp":2366,"Ġdoirep":2367,"ehc":2368,"Ġsyas":2369,"ruT":2370,"uP":2371,"Ġsrehto":2372,"law":2373,"Ġtnew":2374,"Ġereh":2375,"Ġdio":2376,"Ġmlif":2377,"iV":2378,"wS":2379,"Ġtset":2380,"Ġlacidem":2381,"Ġcisum":2382,"Ġflah":2383,"Ġsema":2384,"Ġytilauq":2385,"Ġevoba":2386,"ea":2387,"vaeh":2388,"Ġlu":2389,"ny":2390,"Ġemag":2391,"OC":2392,"cepxe":2393,"Ġnepo":2394,"Ġdriht":2395,"roba":2396,"42":2397,"Ġtuohguorht":2398,"__":2399,"Ġsmrof":2400,"Ġwolla":2401,"tac":2402,"Ġstrap":2403,"pmetta":2404,"nutrop":2405,"liated":2406,"tocS":2407,"Ġdetacol":2408,"nigiro":2409,"Ġdecudorp":2410,"dnepedni":2411,"xel":2412,"rag":2413,"Ġyram":2414,"nai":2415,"ceip":2416,"Ġwal":2417,"Ġtol":2418,"Ġses":2419,"Ġlaudividni":2420,"Ġgnikat":2421,"virp":2422,"uqs":2423,"did":2424,"erht":2425,"taw":2426,"Ġyen":2427,"Ġeuga":2428,"orcim":2429,"Ġtonnac":2430,"Ġtraeh":2431,"Ġsemitemos":2432,"arc":2433,"6002":2434,"enil":2435,"Ġnrets":2436,"ruoj":2437,"lortnoc":2438,"ĠloohcS":2439,"Ġraw":2440,"ilaC":2441,"Ġsllec":2442,"lliv":2443,"ter":2444,"Ġepo":2445,"erom":2446,"fnoc":2447,"yrtnuoc":2448,"wT":2449,"eda":2450,"Ġetihw":2451,"uc":2452,"ercs":2453,"Ġ81":2454,"sita":2455,"Ġecneirepxe":2456,"ĠyraurbeF":2457,"Ġygolonhcet":2458,"Ġegel":2459,"Ġnoitacude":2460,"lppa":2461,"Ġkna":2462,"Ġyllaer":2463,"miT":2464,"Ġpoleved":2465,"Ġecuder":2466,"luger":2467,"Ġdengised":2468,"nut":2469,"ivrus":2470,"lG":2471,"namrofrep":2472,"liW":2473,"Ġralupop":2474,"Ġlatot":2475,"Ġgnil":2476,"Ġsdnuo":2477,"uoH":2478,"yle":2479,"setatS":2480,"Ġsdeen":2481,"Ġyca":2482,"lub":2483,"llab":2484,"Ġngised":2485,"Ġnoitacif":2486,"hcaer":2487,"rtnoc":2488,"won":2489,"Ġynapmoc":2490,"Ġsedulcni":2491,"Ġ05":2492,"Ġ]":2493,"ngi":2494,"wsna":2495,"tneve":2496,"Ġnow":2497,"Ġdetrats":2498,"icnirp":2499,"ste":2500,"uoS":2501,"mmocer":2502,"Ġnoitani":2503,"tf":2504,"enigne":2505,"Ġ...":2506,"Ġdesaercni":2507,"brac":2508,"boj":2509,"ydob":2510,"thgi":2511,"urf":2512,"Ġhtaed":2513,"Ġetar":2514,"puc":2515,"ros":2516,"Ġerus":2517,"oib":2518,"siht":2519,"nutroppo":2520,"Ġdeviecer":2521,"Ġylluf":2522,"els":2523,"vi":2524,"ĠkroY":2525,"Ġstceffe":2526,"Ġyllautca":2527,"881":2528,"tal":2529,"rua":2530,"inhcet":2531,"draw":2532,"netni":2533,"psnart":2534,"tseggus":2535,"rre":2536,"god":2537,"rohtua":2538,"Ġytilib":2539,"hcam":2540,"Ġediw":2541,"ili":2542,"Ġedu":2543,"681":2544,"hgua":2545,"Ġtre":2546,"Ġxis":2547,"itcarp":2548,"tob":2549,"ĠSU":2550,"ngis":2551,"niF":2552,"rgim":2553,"Ġsmelborp":2554,"Ġtrohs":2555,"Ġlaitnetop":2556,"rtsudni":2557,"rget":2558,"pahs":2559,"Ġlanoitanretni":2560,"Ġtel":2561,"Ġhguohtla":2562,"Ġdehsilbatse":2563,"Ġdesuac":2564,"Ġgnine":2565,"Ġecudorp":2566,"Ġsedivorp":2567,"dliub":2568,"Ġtcejorp":2569,"Ġseiduts":2570,"ene":2571,"seht":2572,"SI":2573,"inrof":2574,"Ġlaiceps":2575,"Ġecaps":2576,"ward":2577,"Ġseirtnuoc":2578,"Ġelddi":2579,"Ġenod":2580,"danaC":2581,"inrofilaC":2582,"pmis":2583,"Ġtcirts":2584,"Ġeltta":2585,"Ġsmetsys":2586,"Ġegdelwonk":2587,"Ġsdrow":2588,"Ġtib":2589,"Ġnwot":2590,".\"":2591,"Ġmelborp":2592,"Ġesrev":2593,"sle":2594,"ag":2595,"Ġniarb":2596,"yal":2597,"lihC":2598,"Ġecnedive":2599,"irtun":2600,"scit":2601,"uB":2602,"Ġthguoht":2603,"cehc":2604,"sret":2605,"Ġesruoc":2606,"Ġecivres":2607,"nrevoG":2608,"Ġlarede":2609,"Ġen":2610,"hsu":2611,"Ġeciv":2612,"unam":2613,"neppah":2614,"Ġerutuf":2615,"Ġyratilim":2616,"par":2617,"irtsid":2618,"Ġssalc":2619,"Ġksa":2620,"Ġesolc":2621,"ubirtsid":2622,"noitan":2623,"Ġsuore":2624,"noitidnoc":2625,"Ġnoisrev":2626,"licaf":2627,"zinagro":2628,"arB":2629,"Ġ91":2630,"Ġspuorg":2631,"Ġkcalb":2632,"Ġtsegral":2633,"Ġerutcurts":2634,"Ġsy":2635,"Ġtcaf":2636,"Ġgnorts":2637,"weN":2638,"Ġrete":2639,"veD":2640,"Ġeulav":2641,"Ġecruos":2642,"Ġdenia":2643,"Ġreg":2644,"elcu":2645,"snoc":2646,"Ġstnalp":2647,"orw":2648,"Ġswohs":2649,"Ġelohw":2650,"ĠdoG":2651,"veileb":2652,"esuoh":2653,"iled":2654,"ceB":2655,"Ġtnecer":2656,"nuom":2657,"cerroc":2658,"erga":2659,"uod":2660,"0102":2661,"erf":2662,"leB":2663,"Ġten":2664,"issa":2665,"Ġlufe":2666,"Ġleef":2667,"Ġtcapmi":2668,"Ġetamilc":2669,"crexe":2670,"ehs":2671,"Ġytiru":2672,"Ġnur":2673,"Ġtnemtrap":2674,"nigeb":2675,"ĠrehtO":2676,"Ġgnihsi":2677,"Ġelbat":2678,"iciffe":2679,"pareht":2680,"ĠlanoitanretnI":2681,"mas":2682,"bm":2683,"bew":2684,"7002":2685,"Ġlaer":2686,"repus":2687,"Ġsrota":2688,"Ġ=":2689,"ĠtseW":2690,"Ġhsa":2691,"ĠecniS":2692,"Ġdecne":2693,"noh":2694,"Ġdloh":2695,"netta":2696,"Ġdedivorp":2697,"ĠK":2698,"Ġgniga":2699,"ilrae":2700,"namreG":2701,"Ġlanif":2702,"Ġreb":2703,"Ġderiuqer":2704,"Ġtneverp":2705,"Ġelpmaxe":2706,"per":2707,"erd":2708,"Ġneg":2709,"Ġsde":2710,"Ġralucitrap":2711,"Ġseid":2712,"geR":2713,"Ġlabolg":2714,"Ġecrof":2715,"pp":2716,"Ġdetne":2717,"Ġrets":2718,"Ġstneitap":2719,"esa":2720,"nimreted":2721,"noiger":2722,"mirepxe":2723,"nosaes":2724,"Ġlanosrep":2725,"Ġssenisub":2726,"ertxe":2727,"uoc":2728,"ki":2729,"mraf":2730,"nit":2731,"Ġlio":2732,"cte":2733,"Ġtceffe":2734,"ngised":2735,"Ġenim":2736,"Ġsdnal":2737,"nahcem":2738,"04":2739,"noitce":2740,"Ġaedi":2741,"TA":2742,"Ġecneics":2743,"Ġgnite":2744,"trohs":2745,"ĠtnediserP":2746,"RA":2747,"liw":2748,"Ġhtgne":2749,"htaed":2750,"seru":2751,"gil":2752,"etats":2753,"Ġha":2754,"daor":2755,"Ġstce":2756,"ytila":2757,"lfer":2758,"grat":2759,"Ġevitceffe":2760,"gorp":2761,"Ġdnab":2762,"pur":2763,"seni":2764,"esaesid":2765,"arT":2766,"lom":2767,"secne":2768,"stna":2769,"8002":2770,"dirb":2771,"Ġani":2772,"oP":2773,"Ġcitsi":2774,"Ġnwohs":2775,"Ġylralucitrap":2776,"Ġrek":2777,"Ġhtworg":2778,"Ġded":2779,"Ġdedi":2780,"duj":2781,"tra":2782,"Ġmoor":2783,"Ġetip":2784,"emoh":2785,"noloc":2786,"roM":2787,"evit":2788,"vaf":2789,"Ġdecna":2790,"Ġep":2791,"Ġtsew":2792,"nus":2793,"rra":2794,"9002":2795,"781":2796,"Ġgnidnatsrednu":2797,"Ġsekat":2798,"Ġroi":2799,"62":2800,"esi":2801,"Ġ001":2802,"Ġllec":2803,"Ġfe":2804,"Ġniaga":2805,"Ġana":2806,"Ġlairetam":2807,"Ġsrehcraeser":2808,"Ġledom":2809,"Ġyllareneg":2810,"ruoC":2811,"cerp":2812,"tsisnoc":2813,"rrus":2814,"Ġcilo":2815,"Ġetutits":2816,"dutS":2817,"vol":2818,"Ġtroper":2819,"tib":2820,"Ġtser":2821,"laV":2822,"Ġyltna":2823,"paC":2824,"tsac":2825,"Ġdrah":2826,"Ġke":2827,"moor":2828,"Ġgnidael":2829,"Ġtsap":2830,"Ġthgiew":2831,"ĠgniK":2832,"eneg":2833,"mes":2834,"Ġseiro":2835,"rru":2836,"isA":2837,"tsbus":2838,"Ġregnol":2839,"rgetni":2840,"gen":2841,"72":2842,"icossA":2843,"Ġyteirav":2844,"retcab":2845,"nidro":2846,"lup":2847,"Ġecafrus":2848,"aera":2849,"salp":2850,"Ġtluciffid":2851,"raperp":2852,"1102":2853,"songa":2854,"tnemel":2855,"Ġdebircsed":2856,"ly":2857,"roproc":2858,"seno":2859,"gniK":2860,"Ġdes":2861,"rtS":2862,"Ġezis":2863,"kciuq":2864,"Ġelpmis":2865,"Ġrei":2866,"ppah":2867,"Ġesop":2868,"siM":2869,"oot":2870,"Ġtneduts":2871,"tsuc":2872,"yadot":2873,"ĠhtlaeH":2874,"idua":2875,"lua":2876,"Ġsnoitidnoc":2877,"Ġsnoitca":2878,"tub":2879,"ĠruoY":2880,"cafunam":2881,"ereh":2882,"Ã¡":2883,"cxe":2884,"Ġyhtlaeh":2885,"Ġevorpmi":2886,"2102":2887,"raelc":2888,"Ġsetats":2889,"Ġ11":2890,"Ġedistuo":2891,"lihP":2892,"tibah":2893,"lam":2894,"hcysp":2895,"icoS":2896,"iF":2897,"ksa":2898,"Ġsthgir":2899,"ral":2900,"Ġdetroper":2901,"retta":2902,"Ġlanoitidart":2903,"pets":2904,"suoh":2905,"Ġytivitca":2906,"diw":2907,"ses":2908,"uqca":2909,"rtsno":2910,"Ġgnide":2911,"loot":2912,"htaC":2913,"Ġetelpmoc":2914,"Ġtsil":2915,"Ġegareva":2916,"ge":2917,"Ġdengis":2918,"SE":2919,"kcu":2920,"nird":2921,"82":2922,"zil":2923,"Ġcir":2924,"ome":2925,"nummi":2926,"oga":2927,"ĠlareneG":2928,"Ġevisne":2929,"5002":2930,"cudE":2931,"naw":2932,"dnoces":2933,"Ġlar":2934,"llop":2935,"ĠnaidnI":2936,"Ġgnitirw":2937,"dnuorg":2938,"cih":2939,"Ġspihs":2940,"laP":2941,"timmoc":2942,"heb":2943,"Ġbu":2944,"ĠmailliW":2945,"Ġraelc":2946,"diser":2947,"uh":2948,"irra":2949,"laM":2950,"lihp":2951,"gnu":2952,"loH":2953,"Ġyrassecen":2954,"Ġnwor":2955,"xim":2956,"Ġretupmoc":2957,"Ġsmotpmys":2958,"Ġgnille":2959,"Ġdnik":2960,"NA":2961,"RE":2962,"Ġnab":2963,"itu":2964,"srehto":2965,"Ġsnia":2966,"Ġrecnac":2967,"ĠytiC":2968,"maC":2969,"Ġdevlovni":2970,"Ġretaerg":2971,"Ġdeunitnoc":2972,"Ġdedeen":2973,"Ġerutan":2974,"rad":2975,"Ġam":2976,"Ġssol":2977,"urt":2978,"noD":2979,"gnihsa":2980,"Ġnoisserp":2981,"Ġsuht":2982,"Ġylpmis":2983,"dim":2984,"pmoC":2985,"lati":2986,"lbuP":2987,"ruocne":2988,"taerg":2989,"sulc":2990,"Ġstcudorp":2991,"ĠG":2992,"ruB":2993,"Ġaiv":2994,"llaf":2995,"doof":2996,"ĠruO":2997,"Ġtsoc":2998,"drah":2999,"sus":3000,"Ġtsol":3001,"htgne":3002,"Ġetorw":3003,"Ġderi":3004,"gnos":3005,"csa":3006,"rtsnomed":3007,"Ġesohw":3008,"now":3009,"tsiser":3010,"Ġnosaes":3011,"nummoC":3012,"Ġgniniart":3013,"muH":3014,"tsaw":3015,"itsevni":3016,"edis":3017,"Ġdia":3018,"Ġlatnemnorivne":3019,"aw":3020,"Ġeritne":3021,"htap":3022,"Ġtnes":3023,"Ġ/":3024,"Ġgnilli":3025,"cixe":3026,"NI":3027,"nag":3028,"Ġnoitamrof":3029,"gitsevni":3030,"pecca":3031,"gnit":3032,"nopmoc":3033,"ica":3034,"Ġeveileb":3035,"0002":3036,"Ġtey":3037,"Ġgnidaer":3038,"Ġyramirp":3039,"tsus":3040,"Ġdliub":3041,"Ġecitcarp":3042,"ĠtsriF":3043,"Ġlagel":3044,"rota":3045,"Ġlamron":3046,"Ġylbaborp":3047,"Ġdohtem":3048,"Ġlav":3049,"Ġdero":3050,"nuonna":3051,"Ġerusserp":3052,"ecalp":3053,"remmoc":3054,"nig":3055,"oS":3056,"Ġyenom":3057,"Ġ52":3058,"mohT":3059,"Ġsucof":3060,"Ġthguorb":3061,"retal":3062,"tuor":3063,"ruof":3064,"bab":3065,"rtnecnoc":3066,"dniw":3067,"Ġsecivres":3068,"Ġseitivitca":3069,"Ġsevlesmeht":3070,"Ġcino":3071,"Ġecit":3072,"Ġnoitats":3073,"Ġlaic":3074,"ĠhcraeseR":3075,"aciremA":3076,"Ġretsa":3077,"ena":3078,"hcru":3079,"Ġelbi":3080,"Ġsra":3081,"riV":3082,"curtsni":3083,"hcti":3084,"nretla":3085,"seod":3086,"suoht":3087,"nuh":3088,"cixeM":3089,"itepmoc":3090,"idemmi":3091,"mE":3092,"sopmoc":3093,"zit":3094,"piuqe":3095,"Ġlaicna":3096,"noipma":3097,"gA":3098,"Ġgib":3099,"Ġlartnec":3100,"Ġsdrawot":3101,"murts":3102,"usnoc":3103,"Ġ41":3104,"Ġdrocer":3105,"Ġseussi":3106,"Ġylevita":3107,"gnihsaW":3108,"Ġllac":3109,"my":3110,"Ġmi":3111,"Ġsesuac":3112,"irtsudni":3113,"Ġsmret":3114,"cnuoC":3115,"ĠtaerG":3116,"Ġsesac":3117,"Ġnrut":3118,"Ġdekrow":3119,"gnad":3120,"dneirf":3121,"ku":3122,"irporppa":3123,"Ġseira":3124,"Ġnoitidda":3125,"Ġdrof":3126,"Ġcisab":3127,"ĠII":3128,"yrotsih":3129,"Ġnoiger":3130,"Ġrosse":3131,"Ġsetu":3132,"Ġgniworg":3133,"citilop":3134,"rauq":3135,"cived":3136,"sta":3137,"veihca":3138,"Ġtnemeganam":3139,"Ġnoitcnuf":3140,"Ġstca":3141,"Ġtseretni":3142,"elcun":3143,"raf":3144,"tI":3145,"tniop":3146,"cexe":3147,"Ġselba":3148,"nual":3149,"hguoht":3150,"Ġeunitnoc":3151,"tsom":3152,"songaid":3153,"tsirhC":3154,"Ġswolla":3155,"Ġstnerap":3156,"Ġlanoitidda":3157,"Ġylia":3158,"Ġoediv":3159,"ever":3160,"Ġwas":3161,"Ġspo":3162,"laS":3163,"Ġdem":3164,"ffO":3165,"mah":3166,"Ġevitisop":3167,"nal":3168,"Ġspleh":3169,"semit":3170,"yltne":3171,"pucco":3172,"gnoC":3173,"ĠtsaE":3174,"Ġgnitce":3175,"sorc":3176,"ula":3177,"Ġdeniat":3178,"Ġnoitnev":3179,"lpmoc":3180,"ĠesuaceB":3181,"Ġgnikool":3182,"Ġretsi":3183,"ssem":3184,"mun":3185,"niL":3186,"Ġdraob":3187,"Ġtsila":3188,"poda":3189,"nik":3190,"Ġsag":3191,"leef":3192,"Ġdaetsni":3193,"Ġyno":3194,"arsI":3195,"Ġtneicna":3196,"92":3197,"DI":3198,"3102":3199,"Ġxelpmoc":3200,"koob":3201,"Ġsemoceb":3202,"Ġredne":3203,"Ġesnes":3204,"levon":3205,"Ġrepap":3206,"rco":3207,"srot":3208,"nera":3209,"miS":3210,"Ġdaor":3211,"Ġhcaorppa":3212,"Ġerusne":3213,"Ġyltcerid":3214,"lfni":3215,"Ġelcitra":3216,"Ġregral":3217,"bed":3218,"hd":3219,"Ġene":3220,"Ġgninaem":3221,"Ġgnimoc":3222,"tin":3223,"rig":3224,"Ġ61":3225,"Ġgnipoleved":3226,"Ġtcerid":3227,"Ġgnitteg":3228,"seJ":3229,"uot":3230,"utitsni":3231,"soJ":3232,"iM":3233,"Ġsecruoser":3234,"nemow":3235,"ĠnamoR":3236,"napS":3237,"daorb":3238,"Ġskca":3239,"gib":3240,"Ġstniop":3241,"CA":3242,"ciderp":3243,"Ġhte":3244,"liM":3245,"loS":3246,"Ġhsif":3247,"Ġdewollof":3248,"Ġderapmoc":3249,"pada":3250,"ĠegroeG":3251,"rtsinimda":3252,"ĠsemaJ":3253,"cihev":3254,"ja":3255,"Ġdradnats":3256,"nimod":3257,"iG":3258,"Ġevag":3259,"tnavda":3260,"Ġsto":3261,"Ġdetimil":3262,"Ġnalp":3263,"lof":3264,"Ġsnoitseuq":3265,"idanaC":3266,"uD":3267,"tsevni":3268,"rujni":3269,"Ġdeg":3270,"noissim":3271,"neH":3272,"aew":3273,"ortsed":3274,"yd":3275,"onA":3276,"Ġsniatnoc":3277,"Ġshtnom":3278,"Ġyrot":3279,"doow":3280,"cov":3281,"tegev":3282,"Ġdedda":3283,"keew":3284,"ĠnaS":3285,"Ġylgni":3286,"Ġraluger":3287,"reJ":3288,"cepser":3289,"4002":3290,"hcrA":3291,"Ġgnidnuo":3292,"ugni":3293,"Ġdniheb":3294,"Ġwoleb":3295,"Ġhcir":3296,"yel":3297,"snes":3298,"ĠesenapaJ":3299,"Ġdenoit":3300,"Ġsuoigiler":3301,"'m":3302,"ssenisub":3303,"euQ":3304,"mati":3305,"Ġgniod":3306,"minim":3307,"Ġelyts":3308,"taL":3309,"Ġsenil":3310,"Ġseb":3311,"Ġetiuq":3312,"Ġelpitlum":3313,"velet":3314,"mac":3315,"tnemnorivne":3316,"doG":3317,"wollof":3318,"ĠsI":3319,"uoL":3320,"Ġkcal":3321,"oG":3322,"ertS":3323,"Ġtcetorp":3324,"wolf":3325,"gnA":3326,"ĠH":3327,"erC":3328,"Ġslaudividni":3329,"mmoC":3330,"hciR":3331,"Ġylhgih":3332,"Ġetavirp":3333,"ulav":3334,"Ġgnim":3335,"olf":3336,"lip":3337,"Ġlia":3338,"Ġmubla":3339,"Ġlanoisseforp":3340,"Ġylp":3341,"hceT":3342,"Ã¼":3343,"siced":3344,"Ġnoitces":3345,"Ġlacimehc":3346,"ĠnretseW":3347,"erehw":3348,"ĠesenihC":3349,"ĠnacirfA":3350,"Ġerahs":3351,"laC":3352,"icne":3353,"caM":3354,"Ġyltnerruc":3355,"Ġgninnigeb":3356,"Ġeriuqer":3357,"Ġsisylana":3358,"Ġslamina":3359,"ĠnevE":3360,"ĠU":3361,"Ġnaem":3362,"euq":3363,"ivo":3364,"cejbus":3365,"Ġenilno":3366,"Ġnobrac":3367,"cnu":3368,"ordyh":3369,"iS":3370,"ĠAN":3371,"ĠdivaD":3372,"Ġerif":3373,"tsissa":3374,"Ġ:)":3375,"laB":3376,"ssessa":3377,"orc":3378,"erehT":3379,"dev":3380,"Ġeurt":3381,"Ġnruter":3382,"frep":3383,"slli":3384,"Ġtcep":3385,"Ġyc":3386,"1002":3387,"thgir":3388,"Ġdnah":3389,"sime":3390,"ĠrehtonA":3391,"murtsni":3392,"Ġevol":3393,"wtfos":3394,"neB":3395,"Ġgna":3396,"Ġflesti":3397,"capac":3398,"Ġ31":3399,"seci":3400,"Ġgnivom":3401,"Ġevres":3402,"Ġstneve":3403,"Ġtae":3404,"eka":3405,"Ġsserp":3406,"Ġcifitneics":3407,"mom":3408,"erF":3409,"eman":3410,"roti":3411,"illib":3412,"ĠhgiH":3413,"dnuh":3414,"Ġysae":3415,"drag":3416,"Ġaes":3417,"Ġga":3418,"ĠtnemtrapeD":3419,"ĠoN":3420,"Ġedisni":3421,"ĠfO":3422,"Ġmod":3423,"noitamrofni":3424,"Ġniks":3425,"kroY":3426,"Ġnoos":3427,"Ġsloohcs":3428,"Ġdoow":3429,"Ġdene":3430,"Ġsuoiverp":3431,"hgien":3432,"nimirc":3433,"tnev":3434,"cilf":3435,"iciffo":3436,"teba":3437,"Ġylraen":3438,"terp":3439,"Ġsedi":3440,"Ġdiova":3441,"Ġdewolla":3442,"Ġsuomaf":3443,"Ġyllacipyt":3444,"Ġtog":3445,"tomorp":3446,"rocs":3447,"noisiv":3448,"2002":3449,"bmys":3450,"vas":3451,"Ġsrotcaf":3452,"pecnoc":3453,"veR":3454,"Ġserutaef":3455,"Ġnoitseuq":3456,"Ġtekram":3457,"uL":3458,"Ġtnorf":3459,"owt":3460,"neS":3461,"Ġnoitcurtsnoc":3462,"Ġr":3463,"erT":3464,"yek":3465,"4102":3466,"ylana":3467,"Ġerutarepmet":3468,"rbelec":3469,"CI":3470,"talp":3471,"nseod":3472,"Ġlaut":3473,"ussit":3474,"tihcra":3475,"lucirga":3476,"CB":3477,"musnoc":3478,"revnoc":3479,"mixorppa":3480,"Ġesnopser":3481,"tsap":3482,"zitic":3483,"hcrup":3484,"raeL":3485,"ruot":3486,"Ġsecrof":3487,"rucca":3488,"Ġslairetam":3489,"Ġnaira":3490,"Ġtaeh":3491,"0991":3492,"kS":3493,"Ġena":3494,"Ġsniamer":3495,"Ġ04":3496,"tsnoc":3497,"ulave":3498,"Ġslliks":3499,"Ġenimreted":3500,"sdi":3501,"lef":3502,"gE":3503,"sam":3504,"Ġenoemos":3505,"Ġtcatnoc":3506,"Ġaidem":3507,"yaM":3508,"Ġlaicnanif":3509,"tirB":3510,"Ġeussi":3511,"Ġgnirb":3512,"ylimaf":3513,"Ġsruoh":3514,"Ġlaitnesse":3515,"bO":3516,"3002":3517,"Ġraeppa":3518,"Ġderaeppa":3519,"nuS":3520,"sts":3521,"Ġsevita":3522,"leR":3523,"sipe":3524,"ilc":3525,"vorp":3526,"Ġdezila":3527,"Ġmia":3528,"nilc":3529,"solihp":3530,"Ġskoob":3531,"Ġevitce":3532,"reV":3533,"nemo":3534,"ĠeroM":3535,"DA":3536,"ĠnaitsirhC":3537,"utS":3538,"001":3539,"ng":3540,"rez":3541,"sopxe":3542,"stneduts":3543,"5102":3544,"Ġsrev":3545,"gnorts":3546,"Ġytisrev":3547,"Ġstsitneics":3548,"tsaE":3549,"Ġmui":3550,"von":3551,"decorp":3552,"Ġxe":3553,"Ġllaf":3554,"temo":3555,"rops":3556,"ccav":3557,"Ġtnemnorivne":3558,"motua":3559,"meD":3560,"rede":3561,"Ġlarutluc":3562,"Ġdegnahc":3563,"Ġsl":3564,"Ġia":3565,"Ġtcejbus":3566,"tsrif":3567,"cnitsid":3568,"Ġnosaer":3569,"yrots":3570,"Ġspah":3571,"motsuc":3572,"noitcnuf":3573,"Ġnae":3574,"Ġdlot":3575,"Ġgnos":3576,"Ġlacitirc":3577,"gniht":3578,"roP":3579,"hcaorppa":3580,"Ġref":3581,"ĠhcaE":3582,"egnahc":3583,"Ġhtron":3584,"Ġmah":3585,"ruS":3586,"lppus":3587,"yeb":3588,"Ġlamina":3589,"ycne":3590,"Ġthgin":3591,"Ġlios":3592,"simorp":3593,"etis":3594,"Ġtnemevom":3595,"Ġtuc":3596,"Ġrettam":3597,"Ġeto":3598,"Ġgniyalp":3599,"yap":3600,"udarg":3601,"ĠriehT":3602,"pO":3603,"ĠnailartsuA":3604,"Ġnoitati":3605,"hsif":3606,"08":3607,"ĠreviR":3608,"Ġama":3609,"Ġretca":3610,"06":3611,"Ġyar":3612,"doM":3613,"taM":3614,"ana":3615,"irg":3616,"Ġderut":3617,"ytic":3618,"ĠstI":3619,"peek":3620,"ĠredrO":3621,"htraE":3622,"Ġfei":3623,"nwot":3624,"Ġylisae":3625,"barA":3626,"eli":3627,"Ġneerg":3628,"Ġat":3629,"Ġyler":3630,"581":3631,"uM":3632,"ytiliba":3633,"Ġ71":3634,"doT":3635,"Ġredisnoc":3636,"Ġ42":3637,"lsnart":3638,"ĠtcA":3639,"sdra":3640,"lohoc":3641,"Ġlufsseccus":3642,"Ġyllautneve":3643,"ĠoD":3644,"Ġoga":3645,"aL":3646,"tnes":3647,"Ġseo":3648,"orf":3649,"Ġsdohtem":3650,"nevnoc":3651,"norhc":3652,"Ġsb":3653,"Ġ12":3654,"Ġnretsew":3655,"ahS":3656,"sma":3657,"gami":3658,"ÃŃ":3659,"Ġecnamrofrep":3660,"rtxe":3661,"leD":3662,"nima":3663,"bom":3664,"Ġdetniop":3665,"hguad":3666,"ytisrevinU":3667,"reti":3668,"Ġsmees":3669,"Ġniw":3670,"yoR":3671,"nhoJ":3672,"reT":3673,"Ġyliad":3674,"suj":3675,"medaca":3676,"ĠkcalB":3677,"luclac":3678,"evo":3679,"cilfnoc":3680,"Ġreyalp":3681,"Ġslle":3682,"Ġroop":3683,"Ġseinapmoc":3684,"nuoM":3685,"Ġwolle":3686,"Ġhcaer":3687,"Ġeuqinu":3688,"Ġsrebmun":3689,"Ġdedra":3690,"ĠecneicS":3691,"Ġtnetnoc":3692,"Ġsevig":3693,"gurd":3694,"celom":3695,"Ġsdro":3696,"ilatI":3697,"Ġwolf":3698,"Ġlaro":3699,"puS":3700,"iraM":3701,"irT":3702,"vresbo":3703,"Ġelbisnopser":3704,"ĠnaidanaC":3705,"Ġseil":3706,"sahp":3707,"rek":3708,"zne":3709,"tarepmet":3710,"ĠetutitsnI":3711,"lem":3712,"Ġecneulfni":3713,"reser":3714,"Ġpihsre":3715,"Ġworg":3716,"Ġnoitnetta":3717,"Ġegami":3718,"Ġylnommoc":3719,"Ġpots":3720,"ĠhsiweJ":3721,"Ġreffo":3722,"Ġtxet":3723,"Ġdeksa":3724,"Ġrohtua":3725,"ĠesuoH":3726,"tnemelpmi":3727,"syad":3728,"Ġsrek":3729,"llaw":3730,"varg":3731,"Ġflesmih":3732,"sdnal":3733,"utitsnoc":3734,"rtsu":3735,"reserp":3736,"getac":3737,"Ġsmargorp":3738,"htrae":3739,"Ġhtuos":3740,"Ġdevil":3741,"kcatta":3742,"aC":3743,"cric":3744,"sdrow":3745,"Ġsren":3746,"Ġneves":3747,"Ġrehtaf":3748,"ecaf":3749,"Ġpets":3750,"saw":3751,"Ġdenruter":3752,"irF":3753,"ĠereH":3754,"orht":3755,"cnarF":3756,"Ġsnai":3757,"pygE":3758,"Ġmue":3759,"eZ":3760,"narb":3761,"6102":3762,"Ġtcudorp":3763,"Ġata":3764,"eK":3765,"Ġstifeneb":3766,"Ġdedrocer":3767,"Ġralos":3768,"Ġaid":3769,"tirret":3770,"Ġdenepo":3771,"psoh":3772,"yeht":3773,"Ġrevoc":3774,"Ġecnereffid":3775,"rolF":3776,"eriuqer":3777,"yC":3778,"Ġlaiciffo":3779,"ruoJ":3780,"atad":3781,"yduts":3782,"neht":3783,"Ġegamad":3784,"Ġare":3785,"Ġlaredef":3786,"teM":3787,"Ġsred":3788,"ĠhcruhC":3789,"leveD":3790,"Ġdaerps":3791,"ĠyM":3792,"Ġhsu":3793,"Ġyrtsudni":3794,"nav":3795,"Ġpihsnoitaler":3796,"Ġrag":3797,"Ġgu":3798,"seiceps":3799,"Ġeet":3800,"Ġgnivig":3801,"xeT":3802,"Ġff":3803,"loV":3804,"ĠegelloC":3805,"nosaer":3806,"forP":3807,"Ġdnim":3808,"rutcafunam":3809,"Ġsemag":3810,"TS":3811,"0891":3812,"hne":3813,"ĠkeerG":3814,"orB":3815,"Ġnoiti":3816,"Ġytiruces":3817,"ivoS":3818,"Ġdnuos":3819,"Ġelacs":3820,"Ġretcarahc":3821,"evita":3822,"Ġenots":3823,"Ġdednuof":3824,"Ġytefas":3825,"lusni":3826,"ruta":3827,"53":3828,"ciV":3829,"dnab":3830,"Ġroti":3831,"Ġgnisaercni":3832,"ĠelpoeP":3833,"kcap":3834,"Ġtneve":3835,"maS":3836,"Ġtsae":3837,"lap":3838,"Ġdemrofrep":3839,"seda":3840,"zz":3841,"Ġylevit":3842,"tcaf":3843,"tserof":3844,"soR":3845,"Ġdetcepxe":3846,"Ġgnitaerc":3847,"duB":3848,"Ġytirojam":3849,"nrettap":3850,"Ġetirw":3851,"nhceT":3852,"ĠretneC":3853,"Ġlatigid":3854,"Ġyltsom":3855,"Ġetad":3856,"Ġssam":3857,"Ġyadot":3858,"ihC":3859,"esruoc":3860,"Ġsevil":3861,"oms":3862,"Ġgnida":3863,"Ġdecrof":3864,"ĠtoN":3865,"Ġthgie":3866,"Ġnigeb":3867,"Ġsuoires":3868,"Ġkrowten":3869,"Ġerofereht":3870,"apmac":3871,"yleta":3872,"seirtnuoc":3873,"lsi":3874,"Ġylkciuq":3875,"Ġseti":3876,"ĠaciremA":3877,"Ġlua":3878,"Ġsrae":3879,"ĠecnO":3880,"Ġroloc":3881,"Ġyroeht":3882,"Ġecneref":3883,"llA":3884,"rehte":3885,"Ġdecudortni":3886,"Ġdellik":3887,"xet":3888,"481":3889,"taP":3890,"tnalp":3891,"Ġsecalp":3892,"Ġderevocsid":3893,"Ġredna":3894,"Ġrellams":3895,"tuc":3896,"noL":3897,"Ġtceffa":3898,"Ġllet":3899,"ĠselrahC":3900,"mulov":3901,"stneme":3902,"soprup":3903,"Ġseda":3904,"Ġsraeppa":3905,"Ġseriuqer":3906,"Ġseog":3907,"Ġsdoo":3908,"raen":3909,"Ġniap":3910,"loser":3911,"Ġdeeps":3912,"noitca":3913,"Ġegna":3914,"ns":3915,"pleh":3916,"Ġ22":3917,"Ġteem":3918,"Ġgniyf":3919,"ĠtreboR":3920,"pici":3921,"Ġeerged":3922,"noitidda":3923,"xat":3924,"Ġhcruhc":3925,"Ġyfitnedi":3926,"Ġdeveileb":3927,"Ġrel":3928,"dulc":3929,"7102":3930,"Ġlaog":3931,"ĠlartneC":3932,"Ġsaedi":3933,"liar":3934,"Ġnoisivelet":3935,"laci":3936,"getarts":3937,"lsI":3938,"rM":3939,"cil":3940,"aidnI":3941,"ĠowT":3942,"Ġgo":3943,"ĠyhW":3944,"Ġgnisi":3945,"melborp":3946,"ews":3947,"Ġretirw":3948,"Ġlacirotsih":3949,"Ġdenioj":3950,"Ġefas":3951,"ylev":3952,"Ġylb":3953,"tup":3954,"vresnoc":3955,"mota":3956,"elbissop":3957,"Ġtsehgih":3958,"naD":3959,"Ġgnihcaet":3960,"Ġniatnoc":3961,"ruoy":3962,"Ġdda":3963,"Ġdetnaw":3964,"daets":3965,"pmE":3966,"Ġdeirram":3967,"saB":3968,"cide":3969,"ĠnaissuR":3970,"isrev":3971,"Ġerutluc":3972,"Ġegats":3973,"63":3974,"efed":3975,"mehtam":3976,"Ġgnika":3977,"idlos":3978,"Ġyap":3979,"niatsus":3980,"saera":3981,"Ġnoitidnoc":3982,"aeT":3983,"lit":3984,"uorG":3985,"000":3986,"ani":3987,"Ġevitagen":3988,"Ġar":3989,"smelborp":3990,"ER":3991,"Ġycilop":3992,"aht":3993,"Ġgnimoceb":3994,"Ġgnidivorp":3995,"Ġgnila":3996,"uqesnoc":3997,"Ġstnemele":3998,"ĠY":3999,"Ġ;)":4000,"pargo":4001,"tum":4002,"mail":4003,"Ġgnizi":4004,"hgil":4005,"nis":4006,"ĠnoinU":4007,"rim":4008,"Ġrac":4009,"sen":4010,"tnempoleved":4011,"Ġetairporppa":4012,"ĠaidnI":4013,"Ġsecruos":4014,"Ġyletamixorppa":4015,"nimo":4016,"desu":4017,"ĠeugaeL":4018,"lohcs":4019,"dleif":4020,"Ġetarapes":4021,"pmyl":4022,"poleveD":4023,"Ġ6002":4024,"Ġretnec":4025,"uom":4026,"Ġesir":4027,"Ġllahs":4028,"telpmoc":4029,"Ġtnuocca":4030,"eper":4031,"nehp":4032,"tsev":4033,"ahciM":4034,"smetsys":4035,"AC":4036,"Ġdecnuonna":4037,"Ġrucco":4038,"lover":4039,"tno":4040,"Ġycneg":4041,"Ġgninnur":4042,"Ġesab":4043,"Ġwollof":4044,"Ġelamef":4045,"esac":4046,"puorg":4047,"soM":4048,"Ġdela":4049,"Ġkeew":4050,"Ġlatipac":4051,"Ġeltit":4052,"Ġegap":4053,"tsal":4054,"diug":4055,"Ġgnimrof":4056,"vaw":4057,"Ġdeni":4058,"Ġevael":4059,"raK":4060,"mertxe":4061,"vele":4062,"ĠlicnuoC":4063,"Ġderrefer":4064,"ĠCB":4065,"poh":4066,"medacA":4067,"Ġnrehtron":4068,"lei":4069,"hpsom":4070,"lik":4071,"idom":4072,"gnita":4073,"Ġ).":4074,"ttob":4075,"Ġkcart":4076,"selp":4077,"Ġeviecer":4078,"lohocla":4079,"uH":4080,"lufe":4081,"Ġsserdda":4082,"serut":4083,"pU":4084,"Ġdeniamer":4085,"roT":4086,"noitacude":4087,"giF":4088,"ceriD":4089,"xelA":4090,"ĠdnalgnE":4091,"Ġyllanigiro":4092,"Ġevitan":4093,"ĠyaD":4094,"ihxe":4095,"Ġyllaitne":4096,"ĠhsinapS":4097,"Ġylppus":4098,"Ġesaeler":4099,"Ġytrap":4100,"Ã³":4101,"loohcS":4102,"9991":4103,"Ġeert":4104,"gaM":4105,"tce":4106,"lau":4107,"isnes":4108,"Ġkaerb":4109,"Ġkcatta":4110,"leH":4111,"ttab":4112,"Ġdeirrac":4113,"\"(":4114,"Ã¶":4115,"kaerb":4116,"sinagro":4117,"Â°":4118,"icerp":4119,"eF":4120,"ix":4121,"Ġseuq":4122,"cificeps":4123,"serf":4124,"Ġnrehtuos":4125,"Ġdesserp":4126,"cas":4127,"ruF":4128,"0791":4129,"itua":4130,"dnalgnE":4131,"Ġtnednepedni":4132,"ĠytnuoC":4133,"Ġsesa":4134,"nid":4135,"rtsa":4136,"rofmoc":4137,"vaN":4138,"Ġdessap":4139,"Ġdediced":4140,"Ġgnitsixe":4141,"Ġsetis":4142,"thgin":4143,"Ġdewohs":4144,"Ġrehtom":4145,"IH":4146,"erif":4147,"syas":4148,"Ġniamer":4149,"Ġgnib":4150,"yH":4151,"derc":4152,"Ġgniyrt":4153,"Ġsreht":4154,"Ġredlo":4155,"xot":4156,"Ġelu":4157,"Ġderevoc":4158,"07":4159,"Ġgniyl":4160,"secna":4161,"ĠW":4162,"ĠX":4163,"laew":4164,"Ġdenifed":4165,"weiver":4166,"erB":4167,"09":4168,"syaw":4169,"rgorP":4170,"vic":4171,"ore":4172,"ĠVT":4173,"ylop":4174,"greme":4175,"Ġteef":4176,"33":4177,"egaugnal":4178,"Ġylevitaler":4179,"hgif":4180,"drof":4181,"caps":4182,"Ġyletelpmoc":4183,"Ġllarevo":4184,"Ġelddim":4185,"ĠsamohT":4186,"sE":4187,"Ġlufesu":4188,"rps":4189,"namuh":4190,"Ġnoitalu":4191,"Ġdlos":4192,"Ġyev":4193,"ĠhtraE":4194,"ĠluaP":4195,"ahs":4196,"Ġtnemel":4197,"lew":4198,"ĠeeS":4199,"iP":4200,"Ġ5002":4201,"roht":4202,"Ġdenrut":4203,"baL":4204,"adanaC":4205,"sserdda":4206,"Ġnietorp":4207,"edu":4208,"Ġ0002":4209,"tnemnrevog":4210,"ops":4211,"imS":4212,"ĠteivoS":4213,"igeR":4214,"Ġlaicremmoc":4215,"htron":4216,"retse":4217,"yhp":4218,"atta":4219,"fif":4220,"deec":4221,"nodnoL":4222,"Ġlaed":4223,"Ġyllacit":4224,"reme":4225,"jda":4226,"irram":4227,"Ġedart":4228,"her":4229,"mraw":4230,"ngerp":4231,"ww":4232,"mativ":4233,"pahc":4234,"Ġdettim":4235,"ĠanihC":4236,"MA":4237,"Ġerawtfos":4238,"Ġyrarop":4239,"Ġereves":4240,"Ġgnidra":4241,"Ġdetcele":4242,"gir":4243,"rolpxe":4244,"Ġ+":4245,"ĠlayoR":4246,"Ġdrawot":4247,"eerf":4248,"lcyc":4249,"retne":4250,"Ġsrehcaet":4251,"Ġsuoremun":4252,"anihC":4253,"Ġesne":4254,"Ġdnoyeb":4255,"Ġtpecnoc":4256,"Ġseg":4257,"retfa":4258,"Ġdeifitnedi":4259,"Ġdedna":4260,"Ġegalliv":4261,"dar":4262,"Ġnoitcelloc":4263,"rdlihC":4264,"Ġecnatropmi":4265,"xif":4266,"rtsulli":4267,"ese":4268,"Ġdema":4269,"Ġdehcaer":4270,"isnart":4271,"tnecrep":4272,"Ġeceip":4273,"ĠriA":4274,"noisserp":4275,"Ġsdoof":4276,"Ġrood":4277,"Ġkcor":4278,"snoi":4279,"Ġsdik":4280,"sserts":4281,"Ġgnitrats":4282,"Ġua":4283,"tebaid":4284,"luB":4285,"luo":4286,"sacco":4287,"roballoc":4288,"8102":4289,"noitisop":4290,"Ġtfarc":4291,"ytinummoc":4292,"Ġdetceffa":4293,"pacs":4294,"Ġnoitrop":4295,"Ġremmus":4296,"sesac":4297,"lrow":4298,"rosba":4299,"snoitidnoc":4300,"Ġsserts":4301,"llatsni":4302,"dir":4303,"Ġlufrewop":4304,"mixam":4305,"NU":4306,"ĠymrA":4307,"Ġsus":4308,"Ġnamow":4309,"naelc":4310,"dicni":4311,"Ġreilrae":4312,"celE":4313,"seid":4314,"ĠsnaciremA":4315,"Ġ005":4316,"Ġmohw":4317,"yxo":4318,"Ġylniam":4319,"Ġpeed":4320,"Ġstneserp":4321,"PA":4322,"Ġesiw":4323,"buS":4324,"meR":4325,"Ġecneserp":4326,"dnif":4327,"Ġtsac":4328,"ĠhtoB":4329,"rifnoc":4330,"ralced":4331,"raD":4332,"hpe":4333,"ĠyrotsiH":4334,"Ġenummi":4335,"rehtegot":4336,"Ġdetamitse":4337,"uqesbus":4338,"ama":4339,"Ġtisiv":4340,"van":4341,"gnE":4342,"lloC":4343,"Ġylsuoiverp":4344,"Ġevitu":4345,"dnim":4346,"Ġmees":4347,"Äģ":4348,"Ġelbati":4349,"Ġnor":4350,"Ġdecuder":4351,"8991":4352,"tlu":4353,"Ġrevir":4354,"stsi":4355,"tep":4356,"Ġyrd":4357,"reM":4358,"Ġtem":4359,"ĠyrneH":4360,"Ġeye":4361,"Ġkcehc":4362,"rip":4363,"Ġnabru":4364,"Ġgnitae":4365,"cartnoc":4366,"Ġngierof":4367,"nre":4368,"cideM":4369,"Ġtneitap":4370,"Ġstroffe":4371,"DC":4372,"sllec":4373,"revocer":4374,"roloc":4375,"Ġdetcennoc":4376,"Ġgurd":4377,"snarT":4378,"Ġsloot":4379,"cefni":4380,"Ġdepleh":4381,"pmylO":4382,"uj":4383,"Ġtneps":4384,"Ġsseccus":4385,"eeps":4386,"Ġ32":4387,"ĠnrehtroN":4388,"Ġdeilppa":4389,"tsaf":4390,"Ġniatniam":4391,"NE":4392,"fei":4393,"peed":4394,"mile":4395,"iciffus":4396,"lerI":4397,"Ġseka":4398,"Ġesoohc":4399,"teR":4400,"rC":4401,"Ġdesiar":4402,"ĠdeR":4403,"HT":4404,"73":4405,"hpa":4406,"Ġngis":4407,"ahC":4408,"Ġraelcun":4409,"Ġdednuo":4410,"lumis":4411,"ulos":4412,"sso":4413,"Ġdenwo":4414,"taN":4415,"recnac":4416,"erusaem":4417,"rutan":4418,"taerht":4419,"Ġseilimaf":4420,"hpsomta":4421,"wohs":4422,"Ġtnia":4423,"Ġselim":4424,").":4425,"cepS":4426,"tor":4427,"gga":4428,"Ġesoprup":4429,"eso":4430,"Ġned":4431,"iaf":4432,"Ġyteicos":4433,"elf":4434,"daM":4435,"ailartsuA":4436,"rbil":4437,"norivnE":4438,"Ġboj":4439,"Ġnoitacol":4440,"htuos":4441,"Ġyvaeh":4442,"Ġsreffo":4443,"83":4444,"dnoL":4445,"Ġreerac":4446,"muS":4447,"ĠeporuE":4448,"Ġyats":4449,"ruob":4450,"Ġrotcerid":4451,"Ġrewsna":4452,"uR":4453,"rebme":4454,"Ġan":4455,"Ġytinutroppo":4456,"ĠnailatI":4457,"yM":4458,"nnahc":4459,"Ġgnihton":4460,"Ġyltnecer":4461,"tsaoc":4462,"isse":4463,"Ġswen":4464,"Ġciteneg":4465,"cra":4466,"Ġskna":4467,"Ġylediw":4468,"Ġdab":4469,"ĠainrofilaC":4470,"ĠcilohtaC":4471,"LA":4472,"uqil":4473,"43":4474,"Ġlaunna":4475,"itnauq":4476,"ĠnodnoL":4477,"icsid":4478,"ndid":4479,"rum":4480,"ynamreG":4481,"Ġklat":4482,"cartta":4483,"Ġhcraes":4484,"cihC":4485,"Ġnosi":4486,"Ġdetroppus":4487,"ĠesU":4488,"Ġnoitcetorp":4489,"Ġ002":4490,"Ġytici":4491,"Ġerugif":4492,"Ġerusaem":4493,"Ġsevael":4494,"Ġ06":4495,"rE":4496,"Ġdetneserp":4497,"Ġtim":4498,"roprocni":4499,"pots":4500,"ĠnehT":4501,"yre":4502,"Ġselur":4503,"Ġsteg":4504,"olpxe":4505,"ĠnoitacudE":4506,"tek":4507,"sra":4508,"nruoj":4509,"ramirp":4510,"Ġdedivid":4511,"ĠdlO":4512,"Ġset":4513,"Ġhtgnel":4514,"niar":4515,"Ġspahrep":4516,"Ġseitinummoc":4517,"Ġerawa":4518,"Ġeciffo":4519,"ĠwoN":4520,"Ġtaert":4521,"9102":4522,"nutrof":4523,"gniS":4524,"Ġytreporp":4525,"Ġegrahc":4526,"Ġnoitacilppa":4527,"ĠtruoC":4528,"0691":4529,"Ġelam":4530,"ihsa":4531,"bmoc":4532,"7991":4533,"tsoh":4534,"liF":4535,"necs":4536,"Ġotno":4537,"Ġid":4538,"ĠleahciM":4539,"Ġnoitarepo":4540,"emag":4541,"rhT":4542,"Ġsela":4543,"sserP":4544,"roH":4545,"Ġsetar":4546,"woleb":4547,"picinum":4548,"nosirp":4549,"Ġnoisiced":4550,"Ġtifeneb":4551,"Ġca":4552,"hcrae":4553,"ĠkraP":4554,"issalc":4555,"roB":4556,"nepxe":4557,"Ġseig":4558,"Ġtnediserp":4559,"ik":4560,"Ġgniniat":4561,"Ġtinu":4562,"Ġsrekrow":4563,"Ġegdirb":4564,"elbat":4565,"rol":4566,"maH":4567,"Ġrevewo":4568,"sn":4569,"golonhcet":4570,"noitulove":4571,"Ġreporp":4572,"ĠAND":4573,"ĠnoitaicossA":4574,"sahpme":4575,"ehw":4576,"Ġgnitluser":4577,"Ġlanoitacude":4578,"deb":4579,"riB":4580,"Ġdetaert":4581,"Ġecnatsid":4582,"Ġseert":4583,"learsI":4584,"ainrofilaC":4585,"Ġgnihtyreve":4586,"Ġdetelpmoc":4587,"ilo":4588,"ussa":4589,"Ġnar":4590,"lloF":4591,"daol":4592,"Ġgnirae":4593,"latI":4594,"narg":4595,"emoS":4596,"Ġtpe":4597,"Ġgnisuac":4598,"Ġee":4599,"TI":4600,"nsi":4601,"letni":4602,"uoY":4603,"Ġnoillib":4604,"sned":4605,"teP":4606,"Ġsrucco":4607,"Ġ4002":4608,"hcna":4609,"deerf":4610,"Ġlivic":4611,"icsnoc":4612,"Ġedoc":4613,"Ġdecalper":4614,"Ġcirtcele":4615,"riA":4616,"doog":4617,"lot":4618,"ssA":4619,"acirfA":4620,"nob":4621,"Ġseman":4622,"teB":4623,"Ġgnikniht":4624,"Ġal":4625,"ecnarF":4626,"gge":4627,"ssi":4628,"cetihcra":4629,"nagrO":4630,"Ġsegami":4631,"xis":4632,"ihS":4633,"Ġtcirtsid":4634,"mugra":4635,"Ġleuf":4636,"mits":4637,"13":4638,"viC":4639,"lps":4640,"rebil":4641,"Ġdaol":4642,"Ġtid":4643,"ooB":4644,"yoj":4645,"yrev":4646,"elo":4647,"ĠsuseJ":4648,"mob":4649,"oh":4650,"Ġgnihtyna":4651,"niW":4652,"lag":4653,"noipmahC":4654,"Ġsisab":4655,"Ġsesi":4656,"ygrene":4657,"ue":4658,"Ġycna":4659,"cirtser":4660,"Ġselpmaxe":4661,"ooc":4662,"emoc":4663,"vonni":4664,"ilp":4665,"Ġseitic":4666,"ĠtseB":4667,"Ġsniat":4668,"Ġnoisu":4669,"Ġnoitulos":4670,"Ġswal":4671,"laG":4672,"gnarra":4673,"Ġseulav":4674,"Ġtsaf":4675,"Ġoidar":4676,"veler":4677,"tsoc":4678,"robhgien":4679,"6991":4680,"Ġ3002":4681,"dlihc":4682,"Ġsria":4683,"hsilgnE":4684,"RO":4685,"ytiC":4686,"Ġgnitset":4687,"icaP":4688,"Ġsyalp":4689,"ecaps":4690,"mrah":4691,"Ġecar":4692,"Ġsdnasuoht":4693,"ledom":4694,"Ġtruoc":4695,"neerg":4696,"robal":4697,"Ġlatem":4698,"Ġetsaw":4699,"erced":4700,"iter":4701,"ĠretsiniM":4702,"mitlu":4703,"noitalupop":4704,"Ġderref":4705,"cisum":4706,"Ġdesolc":4707,"Ġselu":4708,"Ġylemertxe":4709,"Ġdetcudnoc":4710,"neet":4711,"leS":4712,"cepsa":4713,"Ġlauqe":4714,"leM":4715,"nul":4716,"Ġnoitazinagro":4717,"elloc":4718,"Ġdemialc":4719,"Ġskeew":4720,"ĠetihW":4721,"cilpmoc":4722,"Ġllabtoof":4723,"kraP":4724,"ĠdroL":4725,"nimret":4726,"Ġroivaheb":4727,"Ġsli":4728,"itrap":4729,"Ġsnamuh":4730,"____":4731,"Ġ,'":4732,"Ġteid":4733,"rappa":4734,"atS":4735,"54":4736,"Ġsht":4737,"Ġyromem":4738,"5991":4739,"skrow":4740,"Ġhtrib":4741,"Ġelur":4742,"ĠdrahciR":4743,"nup":4744,"Ġgniwolla":4745,"Ġpeels":4746,"Ġhtrow":4747,"ĠKU":4748,"Ġesicrexe":4749,"Ġnoitareneg":4750,"namrep":4751,"yam":4752,"Ġsngis":4753,"noitazi":4754,"0202":4755,"Ġbulc":4756,"Ġsecnereffid":4757,"Ġkni":4758,"omorp":4759,"OR":4760,"tekram":4761,"rotsiH":4762,"Ġlaitini":4763,"Ġtpmetta":4764,"tepmoc":4765,"ke":4766,"luv":4767,"Ġdeya":4768,"Ġstset":4769,"ĠadanaC":4770,"Ġeton":4771,"niatrec":4772,"Ġredael":4773,"stnalp":4774,"pmusnoc":4775,"ĠlaicoS":4776,"mene":4777,"etarts":4778,"Ġtsop":4779,"Ġsed":4780,"Ġdetnioppa":4781,"ry":4782,"tirips":4783,"Ġdesoporp":4784,"nipo":4785,"oruen":4786,"Ġyliramirp":4787,"Ġtoh":4788,"iuq":4789,"looc":4790,"paps":4791,"deef":4792,"dliw":4793,"Ġlauxes":4794,"cirtsid":4795,"Ġseir":4796,"Ġecilop":4797,"teid":4798,"Ġyhpargo":4799,"EL":4800,"ĠetipseD":4801,"citirc":4802,"caxe":4803,"Ġsetunim":4804,"Ġemocni":4805,"Ġderet":4806,"bma":4807,"noitseuq":4808,"Ġmrofrep":4809,"Ġspa":4810,"ran":4811,"ĠtnemnrevoG":4812,"Ġygre":4813,"Ġytivit":4814,"coL":4815,"Ġdeton":4816,"Ġsit":4817,"SAN":4818,"legnA":4819,"Ġ|":4820,"cir":4821,"Ġylira":4822,"Ġdetsil":4823,"Ġyrrac":4824,"livic":4825,"uat":4826,"muloC":4827,"Ġffa":4828,"losi":4829,"ĠÃ©":4830,"Ġyht":4831,"run":4832,"rettab":4833,"tuD":4834,"Ġreppu":4835,"Ġtpek":4836,"dluo":4837,"ygolonhcet":4838,"waL":4839,"Ġpmu":4840,"Ġroirp":4841,"Ġdnet":4842,"nulov":4843,"tiug":4844,"lugeR":4845,"taW":4846,"Ġdelle":4847,"Ġetipsed":4848,"Ġduo":4849,"93":4850,"Ġevas":4851,"Ġir":4852,"ĠnamuH":4853,"Ġedarg":4854,"Ġweiver":4855,"eerht":4856,"Ġrehcaet":4857,"spuorg":4858,"maF":4859,"Ġyticapac":4860,"Ġthgif":4861,"Ġtcejbo":4862,"Ġron":4863,"Ġeveihca":4864,"Ġnoitanibmoc":4865,"Ġrotcod":4866,"Ġnoitacinummoc":4867,"ilauq":4868,"an":4869,"citamehtam":4870,"loraC":4871,"siretcarahc":4872,"Ġkram":4873,"ffart":4874,"Ġtsoh":4875,"csi":4876,"Ġdednetni":4877,"Ġâ":4878,"yen":4879,"ired":4880,"ĠreteP":4881,"xob":4882,"pacse":4883,"ĠreH":4884,"ĠtuobA":4885,"Ġgnivres":4886,"dehsi":4887,"erutuf":4888,"val":4889,"Ġecived":4890,"nigriV":4891,"diserp":4892,"zarB":4893,"Ġdenoitnem":4894,"Ġegelloc":4895,"Ġdnalsi":4896,"ĠliviC":4897,"uen":4898,"ĠÃ":4899,"Ġtih":4900,"Ġresu":4901,"itar":4902,"Ġcimedaca":4903,"htiW":4904,"Ġgnignahc":4905,"mucric":4906,"lsigel":4907,"Ġhtnom":4908,"Ġsutats":4909,"Ġretne":4910,"ĠelddiM":4911,"ĠerofeB":4912,"Ġeguh":4913,"crof":4914,"flesti":4915,"niarb":4916,"Ġcinagro":4917,"Ġrettel":4918,"liS":4919,"Ġsseni":4920,"Ġseicne":4921,"sehc":4922,"nni":4923,"dehcs":4924,"laeZ":4925,"Ġdereffo":4926,"dicca":4927,"ynapmoc":4928,"OI":4929,"Ġstcejbo":4930,"Ġ62":4931,"naP":4932,"pircsed":4933,"nopserroc":4934,"tluser":4935,"teN":4936,"tO":4937,"Ġffats":4938,"colb":4939,"llor":4940,"Ġnoitautis":4941,"dirolF":4942,"Ġsredro":4943,"cilbupeR":4944,"Ġtpecxe":4945,"Ġdlog":4946,"yteicos":4947,"Ġseuqinhcet":4948,"Ġ82":4949,"grus":4950,"leht":4951,"nimile":4952,"paew":4953,"ssev":4954,"Ġxo":4955,"Ġyltneuqerf":4956,"Ġevitanretla":4957,"yortsed":4958,"Ġlautca":4959,"Ġsdloh":4960,"Ġgnitarepo":4961,"Ġtroffe":4962,"Ġylegral":4963,"Ġnaici":4964,"ĠekaL":4965,"Ġecnerefer":4966,"coD":4967,"ĠnotgnihsaW":4968,"Ġmialc":4969,"Ġloot":4970,"Ġsledom":4971,"Ġtreb":4972,"ciN":4973,"PE":4974,"edulcni":4975,"Ġknil":4976,"ĠlanruoJ":4977,"sitats":4978,"ĠgnisU":4979,"Ġsnalp":4980,"Ġsthgi":4981,"dewS":4982,"Ġsdrib":4983,"torP":4984,"worc":4985,"Ġstsisnoc":4986,"veL":4987,"Ġserusaem":4988,"vorpmi":4989,"rotser":4990,"ooG":4991,"Ġyk":4992,"seb":4993,"ĠcilbuP":4994,"too":4995,"mitpo":4996,"Ġdenrael":4997,"ĠretaW":4998,"Ġsuriv":4999,"Ġlano":5000,"Ġstsoc":5001,"eroK":5002,"Ġyllanif":5003,"Ġdnuor":5004,"selba":5005,"Ġsdraw":5006,"Ġdica":5007,"luC":5008,"cided":5009,"ĠekiL":5010,"yawa":5011,"raS":5012,"herpmoc":5013,"civreS":5014,"Ġgnivael":5015,"ehS":5016,"Ġgnikca":5017,"Ġdoots":5018,"soppo":5019,"Ġgnitseretni":5020,"Ġseidob":5021,"Ġstseggus":5022,"Ġyltnacifingis":5023,"yllaci":5024,"doolb":5025,"dnuob":5026,"Ġkrad":5027,"iT":5028,"Ġseirots":5029,"ĠyteicoS":5030,"ituaeb":5031,"tsug":5032,"Ġdevresbo":5033,"gola":5034,"Ġlacinilc":5035,"Ġstcejorp":5036,"Ġeid":5037,"Ġlanretni":5038,"Ġerusopxe":5039,"yca":5040,"Ġneet":5041,"rdyh":5042,"ĠJ":5043,"Ġepoh":5044,"ĠnitaL":5045,"aR":5046,"Ġssap":5047,"ubirtta":5048,"Ġtni":5049,"Ġlairtsudni":5050,"dniW":5051,"Ġepahs":5052,"hco":5053,"tiw":5054,"Ġspets":5055,"dnuoF":5056,"evoba":5057,"dik":5058,"Ġsresu":5059,"4991":5060,"Ġdenimreted":5061,"Ġyrtsi":5062,"trom":5063,"pil":5064,"cepsrep":5065,"Ġefiw":5066,"Ġlairo":5067,"Ġyletaidemmi":5068,"tuB":5069,"esab":5070,"papswen":5071,"Ġbo":5072,"pyT":5073,"Ġih":5074,"elppus":5075,"ortcele":5076,"Ġaci":5077,"Ġtseggus":5078,"Ġerutaef":5079,"celloc":5080,"neD":5081,"engam":5082,"ĠstnedutS":5083,"seitivitca":5084,"ixna":5085,"Ġgniz":5086,"tnemtaert":5087,"ĠecnarF":5088,"sivda":5089,"gnil":5090,"Ġragus":5091,"SC":5092,"timmoC":5093,"Ġtcerroc":5094,"Ġlevart":5095,"Ġsdael":5096,"ganaM":5097,"Ġtsigolo":5098,"Ġmaerts":5099,"Ġnret":5100,"Ġdellortnoc":5101,"Ġstrop":5102,"AN":5103,"Ġdloc":5104,"siV":5105,"Ġrotca":5106,"Ġgnidrager":5107,"snois":5108,"troper":5109,"Ġenoyreve":5110,"Ġsecived":5111,"seires":5112,"vomer":5113,"tip":5114,"ona":5115,"setats":5116,"Ġgnidneped":5117,"Ġlam":5118,"Ġdla":5119,"Ġdetats":5120,"Ġnialpxe":5121,"gerg":5122,"Ġylppa":5123,"neP":5124,"Ġdrawrof":5125,"dub":5126,"miger":5127,"hK":5128,"semod":5129,"Ġeneg":5130,"'s":5131,"wols":5132,"seu":5133,"Ġtserof":5134,"riaf":5135,"Ġtseg":5136,"doht":5137,"Ġdeknil":5138,"Ġecnahc":5139,"baB":5140,"kaP":5141,"sirc":5142,"srota":5143,"seiro":5144,"tsim":5145,"Ġdniw":5146,"Ġ)\"":5147,"tiL":5148,"Ġevomer":5149,"cesni":5150,"tif":5151,"ĠrevO":5152,"malsI":5153,"xO":5154,"mut":5155,"Ġymra":5156,"Ġgnitca":5157,"ssam":5158,"rbiL":5159,"laiceps":5160,"stcudorp":5161,"pircs":5162,"Ġnil":5163,"hpso":5164,"Ġ72":5165,"erutcurts":5166,"sred":5167,"erces":5168,"dnemA":5169,"noitidart":5170,"ĠnrehtuoS":5171,"Ġkcu":5172,"psni":5173,"à¤":5174,"savni":5175,"difnoc":5176,"vac":5177,"Ġgniteem":5178,"gniv":5179,"Ġenihcam":5180,"Ġsesaercni":5181,"Ġnretsae":5182,"waH":5183,"Ġairetcab":5184,"aH":5185,"shtnom":5186,"usserp":5187,"CP":5188,"hgir":5189,"slevel":5190,"Ġetomorp":5191,"tnemucod":5192,"Ġsdnah":5193,"pmu":5194,"jaM":5195,"dog":5196,"txet":5197,"sgniht":5198,"iN":5199,"Ġdecnavda":5200,"pip":5201,"madnuf":5202,"nego":5203,"dnarg":5204,"Ġrotcaf":5205,"Ġniag":5206,"Ġsiso":5207,"ĠynamreG":5208,"Ġebircsed":5209,"Ġdetcerid":5210,"Ġtneserper":5211,"Ġcitarco":5212,"Ġsessecorp":5213,"gnid":5214,"ĠtsuJ":5215,"nemid":5216,"spihs":5217,"pahC":5218,"orT":5219,"cits":5220,"57":5221,"toh":5222,"muloc":5223,"Ġgnig":5224,"noitcudorp":5225,"levart":5226,"Ġenob":5227,"Ġgniniatnoc":5228,"Ġecnalab":5229,"Ġil":5230,"pyto":5231,"nimu":5232,"Ġsredael":5233,"tcejorp":5234,"orC":5235,"cin":5236,"ggu":5237,"erdnA":5238,"Ġstluda":5239,"metnoc":5240,"Ġdnamed":5241,"meT":5242,"ytivitca":5243,"pecxe":5244,"sde":5245,"ecneics":5246,"eri":5247,"Ġcihpargo":5248,"Ġnoitubirtsid":5249,"suh":5250,"nosi":5251,"Ġdeiduts":5252,"duJ":5253,"evrus":5254,"hposolihp":5255,"Ġdenibmoc":5256,"nuoY":5257,"yrtsudni":5258,"noitats":5259,"Ġtluda":5260,"sto":5261,"ĠmuesuM":5262,"Ġdetneserper":5263,"081":5264,"maet":5265,"epo":5266,"niv":5267,"redrosid":5268,"Ġgnirps":5269,"Ġor":5270,"lumrof":5271,"pacsdnal":5272,"naltA":5273,"Ġea":5274,"Ġnoitcefni":5275,"Ġylthgil":5276,"AR":5277,"liuB":5278,"icif":5279,"Ġsevlovni":5280,"secivres":5281,"ssaM":5282,"Ġseitiliba":5283,"sag":5284,"Ġeroc":5285,"irht":5286,"erutan":5287,"ĠytraP":5288,"0591":5289,"Ġgninepo":5290,"Ġdehsinif":5291,"dloG":5292,"Ġsrefer":5293,"ĠcilbupeR":5294,"sohc":5295,"kni":5296,"Ġyoj":5297,"peels":5298,"Ġsnigeb":5299,"esle":5300,"ortnoC":5301,"ĠdnoceS":5302,"Ġdecneirepxe":5303,"Ġlaici":5304,"emarf":5305,"arG":5306,"lpicsid":5307,"ĠailartsuA":5308,"ingoc":5309,"Ġ0102":5310,"Ġrefer":5311,"ĠelttaB":5312,"irC":5313,"Ġsreyalp":5314,"netxe":5315,"als":5316,"3991":5317,"ova":5318,"Ġstroper":5319,"lbme":5320,"hcruhC":5321,"erutluc":5322,"Ġgnidnuorrus":5323,"Ġdetceles":5324,"Ġhctam":5325,"utitsnoC":5326,"Ġyrani":5327,"Ġeciohc":5328,"Ġesiar":5329,"Ġstinu":5330,"cudni":5331,"cifit":5332,"Ġcitsalp":5333,"Ġdn":5334,"Ġgnicuder":5335,"gla":5336,"gnim":5337,"Ġgnidnif":5338,"set":5339,"usrup":5340,"Ġecirp":5341,"Ġnaelc":5342,"ĠnretsaE":5343,"Ġtnempiuqe":5344,"Ġlevon":5345,"Ġtegrat":5346,"sulcnoc":5347,"lleta":5348,"elP":5349,"llod":5350,"llecxe":5351,"Ġstcepsa":5352,"laf":5353,"Ġxat":5354,"Ġtnaem":5355,"slamina":5356,"Ġdraeh":5357,"lus":5358,"srevinu":5359,"inne":5360,"itneicS":5361,"Ġthguat":5362,"reveS":5363,"Ġsgnidliub":5364,"Ġbew":5365,"taf":5366,"rgimmi":5367,"Ġhcaet":5368,"23":5369,"htgnerts":5370,"Ġdesucof":5371,"Ġdooh":5372,"idra":5373,"retnuoc":5374,"zagam":5375,"htrib":5376,"yaD":5377,"ĠssergnoC":5378,"dnatS":5379,"ĠcificaP":5380,"Ġelcsum":5381,"nocE":5382,"rotciV":5383,"calper":5384,"Ġsdneirf":5385,"Ġelif":5386,"reviR":5387,"gooG":5388,"ahT":5389,"Ġdeli":5390,"Ġtiurf":5391,"Ġsecitcarp":5392,"rovaf":5393,"ĠlacideM":5394,"ecit":5395,"Ġdeirt":5396,"sap":5397,"Ġderahs":5398,"ĠkooB":5399,"Ġartxe":5400,"Ġrehtaew":5401,"Ġseunitnoc":5402,"traM":5403,"Ġseitila":5404,"zah":5405,"loba":5406,"Ġretniw":5407,"2991":5408,"ssorc":5409,"Ġtlef":5410,"Ġdetset":5411,"Ġgnipeek":5412,"Ġ9991":5413,"gnire":5414,"Ġeil":5415,"Ġrethguad":5416,"ĠerA":5417,"doc":5418,"ĠacirfA":5419,"metsyS":5420,"EC":5421,"ucric":5422,"Ġgnittes":5423,"itnA":5424,"gnoleb":5425,"idaR":5426,"84":5427,"luM":5428,"Ġypareht":5429,"ortsa":5430,"Ġrosseforp":5431,"Ġdetseretni":5432,"Ġdetseggus":5433,"yojne":5434,"lleW":5435,"nug":5436,"tneg":5437,"revop":5438,"sat":5439,"soc":5440,"Ġsnoiger":5441,"Ġsesaesid":5442,"ytnuoC":5443,"Ġevird":5444,"Ġlausiv":5445,"opyh":5446,"uort":5447,"uqeda":5448,"Ġgniniamer":5449,"tnatropmi":5450,"spo":5451,"Ġeulb":5452,"dep":5453,"curc":5454,"sitas":5455,"ĠymedacA":5456,"Ġerauqs":5457,"Ġdetca":5458,"taerT":5459,"repap":5460,"AS":5461,"Ġsroti":5462,"Ġgod":5463,"ugnitsid":5464,"Ġdiap":5465,"Ġay":5466,"euga":5467,"Ġhsir":5468,"Ġlausu":5469,"rpS":5470,"ylevit":5471,"kcaJ":5472,"mlif":5473,"Ġllaw":5474,"oL":5475,"xelpmoc":5476,"Ġdezingocer":5477,"Ġsnosaer":5478,"tsikaP":5479,"uoD":5480,"Ġsdrocer":5481,"ĠgiB":5482,"Ġlanoiger":5483,"Ġsevit":5484,"Ġelttab":5485,"1991":5486,"Ġxes":5487,"fnoC":5488,"Ġlacinhcet":5489,"Ġba":5490,"tseb":5491,"monocE":5492,"Ġsub":5493,"Ġnoitcennoc":5494,"ĠnoisiviD":5495,"sesu":5496,"ĠsoL":5497,"seussi":5498,"Ġlanret":5499,"ĠnapaJ":5500,"ĠsnoitalugeR":5501,"tsuguA":5502,"Ġerots":5503,"ĠylnO":5504,"Ġtnemhsi":5505,"reC":5506,"ĠecivreS":5507,"reneG":5508,"ugra":5509,"rehni":5510,"Ġnoitulove":5511,"deti":5512,"feD":5513,"Ġdevomer":5514,"Ġylraelc":5515,"ĠoslA":5516,"Ġgnipleh":5517,"Ġyltcaxe":5518,"lobmys":5519,"Ġgninnalp":5520,"rruC":5521,"Ġhtuom":5522,"utitsnI":5523,"bulc":5524,"eroferehT":5525,"ĠnaC":5526,"wob":5527,"Ġtsetaerg":5528,"ĠteertS":5529,"oslA":5530,"79":5531,"Ġ1002":5532,"Ġnoitcurts":5533,"CE":5534,"manyd":5535,"Ġgnitne":5536,"loco":5537,"Ġsnur":5538,"bba":5539,"daed":5540,"Ġgnicna":5541,"htaerb":5542,"irtsuA":5543,"serP":5544,"Ġerutcip":5545,"ĠefiL":5546,"rednU":5547,"Ġsir":5548,"ĠaL":5549,"Ġseitreporp":5550,"llabtoof":5551,"Ġward":5552,"gnif":5553,"ĠhsirI":5554,"Ġytne":5555,"nemonehp":5556,"nae":5557,"reyalp":5558,"Ġtohs":5559,"Ġgnicudorp":5560,"Ġrebmemer":5561,"Ġeivom":5562,"ON":5563,"liaR":5564,"Ġhpe":5565,"iws":5566,"Ġretse":5567,"Ġhtruof":5568,"Ġymonoce":5569,"Ġgnini":5570,"maid":5571,"ekil":5572,"Ġgreb":5573,"Ġtnelav":5574,"ilimaf":5575,"sek":5576,"slliks":5577,"ĠgniwolloF":5578,"ĠdooF":5579,"Ġecnatsiser":5580,"Ġ7002":5581,"Ġseitinutroppo":5582,"vE":5583,"74":5584,"ivbo":5585,"Ġ1102":5586,"tsinim":5587,"ĠlaredeF":5588,"ĠpuC":5589,"igroeG":5590,"Ġevitaler":5591,"Ġegatnavda":5592,"cimehc":5593,"ĠhpesoJ":5594,"tuO":5595,"mees":5596,"Ġsnoitarepo":5597,"porp":5598,"revO":5599,"Ġnoitaerc":5600,"irA":5601,"ĠeB":5602,"Ġeniram":5603,"Ġnoitcele":5604,"ĠyraM":5605,"tsed":5606,"Ġmottob":5607,"Ġtoof":5608,"Ġ92":5609,"DP":5610,"ralupop":5611,"Ġyradnoces":5612,"yli":5613,"Ġelbisiv":5614,"Ġc":5615,"Ġnimativ":5616,"Ġsder":5617,"ĠriS":5618,"Ġsdradnats":5619,"ecnatsni":5620,"mard":5621,"Ġdednemmocer":5622,"....":5623,"snoitca":5624,"Ġciteht":5625,"rhp":5626,"ruM":5627,"55":5628,"Ġetalu":5629,"erpretni":5630,"Ġtcepser":5631,"Ġdeve":5632,"selo":5633,"Ġsnoitacilppa":5634,"latipac":5635,"Ġoni":5636,"tov":5637,"Ġdekool":5638,"nuH":5639,"Ġenin":5640,"Ġdeganam":5641,"Ġlarur":5642,"Ġruoh":5643,"Ġsweiv":5644,"Ġlacip":5645,"ĠtenretnI":5646,"nerawa":5647,"Ġetisbew":5648,"neerG":5649,"Ġ8002":5650,"Ġreisae":5651,"nimorp":5652,"Ġme":5653,"Ġcinorhc":5654,"arts":5655,"secruoser":5656,"ul":5657,"wener":5658,"narT":5659,"gninrael":5660,"rebiL":5661,"Ġtcefrep":5662,"Ġxob":5663,"iuqe":5664,"ile":5665,"Ġpohsi":5666,"Ġemulov":5667,"Ġlacirtcele":5668,"eyolpme":5669,"hcraeseR":5670,"Ġrats":5671,"syhP":5672,"Ġsmaet":5673,"Ġtneiciffe":5674,"notgnihsaW":5675,"tseT":5676,"lio":5677,"ĠsweJ":5678,"Ġdetpoda":5679,"sloohcs":5680,"yadoT":5681,"Ġtaf":5682,"lys":5683,"Ġsgurd":5684,"Ġtnaveler":5685,"zo":5686,"fnI":5687,"Ġgnidi":5688,"vaH":5689,"repyh":5690,"Ġdednetxe":5691,"utroP":5692,"Ġskool":5693,"sl":5694,"Ġyllacita":5695,"ĠhcuS":5696,"didnac":5697,"repO":5698,"Ġdekram":5699,"Ġtnedneped":5700,"nneP":5701,"dnuos":5702,"tiws":5703,"mailraP":5704,"Ġdesopxe":5705,"Ġytisrevid":5706,"Ġderutaef":5707,"Ġediug":5708,"redom":5709,"Ġlacipyt":5710,"vitom":5711,"Ġit":5712,"Ġetacidni":5713,"ĠesohT":5714,"Ġssalg":5715,"44":5716,"Ġ2102":5717,"Ġylhguo":5718,"Ġsnoitcnuf":5719,"PC":5720,"rehtaf":5721,"Ġseton":5722,"ME":5723,"Ġsretcarahc":5724,"Ġnoitan":5725,"simmoc":5726,"ĠylraE":5727,"Ġgniwohs":5728,"setu":5729,"ciped":5730,"ĠdnarG":5731,"Ġnoitcerid":5732,"sb":5733,"lcy":5734,"rran":5735,"htroN":5736,"Ġgnicne":5737,"flah":5738,"Ġak":5739,"seira":5740,"paP":5741,"Ġdevired":5742,"rtuen":5743,"Ġlarutlucirga":5744,"Ġlen":5745,"Ġdellif":5746,"Ġtfarcria":5747,"dipar":5748,"Ġylthgils":5749,"dnet":5750,"Ġkaeps":5751,"utriv":5752,"Ġsnrettap":5753,"pord":5754,"toc":5755,"elbaliava":5756,"napxe":5757,"Ġenoyna":5758,"suhT":5759,"Ġtnirp":5760,"Ġsuoneg":5761,"ĠneerG":5762,"dnar":5763,"itned":5764,"moW":5765,"Ġtneiciffus":5766,"99":5767,"rehtona":5768,"Ġatna":5769,"terts":5770,"Ġdevorpmi":5771,"Ġdaed":5772,"Ġllu":5773,"irO":5774,"revda":5775,"tropsnart":5776,"Ġelbapac":5777,"haM":5778,"Ġ8991":5779,"Ġyde":5780,"Ġnrettap":5781,"ralC":5782,"Ġgninniw":5783,"gilletni":5784,"ecO":5785,"cudorP":5786,"laT":5787,"olp":5788,"Ġtif":5789,"sevlesmeht":5790,"Ġsiseht":5791,"ruh":5792,"Ġfeihc":5793,"Ġgnigni":5794,"Ġdehcnual":5795,"Ġslaog":5796,"Ġserutcurts":5797,"Ġelpmas":5798,"ggirt":5799,"Ġska":5800,"Ġstnuoma":5801,"1202":5802,"ĠpuorG":5803,"Ġecnaraeppa":5804,"vitse":5805,"Ġaib":5806,"lareneg":5807,"Ġmumixam":5808,"sya":5809,"Ġnait":5810,"Ġseceip":5811,"hdduB":5812,"Ġnug":5813,"caF":5814,"Ġsgnidnif":5815,"uac":5816,"rams":5817,"yrc":5818,"Ġreyal":5819,"vresnoC":5820,"reviled":5821,"ĠerugiF":5822,"seg":5823,"lliM":5824,"lairetam":5825,"Ġtsaeht":5826,":)":5827,"noga":5828,"epS":5829,"enignE":5830,"rotinom":5831,"ĠtS":5832,"yso":5833,"rU":5834,"Ġpam":5835,"vnoc":5836,"batad":5837,"soporp":5838,"Ġstes":5839,"leiy":5840,"mk":5841,"aS":5842,"Ġeussit":5843,"Ġlacigoloib":5844,"Ġstrops":5845,"nalP":5846,"Ġdezinagro":5847,"yla":5848,"Ġsmra":5849,"Ġsllet":5850,"cnI":5851,"rohs":5852,"Ġhsilbatse":5853,"Ġhteet":5854,"Ġylbissop":5855,"Ġenola":5856,"ratS":5857,"Ġenohp":5858,"meh":5859,"illa":5860,"tirW":5861,"ĠrosseforP":5862,"mue":5863,"namoR":5864,"Ġycneuqerf":5865,"dixo":5866,"ĠtcirtsiD":5867,"Ġegarots":5868,"renluv":5869,"Ġstnenopmoc":5870,"raeH":5871,"ediw":5872,"Ġrehti":5873,"Ġhtgnerts":5874,"lI":5875,"Ġgnileef":5876,"Ġsmeti":5877,"noz":5878,"Ġ08":5879,"Ġdesse":5880,"ĠhctuD":5881,"ruC":5882,"Ġlanoitome":5883,"wolle":5884,"Ġniart":5885,"Ġdeussi":5886,"Ġseye":5887,"zaN":5888,"Ġderetne":5889,"lluf":5890,"Ġdnes":5891,"neR":5892,"Ġgninia":5893,"yalP":5894,"Ġllik":5895,"Ġelcyc":5896,"skoob":5897,"Ġdetad":5898,"semag":5899,"neM":5900,"Ġflesruoy":5901,"ĠdnalsI":5902,"saelp":5903,"Ġlangis":5904,"Ġderaperp":5905,"Ġnus":5906,"Ġylbme":5907,"Ġcitengam":5908,"lehs":5909,"itref":5910,"dab":5911,"yraM":5912,"Ġenigne":5913,"Ġsthgil":5914,"feR":5915,"ĠekaM":5916,"Ġedixo":5917,"Ġylgnisaercni":5918,"rtcelE":5919,"Ġlab":5920,"pmaC":5921,"tahw":5922,"Ġrorep":5923,"lohc":5924,"Ġsliated":5925,"cat":5926,"ecneirepxe":5927,"ĠtnempoleveD":5928,"Ġemerp":5929,"rrucco":5930,"Ġdeef":5931,"are":5932,"sem":5933,"Ġsdnik":5934,"59":5935,"nots":5936,"hcruhc":5937,"traeh":5938,"uqS":5939,"Ġdneirf":5940,"raG":5941,"Ġdeppa":5942,"ĠdrawA":5943,"Ġerar":5944,"Ġsmialc":5945,"Ġkcolb":5946,"ils":5947,"Ġcitsa":5948,"nuof":5949,"Ġsesuoh":5950,"woN":5951,"ezis":5952,"Ġegaruocne":5953,"dulcnoc":5954,"Ġytu":5955,"Ġylesolc":5956,"Ġona":5957,"Ġnworg":5958,"Ġmsila":5959,"isni":5960,"nwonk":5961,"Ġnioj":5962,"ĠcisuM":5963,"Ġderdnuh":5964,"mehcs":5965,"xelf":5966,"Ġ13":5967,"dnemmocer":5968,"Ġniahc":5969,"itnatsbus":5970,"ĠsaxeT":5971,"rehtag":5972,"Ġegnellahc":5973,"Ġdetacided":5974,"icer":5975,"ĠecapS":5976,"Ġ9002":5977,"rea":5978,"Ġtoor":5979,"roop":5980,"Ġdelaever":5981,"draG":5982,"Ġsdleif":5983,"Ġgniyas":5984,"Ġwerg":5985,"worb":5986,"Ġspoort":5987,"ylsuo":5988,"hR":5989,"ĠeerhT":5990,"idrac":5991,"deR":5992,"covda":5993,"sren":5994,"sevil":5995,"56":5996,"niks":5997,"kcor":5998,"ĠtrA":5999,"Ġdetcelloc":6000,"Ġsrohtua":6001,"eppa":6002,"dnatsrednu":6003,"kruT":6004,"teiV":6005,"greb":6006,"Ġsegnellahc":6007,"Ġybab":6008,"ĠkraM":6009,"arfni":6010,"lU":6011,"kcalb":6012,"ĠrednU":6013,"Ġgnidda":6014,"Ġstneserper":6015,"rud":6016,"Ġeuqinhcet":6017,"Ġedosipe":6018,"rehtom":6019,"Ġsnoitazinagro":6020,"Ġderrucco":6021,"Ġdetpecca":6022,"Ġkees":6023,"htolc":6024,"drow":6025,"suc":6026,"yor":6027,"Ġ.'":6028,"meM":6029,"Ġlacisum":6030,"tsew":6031,"ĠyrevE":6032,"geL":6033,"Ġmra":6034,"erofeb":6035,"ĠmodgniK":6036,"nuocne":6037,"Ġdnammoc":6038,"Ġyub":6039,"Ġdesopmoc":6040,"Ġcitsemod":6041,"Ġtnemele":6042,"Ġerolpxe":6043,"rentrap":6044,"Ġssucsid":6045,"ĠIII":6046,"dnam":6047,"htuoS":6048,"Ġrettal":6049,"wef":6050,"Ġlles":6051,"Ġyllacificeps":6052,"Ġhg":6053,"rihT":6054,"llarap":6055,"nhte":6056,"Ġkrap":6057,"ecivres":6058,"Ġeciov":6059,"Ġcirotsih":6060,"Ġsreidlos":6061,"nalpxe":6062,"woB":6063,"Ġdeliaf":6064,"suJ":6065,"snia":6066,"9891":6067,"Ġsecneirepxe":6068,"Ġoi":6069,"hcir":6070,"suB":6071,"Ġelbuod":6072,"citrA":6073,"rehtruF":6074,"Ġredneg":6075,"Ġllif":6076,"ror":6077,"Ġhtae":6078,"neercs":6079,"htgnel":6080,"94":6081,"gnidliub":6082,"rel":6083,"Ġyllamron":6084,"Ġssergorp":6085,"Ġemertxe":6086,"nimircsid":6087,"htA":6088,"lletas":6089,"Ġknab":6090,"Ġnoitaler":6091,"nommoc":6092,"Ġecnad":6093,"srevnoc":6094,"csed":6095,"ufer":6096,"Ġdetf":6097,"Ġtnioj":6098,"sdraw":6099,"cilpmi":6100,"Ġnoitcaer":6101,"noisacco":6102,"Ġtsixe":6103,"yB":6104,"ĠnerdlihC":6105,"Ġoto":6106,"ĠgnomA":6107,"Ġsderdnuh":6108,"Ġstnapicitrap":6109,"oohs":6110,"Ġdedrawa":6111,"navlys":6112,"KU":6113,"Ġyda":6114,"yenom":6115,"Ġraeh":6116,"Ġnoisserpxe":6117,"Ġdeniatbo":6118,"Ġgnithgif":6119,"ysoce":6120,"Ġyalpsid":6121,"lucirruc":6122,"seti":6123,"Ġngiapmac":6124,"thgiew":6125,"Ġdliw":6126,"Ġelibom":6127,"Ġelbaniatsus":6128,"yaB":6129,"issecca":6130,"ruaso":6131,"Ġyticirtcele":6132,"vid":6133,"Ġlacitcarp":6134,"Ġsebircsed":6135,"Ġesol":6136,"pilihP":6137,"Ġecaep":6138,"Ġgniyr":6139,"Ġeganam":6140,"faS":6141,"yht":6142,"leW":6143,"Ġdetcurtsnoc":6144,"SM":6145,"knarF":6146,"nidrooc":6147,"mar":6148,"mussa":6149,"egral":6150,"ssop":6151,"sulcxe":6152,"ĠwaL":6153,"llortnoc":6154,"lcsum":6155,"Ġnoitpmusnoc":6156,"Ġsehsi":6157,"stneve":6158,"cartxe":6159,"Ġelpuoc":6160,"Ġgnidna":6161,"Ġnav":6162,"lliw":6163,"Ġ003":6164,"tooF":6165,"Ġgnissecorp":6166,"Ġwols":6167,"Ġselcitra":6168,"Ġmodeerf":6169,"ĠhguohT":6170,"racs":6171,"rele":6172,"Ġdneps":6173,"64":6174,"ecafrus":6175,"Ġwei":6176,"ĠllaH":6177,"uqa":6178,"Ġegde":6179,"evis":6180,"Ġlohocla":6181,"Ġlanretxe":6182,"retsa":6183,"tae":6184,"Ġ3102":6185,"teD":6186,"Ġdetluser":6187,"slairetam":6188,"Ġlufituaeb":6189,"aid":6190,"egdelwonk":6191,"grub":6192,"Ġelbanu":6193,"nuM":6194,"miL":6195,"noipmahc":6196,"orhc":6197,"Ġdr":6198,"seo":6199,"Ġesahp":6200,"Ġgniri":6201,"ffoc":6202,"Ġetubirtnoc":6203,"smotpmys":6204,"tupmoc":6205,"Ġtxetnoc":6206,"Ġseigetarts":6207,"ĠÂ":6208,"Ġgniw":6209,"Ġara":6210,"lggu":6211,"Ġevisnetxe":6212,"2202":6213,"Ġdexim":6214,"Ġraef":6215,"Ġevisser":6216,"ĠelgooG":6217,"eruta":6218,"Ġsecaf":6219,"tsoB":6220,"Ġdeda":6221,"woP":6222,"PM":6223,"rusni":6224,"buod":6225,"hgiew":6226,"iht":6227,"senil":6228,"eroM":6229,"leC":6230,"kcart":6231,"pecer":6232,"Ġrevewoh":6233,"ĠdrawdE":6234,"arI":6235,"dus":6236,"Ġlap":6237,"Ġnegyxo":6238,"Ġyks":6239,"Ġsem":6240,"ssol":6241,"Ġmuid":6242,"Ġylevitceffe":6243,"Ġniar":6244,"siso":6245,"BC":6246,"Ġdeliated":6247,"Ġsez":6248,"Ġgniraeh":6249,"ĠemirP":6250,"Ġrefsnart":6251,"jni":6252,"Ġyllaitini":6253,"Ġsezi":6254,"Ġcinortcele":6255,"Ġdetcetorp":6256,"inna":6257,"ereH":6258,"Ġdeerga":6259,"Ġstsigolo":6260,"Ġsuoregnad":6261,"ĠsiuoL":6262,"Ġtimil":6263,"VI":6264,"nevretni":6265,"ihp":6266,"Ġetuor":6267,"Ġoda":6268,"nic":6269,"ihsaf":6270,"den":6271,"aeB":6272,"poP":6273,"Ġsnoissime":6274,"tnoM":6275,"Ġtcilfnoc":6276,"Ġseerged":6277,"terpretni":6278,"6891":6279,"elyts":6280,"Ġ53":6281,"Ġyllufe":6282,"Ġksat":6283,"Ġegassem":6284,"cel":6285,"elt":6286,"Ġdle":6287,"ĠohW":6288,"retra":6289,"ĠyloH":6290,"Ġseicilop":6291,"ecitcarp":6292,"sba":6293,"Ġseigolonhcet":6294,"elC":6295,"carco":6296,"Ġtnemeerga":6297,"Ġtseggib":6298,"Ġgnireenigne":6299,"htworg":6300,"saC":6301,"Ġsruo":6302,"norp":6303,"liat":6304,"yno":6305,"ĠaeS":6306,"saM":6307,"Ġyrater":6308,"nier":6309,"Ġrevil":6310,"ssalC":6311,"Ġnoisivid":6312,"Ġylniatrec":6313,"etnulov":6314,"Ġoo":6315,"gnessap":6316,"hcysP":6317,"Ġyn":6318,"Ġsnoitalupop":6319,"Ġstceffa":6320,"Ġsneppah":6321,"Ġ07":6322,"871":6323,"tsmucric":6324,"Ġhserf":6325,"Ġecruoser":6326,"Ã¤":6327,"0391":6328,"nara":6329,"lucric":6330,"Ġsgnos":6331,"roced":6332,"stluser":6333,"Ġleu":6334,"lios":6335,"dlog":6336,"hcaoc":6337,"Ġneercs":6338,"sevita":6339,"mubla":6340,"Ġwenk":6341,"8891":6342,"AM":6343,"Ġgnippa":6344,"draob":6345,"lpmocca":6346,"Ġtnellecxe":6347,"relot":6348,"taeht":6349,"Ġklim":6350,"Ġrehtorb":6351,"PI":6352,"voM":6353,"Ġsrettel":6354,"elgnis":6355,"Ġtcen":6356,"monortsa":6357,"Ġhtap":6358,"Ġdesserpxe":6359,"Ġnoissucsid":6360,"HC":6361,"ĠhsittocS":6362,"llag":6363,"tnemevom":6364,"dnA":6365,"Ġnoitinifed":6366,"Ġesaelp":6367,"Ġsedis":6368,"remrof":6369,"Ġderusaem":6370,"Ġmk":6371,"Ġ4102":6372,"yL":6373,"Ġsdneped":6374,"Ġenif":6375,"Ġhceeps":6376,"ĠataD":6377,"Ġdrib":6378,"ehW":6379,"ĠdaoR":6380,"feileb":6381,"cuL":6382,"Ġriah":6383,"cnuoc":6384,"elloC":6385,"Ġgnisir":6386,"ĠyaB":6387,"ĠlareveS":6388,"ciP":6389,"Ġsulp":6390,"Ġdetarepo":6391,"valf":6392,"Ġhtlaew":6393,"Ġtnemssessa":6394,"tcepxe":6395,"Ġtnenamrep":6396,"Ġyllaitnetop":6397,"Ġselpicnirp":6398,"Ġ5102":6399,"merec":6400,"baf":6401,"Ġyrav":6402,"Ġ\"?":6403,"Ġyojne":6404,"deif":6405,"Ġstcaf":6406,"org":6407,"noH":6408,"Ġlarom":6409,"mS":6410,"qarI":6411,"dnas":6412,"sep":6413,"dnaL":6414,"ael":6415,"rgA":6416,"sruoh":6417,"Ġnoitcudortni":6418,"Ġnori":6419,"giD":6420,"Ġnoitcuder":6421,"Ġsnoitpo":6422,"Ġsnaici":6423,"Ġeugael":6424,"pat":6425,"Ġgniknird":6426,"Ġscitsiretcarahc":6427,"Ġyllufsseccus":6428,"kcolb":6429,"Ġregnuoy":6430,"SO":6431,"uca":6432,"ĠygrenE":6433,"dnaba":6434,"srek":6435,"Ġneppah":6436,"7891":6437,"gnola":6438,"Ġseif":6439,"gip":6440,"Ġnoitaidar":6441,"Ġtropsnart":6442,"irrac":6443,"Ġeterc":6444,"Ġsnezitic":6445,"ordnys":6446,"Ġderia":6447,"kaew":6448,"bor":6449,"nek":6450,"dica":6451,"Ġgnikaeps":6452,"nuD":6453,"Ġlatnemadnuf":6454,"redne":6455,"raps":6456,"Ġybraen":6457,"Ġytirohtua":6458,"naitsirhC":6459,"Ġevissam":6460,"Ġsnoisiced":6461,"smrof":6462,"Ġtiderc":6463,"Ġgrub":6464,"Ġserutarepmet":6465,"Ġegnahcxe":6466,"buC":6467,"itog":6468,"rav":6469,"noillim":6470,"Ġstrats":6471,"Ġtnatsnoc":6472,"woH":6473,"sema":6474,"Ġmraw":6475,"Ġnoitom":6476,"irat":6477,"idni":6478,"Ġdevirra":6479,"ecrof":6480,"Ġderalced":6481,"cam":6482,"Ġhtrae":6483,"Ġyevrus":6484,"Ġlaicif":6485,"rehT":6486,"Ġnesohc":6487,"Ġdepahs":6488,"Ġgnisa":6489,"minA":6490,"Ġelliv":6491,"yllanoitid":6492,"moH":6493,"ĠynapmoC":6494,"Ġtcnitsid":6495,"tol":6496,"Ġyleritne":6497,"diM":6498,"Ġstnemeriuqer":6499,"Ġlativ":6500,"Ġsnoitisop":6501,"Ġllef":6502,"zilE":6503,"Ġsllac":6504,"elcitra":6505,"Ġsegaugnal":6506,"Ġevitingoc":6507,"erusserp":6508,"moT":6509,"Ġ09":6510,"losba":6511,"Ġdeniatnoc":6512,"rutaS":6513,"Ġerap":6514,"ffE":6515,"irteR":6516,"Ġnoitavresnoc":6517,"dirB":6518,"Ġgnitroppus":6519,"Ġdetaefed":6520,"roloC":6521,"Ġnots":6522,"Ġertnec":6523,"urc":6524,"tsaC":6525,"leT":6526,"ĠgninraeL":6527,"ĠevaH":6528,"ĠtraP":6529,"Ġmil":6530,"Ġ2002":6531,"Ġsevres":6532,"Ġnaicitilop":6533,"tsoP":6534,"ĠlliB":6535,"Ġhtuoy":6536,"Ġgnidloh":6537,"Ġetareneg":6538,"pecrep":6539,"ruP":6540,"Ġette":6541,"Ġsselnu":6542,"lizarB":6543,"mitciv":6544,"Ġnoitpo":6545,"oD":6546,"aes":6547,"ĠnitraM":6548,"Ġthgilf":6549,"Ġ7102":6550,"ĠnoitamrofnI":6551,"Ġtuptuo":6552,"gninaem":6553,"rtsinimdA":6554,"Ġad":6555,"Ġecneloiv":6556,"stnerap":6557,"Ġhcaoc":6558,"Ġeraw":6559,"ĠtniaS":6560,"teem":6561,"elor":6562,"roivaheb":6563,"leda":6564,"gnuH":6565,"rednow":6566,"cejer":6567,"Ġdeifit":6568,"vitluc":6569,"Ġderiuqca":6570,"erA":6571,"lloH":6572,"tfel":6573,"Ġato":6574,"Ġskcatta":6575,"snamuh":6576,"ider":6577,"ges":6578,"ruoS":6579,"Ġcime":6580,"hpm":6581,"irrab":6582,"Ġgniees":6583,"riG":6584,"garf":6585,"esrev":6586,"ihc":6587,"tilicaf":6588,"Ġylde":6589,"Ġrailimaf":6590,"Ġyranidro":6591,"Ġecnetsixe":6592,"itS":6593,"srebmem":6594,"Ġtsaoc":6595,"ragus":6596,"taC":6597,"IM":6598,"htiro":6599,"elliv":6600,"Ġgnivird":6601,"ved":6602,"Ġtaes":6603,"Â£":6604,"Ġstnediser":6605,"rotcaf":6606,"kcalB":6607,"Ġylf":6608,"Ġdevorp":6609,"ruoseR":6610,"Ġdiuqil":6611,"Ġronim":6612,"Ġlamrof":6613,"Ġelcihev":6614,"ĠhguorhT":6615,"Ġderedro":6616,"Ġtaerht":6617,"Ġtsedlo":6618,"Ġsessalc":6619,"Ġyrate":6620,"CC":6621,"reF":6622,"ime":6623,"toN":6624,"yarp":6625,"ĠlatnemnorivnE":6626,"ĠneeuQ":6627,"dommoc":6628,"rtne":6629,"Ġtnemetats":6630,"porht":6631,"reps":6632,"lletni":6633,"Ġelbatius":6634,"sdeen":6635,"etad":6636,"Ġtros":6637,"Ġstf":6638,"Ġsnrecnoc":6639,"Ġstrepxe":6640,"ĠelttiL":6641,"hsup":6642,"ĠeettimmoC":6643,"BA":6644,"EN":6645,"Ġsetad":6646,"Ġstse":6647,"htuom":6648,"Ġnuf":6649,"5891":6650,"rar":6651,"Ġdennalp":6652,"ugnaL":6653,"Ġenile":6654,"idergni":6655,"Ġflo":6656,"Ġyru":6657,"uqnoc":6658,"worB":6659,"Ġdetareneg":6660,"plu":6661,"seka":6662,"marap":6663,"Ġdedeec":6664,"imes":6665,"neK":6666,"Ġgnillik":6667,"mehC":6668,"Ġav":6669,"navlysnneP":6670,"ĠemiT":6671,"Ġssenerawa":6672,"ssenlli":6673,"Ġsrats":6674,"Ġsam":6675,"Ġslrig":6676,"Ġklaw":6677,"Ġtnenopmoc":6678,"nub":6679,"Ġmuminim":6680,"Ġtsav":6681,"'ll":6682,"smargorp":6683,"Ġelgna":6684,"Ġroines":6685,"Ġdipar":6686,"Ġdenialpxe":6687,"Ġati":6688,"Ġssenev":6689,"zti":6690,"locniL":6691,"ĠniatirB":6692,"maR":6693,"Ġsnosrep":6694,"lek":6695,"kcoR":6696,"hr":6697,"noB":6698,"tsae":6699,"vals":6700,"ĠevitaN":6701,"ffiD":6702,"mots":6703,"Ġevisnepxe":6704,"bur":6705,"cnuj":6706,"Ġeruliaf":6707,"snoitseuq":6708,"ĠrednaxelA":6709,"gram":6710,"yhr":6711,"sesaesid":6712,"0291":6713,"Ġcipot":6714,"Ġnward":6715,"sthgir":6716,"ĠemerpuS":6717,"Ġesiwrehto":6718,"Ġdeveihca":6719,"ĠdaeR":6720,"Ġtsetal":6721,"Ġlautirips":6722,"Ġslaiciffo":6723,"Ġeciwt":6724,"Ġssorc":6725,"Ġytilibisnopser":6726,"Ġeunev":6727,"netniam":6728,"peD":6729,"Ġliat":6730,"egap":6731,"SS":6732,"ksir":6733,"Ġdecneulfni":6734,"dnalsI":6735,"Ġstib":6736,"Ġygetarts":6737,"ak":6738,"Ġsecudorp":6739,"sdro":6740,"Ġlavitse":6741,"Ġegati":6742,"Ġrenni":6743,"aisA":6744,"RI":6745,"66":6746,"beW":6747,"Ġraew":6748,"noitani":6749,"relecca":6750,"srae":6751,"Ġnu":6752,"posolihp":6753,"Ġsnoisiv":6754,"psoH":6755,"ĠlabolG":6756,"nemrA":6757,"nirP":6758,"Ġsknil":6759,"Ġwolley":6760,"Ġyes":6761,"Ġdrac":6762,"isa":6763,"ytiru":6764,"Ġycnegreme":6765,"rolhc":6766,"teop":6767,"Ġlaciport":6768,"Ġtcartnoc":6769,"Ġciffart":6770,"Ġdilos":6771,"Ġyletamitlu":6772,"olc":6773,"Ġdeyortsed":6774,"Ġlairt":6775,"Ġdeniart":6776,"Ġseneg":6777,"Ġroolf":6778,"Ġsnoitats":6779,"Ġdenil":6780,"ĠerehW":6781,"iclac":6782,"771":6783,"Ġydo":6784,"edni":6785,"dnammoc":6786,"tuA":6787,"rtni":6788,"Ġ6102":6789,"ĠlearsI":6790,"4891":6791,"tah":6792,"ĠeciffO":6793,"sreP":6794,"wolla":6795,"Ġtnuoc":6796,"srem":6797,"Ġira":6798,"Ġseite":6799,"FA":6800,"riC":6801,"Ġdevorppa":6802,"FN":6803,"Ġnekorb":6804,"III":6805,"siuoL":6806,"ĠdeveirteR":6807,"sisylana":6808,"roK":6809,"renim":6810,"ilitu":6811,"troppus":6812,"Ġdednetta":6813,"ĠeerF":6814,"Ġnoisse":6815,"tsnI":6816,"ĠcitnaltA":6817,"urT":6818,"Ġalle":6819,"yhpargo":6820,"laH":6821,"Ġytisrevinu":6822,"Ġtlu":6823,"Ġesle":6824,"olg":6825,"rotcod":6826,"Ġyekco":6827,"caJ":6828,"Ġelbats":6829,"Ġtnetsisnoc":6830,"yol":6831,"uT":6832,"PS":6833,"htimS":6834,"Ġyratne":6835,"sal":6836,"ĠmilsuM":6837,"Ġtrops":6838,"tsujda":6839,"retneC":6840,"Ġsetebaid":6841,"Ġevlos":6842,"Ġlave":6843,"syla":6844,"bazilE":6845,"Ġdeniag":6846,"Ġsksir":6847,"Ġevitisnes":6848,"Ġezingocer":6849,"OS":6850,"ĠtsaL":6851,"ĠekaT":6852,"aF":6853,"ata":6854,"Ġnair":6855,"Ġtnetxe":6856,"bi":6857,"udnI":6858,"icerppa":6859,"Ġetarepo":6860,"ĠesaelP":6861,"rtceps":6862,"Ġgnidro":6863,"Ġhtam":6864,"obor":6865,"iecrep":6866,"ihO":6867,"Ġgnidnuf":6868,"Ġniatnuom":6869,"vdA":6870,"retirw":6871,"Ġsedo":6872,"ihciM":6873,"Ġnoitartnecnoc":6874,"ĠsnoitaN":6875,"eulav":6876,"Ġalo":6877,"Ġdengissa":6878,"Ġevorp":6879,"Ġdnuob":6880,"Ġsenile":6881,"tsyrc":6882,"Ġnoitidart":6883,"Ġdeno":6884,"itogen":6885,"Ġredrob":6886,"noitacif":6887,"Ġetarucca":6888,"napmocca":6889,"hdlihc":6890,"lpxE":6891,"ĠsthgiR":6892,"ires":6893,"Ġlaicurc":6894,"Ġderipsni":6895,"pohs":6896,"noitulover":6897,"ylatI":6898,"0491":6899,"gella":6900,"Ġnoisses":6901,"aB":6902,"tnoC":6903,"Ġnais":6904,"Ġrehc":6905,"Ġerutaretil":6906,"milC":6907,"htirogla":6908,"dnuba":6909,"retteb":6910,"Ġsnoitulos":6911,"ĠeripmE":6912,"ĠecroF":6913,"dnaS":6914,"picit":6915,"ytilauq":6916,"Ġkce":6917,"Ġtcennoc":6918,"Ġelbane":6919,"setunim":6920,"dnalerI":6921,"Ġspihsnoitaler":6922,"ggurts":6923,"Ġsgod":6924,"Ġyrujni":6925,"tsriF":6926,"LE":6927,"tceffe":6928,"Ġytilibissop":6929,"aib":6930,"Ġtcart":6931,"ssarg":6932,"ĠdraoB":6933,"mieh":6934,"Ġypoc":6935,"mmalfni":6936,"yks":6937,"stceffe":6938,"ĠgnuoY":6939,"cejni":6940,"maxE":6941,"58":6942,"Ġyraropmetnoc":6943,"Ġnrecnoc":6944,"morf":6945,"ĠogacihC":6946,"Ġelbaulav":6947,"tiT":6948,"Ġetaudarg":6949,"retev":6950,"Ġnoitav":6951,"Ġcite":6952,"Ġtsaerb":6953,"Ġtenalp":6954,"Ġstol":6955,"Ġstel":6956,"ytilib":6957,"Ġeraf":6958,"neV":6959,"nuF":6960,"'.":6961,"retniw":6962,"tomer":6963,"igel":6964,"nnA":6965,"niaM":6966,"Ġlaedi":6967,"Ġtsissa":6968,"ocixeM":6969,"stneitap":6970,"tcA":6971,"Ġralucsa":6972,"Ġselcitrap":6973,"seiduts":6974,"Ġ54":6975,"Ġnedrag":6976,"kraM":6977,"971":6978,"limiS":6979,"rongi":6980,"Ġdeyolpme":6981,"Ġesrevid":6982,"Ġsda":6983,"neve":6984,"Ġhctaw":6985,"Ġsremraf":6986,"Ġyrevocsid":6987,"tsat":6988,"hsA":6989,"tlov":6990,"Ġtlua":6991,"9791":6992,"Ġpihsredael":6993,"elihw":6994,"Ġdete":6995,"inifed":6996,"ĠlaicepS":6997,"ĠratS":6998,"ĠdooG":6999,"Ġgninrom":7000,"Ġecalper":7001,"Ġderutpac":7002,"Ġsetaerc":7003,"Ġtnemtsevni":7004,"Ġdeneppah":7005,"luG":7006,"ĠnoissimmoC":7007,"Ġnigiro":7008,"tnorf":7009,"dnik":7010,"inam":7011,"Ġnoititepmoc":7012,"Ġsnoillim":7013,"Ġdereffus":7014,"Ġssenk":7015,"Ġyal":7016,"seitinummoc":7017,"hpargotohp":7018,"Ġerocs":7019,"Ġetauqeda":7020,"Ġdesoppo":7021,"sirprus":7022,"Ġsnoitutitsni":7023,"Ġtnemucod":7024,"idi":7025,"Ġtnenimorp":7026,"etar":7027,"Ġyllaiciffo":7028,"Ġpord":7029,"Ġsdnats":7030,"Ġthgia":7031,"Ġrotom":7032,"htlaeH":7033,"dezi":7034,"Ġcinhte":7035,"ĠecnirP":7036,"ĠseidutS":7037,"Ġytilaer":7038,"Ġgniklat":7039,"enola":7040,"Ġmraf":7041,"retir":7042,"ĠnommoC":7043,"Ġvo":7044,"resed":7045,"ngo":7046,"Ġadna":7047,"secruos":7048,"ĠocixeM":7049,"Ġetisoppo":7050,"34":7051,"Ġyldipar":7052,"Ġdehcatta":7053,"Ġdetov":7054,"Ġytitnedi":7055,"lumits":7056,"Ġegairram":7057,"3891":7058,"76":7059,"Ġyltaerg":7060,"Ġah":7061,"yllaniF":7062,"oibitna":7063,"plucs":7064,"OD":7065,"Ġselpmas":7066,"Ġdessucsid":7067,"sedi":7068,"Ġsrenwo":7069,"egelloC":7070,"tsam":7071,"pE":7072,"kcip":7073,"Ġtpecca":7074,"kO":7075,"Ġdenrecnoc":7076,"nin":7077,"molp":7078,"Ġmut":7079,"Ġtnemom":7080,"Ġevitcudorp":7081,"Ġevaw":7082,"ĠlarutaN":7083,"Ġneddi":7084,"icifed":7085,"nimatnoc":7086,"Ġgnireffus":7087,"htaM":7088,"Ġesaerced":7089,"Ġstpecnoc":7090,"Ġenog":7091,"Ġlanoitnevnoc":7092,"Ġsnialpxe":7093,"Ġnevird":7094,"Åį":7095,"llaW":7096,"rocca":7097,"repuS":7098,"Ġreganam":7099,"ecnamrofrep":7100,"Ġevitaerc":7101,"Ġretsaf":7102,"Ġdetcefni":7103,"Ġsnrut":7104,"Ġnom":7105,"ooms":7106,"illA":7107,"www":7108,"ina":7109,"Ġtep":7110,"hsaw":7111,"rehc":7112,"Ġnoitib":7113,"Ġsrac":7114,"yllanoitiddA":7115,"ĠmetsyS":7116,"Ġgnissap":7117,"Ġtcelfer":7118,"ĠraeY":7119,"Ġnaeco":7120,"Ġdiulf":7121,"Ġeraperp":7122,"seitiliba":7123,"tar":7124,"Ġwar":7125,"Ġmoorssalc":7126,"roi":7127,"Ġsaerehw":7128,"Ġtneuqesbus":7129,"Ġyrts":7130,"Ġenicidem":7131,"dooW":7132,"aN":7133,"msila":7134,"moorssalc":7135,"citsi":7136,"Ġylraluger":7137,"seh":7138,"Ġserugif":7139,"ab":7140,"Ġslacimehc":7141,"titta":7142,"tibahni":7143,"Ġnoigiler":7144,"ypoc":7145,"tnetnoc":7146,"Ġderots":7147,"suht":7148,"Ġdnuorgkcab":7149,"Ġseitilicaf":7150,"rJ":7151,"Ġediced":7152,"Ġyllarutan":7153,"givan":7154,"DM":7155,"bol":7156,"ircas":7157,"Ġeerga":7158,"Ġnoinu":7159,"ymonoce":7160,"esuoH":7161,"noinU":7162,"Ġhtped":7163,"gnitirw":7164,"Ġgnideef":7165,"strap":7166,"Ġstoor":7167,"Ġnoitadnuof":7168,"Ġsetacidni":7169,"Ġdecaf":7170,"Ġnez":7171,"uga":7172,"ycna":7173,"Ġdegrahc":7174,"ĠeuD":7175,"Ġdemra":7176,"Ġnoitasi":7177,"Ġhcnarb":7178,"yroeht":7179,"ledalihP":7180,"rI":7181,"ĠnaisA":7182,"Ġredrosid":7183,"DE":7184,"Ġriap":7185,"Ġ004":7186,"efas":7187,"Ġstnaw":7188,"ĠtroF":7189,"ĠdnalaeZ":7190,"Ġdeka":7191,"Ġgnivorpmi":7192,"Ġyawliar":7193,"Ġsrevoc":7194,"Ġaira":7195,"gur":7196,"Ġlacigol":7197,"tnemeganam":7198,"Ġerutpac":7199,"SN":7200,"iluJ":7201,"Ġsmsi":7202,"Ġdetnirp":7203,"Ġcire":7204,"Ġretsam":7205,"Ġgnivlovni":7206,"Ġyrtne":7207,"ĠtcejorP":7208,"Ġnrub":7209,"ĠronrevoG":7210,"ihpledalihP":7211,"cnaC":7212,"evah":7213,"hcihw":7214,"ĠaissuR":7215,"narbmem":7216,"Ġsedaced":7217,"Ġgniviecer":7218,"lucirgA":7219,"Ġlaoc":7220,"Ġsdoog":7221,"Ġtseilrae":7222,"Ġtnemyolpme":7223,"eye":7224,"hpetS":7225,"Ġgnirotinom":7226,"vita":7227,"Ġsnoitaler":7228,"Ġtnelaviuqe":7229,"duo":7230,"irG":7231,"eahcra":7232,"Ġnoisser":7233,"natS":7234,"cirru":7235,"Ġetaidemmi":7236,"noitcefni":7237,"Ġ(":7238,"Ġdees":7239,"mmam":7240,"Ġdeweiv":7241,"AP":7242,"ogno":7243,"Ġdnasuoht":7244,"swo":7245,"Ġregnis":7246,"Ġsdnuos":7247,"lias":7248,"tsetni":7249,"ĠEHT":7250,"lggurts":7251,"ĠfeihC":7252,"Ġniatbo":7253,"enoi":7254,"Ġtcudnoc":7255,"roulf":7256,"celletni":7257,"Ġgnirahs":7258,"Ġrobal":7259,"Ġstpmetta":7260,"46":7261,"setis":7262,"nitnoC":7263,"segnahc":7264,"seye":7265,"giS":7266,"suhca":7267,"tserra":7268,"palloc":7269,"ĠteG":7270,"mucca":7271,"boN":7272,"Ġskram":7273,"kA":7274,"Ġtaem":7275,"ĠhtimS":7276,"dlroW":7277,"rebmun":7278,"edam":7279,"Ġstnemnrevog":7280,"aci":7281,"ido":7282,"Ġevitucexe":7283,"Ġlisso":7284,"tnirp":7285,"Ġmm":7286,"Ġfeileb":7287,"rei":7288,"hpro":7289,"gnir":7290,"Ġgniya":7291,"Ġlatned":7292,"gnaB":7293,"nomrah":7294,"Ġlatipsoh":7295,"Ġnoitartsinimda":7296,"sru":7297,"Ġselif":7298,"Ġylwen":7299,"htrA":7300,"amA":7301,"Ġnoitpirc":7302,"pmorp":7303,"Ġdettimmoc":7304,"tsulc":7305,"5791":7306,"htiaf":7307,"sroh":7308,"HW":7309,"Ġtfos":7310,"ĠeulB":7311,"Ġnov":7312,"ĠrewoP":7313,"ĠllabtooF":7314,"Ġgniyrrac":7315,"ffA":7316,"gru":7317,"setebaid":7318,"ĠygolonhceT":7319,"ylevitcepser":7320,"oni":7321,"srotcaf":7322,"Ġresolc":7323,"Ġlatsaoc":7324,"ziroh":7325,"tsany":7326,"ohC":7327,"2891":7328,"88":7329,"Ġseitrap":7330,"Ġenalp":7331,"Ã¨":7332,"tsartnoc":7333,"Ġ8102":7334,"Ġsdees":7335,"ara":7336,"Ġdexif":7337,"rutsid":7338,"Ġsemoh":7339,"Ġstcapmi":7340,"Ġdeipucco":7341,"Ġetalp":7342,"sediw":7343,"retaW":7344,"Ġlennahc":7345,"TE":7346,"Ġdelt":7347,"Ġnworb":7348,"Ġlanois":7349,"hgie":7350,"Ġtcepxe":7351,"ĠlortnoC":7352,"syd":7353,"tniap":7354,"suhcassaM":7355,"ndluo":7356,"Ġgnihcaer":7357,"emas":7358,"uqhtrae":7359,"Ġseuga":7360,"rehtorb":7361,"tuoba":7362,"Ġyrotirret":7363,"Ġdemrifnoc":7364,"arC":7365,"tnemele":7366,"soped":7367,"lcycer":7368,"aissuR":7369,"Ġretuo":7370,"aT":7371,"toP":7372,"Ġegagne":7373,"Ġesahcrup":7374,"narI":7375,"stniop":7376,"tesuhcassaM":7377,"ĠyellaV":7378,"Ġevisneherpmoc":7379,"corP":7380,"selaW":7381,"ĠcimalsI":7382,"Ġgniyduts":7383,"ruen":7384,"Ġkcots":7385,"hpsohp":7386,"Ġdaorb":7387,"Ġdedrager":7388,"Ġthgiarts":7389,"sela":7390,"tsiom":7391,"Ġsrewop":7392,"Ġgnicaf":7393,"goR":7394,"Ġrewef":7395,"seert":7396,"Ġthgieh":7397,"75":7398,"Ġsgge":7399,"Ġsllaw":7400,"cidda":7401,"ihni":7402,"tnioppa":7403,"Ġytnuoc":7404,"yrevE":7405,"diloh":7406,"1891":7407,"ohw":7408,"niatirB":7409,"nivorp":7410,"Ġdaerp":7411,"icepS":7412,"daorB":7413,"retupmoc":7414,"rahS":7415,"aK":7416,"sdnuo":7417,"ĠaisA":7418,"Ġylreporp":7419,"gnahC":7420,"Ġtsitra":7421,"Ġstroppus":7422,"aidem":7423,"ĠrojaM":7424,"luaP":7425,"Ġmsit":7426,"Ġelit":7427,"Ġada":7428,"tab":7429,"Ġyraropmet":7430,"ĠnraeL":7431,"Ġdetisiv":7432,"Ġytterp":7433,"etihw":7434,"RU":7435,"Ġnoitceles":7436,"kU":7437,"Ġ;.":7438,"teksab":7439,"lopor":7440,"loW":7441,"rehteN":7442,"ecar":7443,"temolik":7444,"cnitxe":7445,"eussi":7446,"Ã¢":7447,"24":7448,"roD":7449,"ee":7450,"tnemom":7451,"Ġylhguor":7452,"dedeen":7453,"Ġyltneuqesbus":7454,"detce":7455,"Ġreffus":7456,"hgfA":7457,"ĠknaB":7458,"Ġsmu":7459,"Ġerudecorp":7460,"Ġdetu":7461,"Ġdnopser":7462,"BI":7463,"Ġina":7464,"ĠynA":7465,"ihorp":7466,"sdnah":7467,"Ġhtfif":7468,"Ġsui":7469,"yco":7470,"Ġ23":7471,"Ġylurt":7472,"Ġyasse":7473,"luba":7474,"Ġgnisol":7475,"Ġssi":7476,"Ġtilps":7477,"Ġdednapxe":7478,"Ġyppah":7479,"zama":7480,"85":7481,"Ġlairep":7482,"Ġnaig":7483,"nip":7484,"OM":7485,"Ġgnu":7486,"weL":7487,"vaS":7488,"ĠIS":7489,"Ġgnidrocer":7490,"Ġrab":7491,"teef":7492,"Ġeruces":7493,"tsaeht":7494,"krowten":7495,"milsuM":7496,"Ġtops":7497,"yP":7498,"riah":7499,"ssalg":7500,"Ġytisned":7501,"cennoC":7502,"naraug":7503,"ĠemoH":7504,"nimer":7505,"ĠytinummoC":7506,"roproC":7507,"Ġnoitaicossa":7508,"pursid":7509,"etisbew":7510,"5491":7511,"yolped":7512,"sseni":7513,"Ġdial":7514,"psid":7515,"ĠswodniW":7516,"ĠainigriV":7517,"eromrehtruF":7518,"skeew":7519,"nec":7520,"saerced":7521,"Ġycneiciffe":7522,"noitati":7523,"poC":7524,"toM":7525,"snops":7526,"retirc":7527,"Ġv":7528,"snai":7529,"Ġsegap":7530,"eert":7531,"Ġnati":7532,"ĠnworB":7533,"Ġecnatsbus":7534,"Ġlanruoj":7535,"ssor":7536,"Ġgnignirb":7537,"Ġsdoirep":7538,"ralimis":7539,"efiw":7540,"Ġsrewolf":7541,"Ġthguos":7542,"lor":7543,"gduj":7544,"Ġgnirutcafunam":7545,"noitautis":7546,"Ġsehcaorppa":7547,"Ġecivda":7548,"ĠnemoW":7549,"Ġkcilc":7550,"ĠytiruceS":7551,"Ġedisgnola":7552,"maerts":7553,"Ġtfihs":7554,"libom":7555,"Ġthguof":7556,"65":7557,"Ġsnoitan":7558,"Ġnoitide":7559,"Ġyteixna":7560,"Ġrotces":7561,"Ġmroftalp":7562,"ĠsemitemoS":7563,"fil":7564,"maT":7565,"ĠadirolF":7566,"Ġstsitra":7567,"Ġeciton":7568,"Ġylremrof":7569,"ĠneewteB":7570,"Ġstcejbus":7571,"Ġylirassecen":7572,"Ġepoc":7573,"enk":7574,"Ġecitsuj":7575,"Ġane":7576,"ĠlE":7577,"Ġsboj":7578,"6791":7579,"Ġdelur":7580,"itpa":7581,"Ġdebirc":7582,"naS":7583,"Ġfeirb":7584,"tohP":7585,"Ġtupni":7586,"Ġlaicifitra":7587,"kla":7588,"rettam":7589,"iks":7590,"Ġecneuqes":7591,"ycilop":7592,"ĠtsirhC":7593,"Ġsnietorp":7594,"Ġtahwemos":7595,"ĠylimaF":7596,"Ġnekops":7597,"Ġnoitazila":7598,"8791":7599,"Ġcixot":7600,"elhta":7601,"ylg":7602,"Ġnoisnapxe":7603,"noloC":7604,"rugif":7605,"teertS":7606,"Ġlapicnirp":7607,"Ġemu":7608,"des":7609,"culg":7610,"Ġdele":7611,"mret":7612,"ceerG":7613,"riK":7614,"Ġetapicitrap":7615,"retselohc":7616,"riM":7617,"cinummoC":7618,"Ġdetargetni":7619,"Ġdetnarg":7620,"diserP":7621,"Ġtceles":7622,"MT":7623,"Ġknird":7624,"ĠyrarbiL":7625,"namow":7626,"Ġnagro":7627,"Ġderuo":7628,"eerC":7629,"Ġtnerap":7630,"egdirb":7631,"Ġdootsrednu":7632,"naB":7633,"Ġrenwo":7634,"Ġgnorw":7635,"tai":7636,"noitamrof":7637,"2791":7638,"siraP":7639,"naeM":7640,"Ġleets":7641,"noN":7642,"noitazinagro":7643,"Ġdeirub":7644,"htsa":7645,"ĠsiraP":7646,"ĠelbiB":7647,"Ġetunim":7648,"Ġlobmys":7649,"Ġmoc":7650,"Ġror":7651,"dipe":7652,"naclov":7653,"tnemdnemA":7654,"sria":7655,"4791":7656,"Ġshtaed":7657,"nyS":7658,"Ġylgnorts":7659,"seilimaf":7660,"Ġgnireffo":7661,"Ġoc":7662,"ete":7663,"dilos":7664,"Ġgninrut":7665,"netu":7666,"Ġynit":7667,"tpada":7668,"taid":7669,"ay":7670,"gniniart":7671,"ĠtnuoM":7672,"ĠkcaJ":7673,"Ġseeyolpme":7674,"vren":7675,"etatS":7676,"iraV":7677,"eulb":7678,"ngissa":7679,"Ġnoitullop":7680,"Ġgniward":7681,"siW":7682,"ropmet":7683,"Ġriaf":7684,"PG":7685,"kaB":7686,"srebmun":7687,"ĠatnaS":7688,"Ġnoissimsnart":7689,"gnieb":7690,"Ġevlovni":7691,"ST":7692,"Ġdeec":7693,"Ġgnimmargorp":7694,"Ġstup":7695,"elttab":7696,"ĠbulC":7697,"llaG":7698,"77":7699,"ASU":7700,"ĠtnemeganaM":7701,"tsnoC":7702,"liug":7703,"Ġ)%":7704,"Ġlufpleh":7705,"FI":7706,"ecneicS":7707,"ĠnaM":7708,"Ġdetubirtsid":7709,"Ġsmlif":7710,"Ġseitirohtua":7711,"Ġytlu":7712,"yllau":7713,"Ġtcepsa":7714,"Ġhturt":7715,"Ġeniccav":7716,"Ġgnittup":7717,"Ġnag":7718,"Ġegatnecrep":7719,"Ġrednuof":7720,"nedi":7721,"ET":7722,"ecruos":7723,"ylno":7724,"liG":7725,"Ġroinu":7726,"Ġelpicnirp":7727,"ĠnaeroK":7728,"crA":7729,"lliV":7730,"laed":7731,"snoitacilppa":7732,"Ġlissof":7733,"Ġtcaxe":7734,"86":7735,"ad":7736,"epyt":7737,"nan":7738,"DF":7739,"gilbo":7740,"9691":7741,"Ġtaeb":7742,"yaT":7743,"ripS":7744,"Ġyrotciv":7745,"elA":7746,"seirutnec":7747,"taeh":7748,"sO":7749,"Ġaz":7750,"Ġmrots":7751,"sdoof":7752,"miws":7753,"LI":7754,"inI":7755,"eripmE":7756,"Ġlanoitcnuf":7757,"Ġteehs":7758,"llim":7759,"Ġtatibah":7760,"ruK":7761,"Ġderrefsnart":7762,"Ġsnoisrev":7763,"14":7764,"traped":7765,"Ġdetangised":7766,"onil":7767,"referp":7768,"Ġselcihev":7769,"Ġtlas":7770,"ĠekuD":7771,"Ġylevis":7772,"mro":7773,"imerp":7774,"Ġag":7775,"ruatser":7776,"Ġgnikaerb":7777,"Ġesirp":7778,"Ġgnimrofrep":7779,"segaugnal":7780,"rorret":7781,"Ġdetartsnomed":7782,"niapS":7783,"Ġlacinahcem":7784,"siw":7785,"resni":7786,"Ġtiforp":7787,"ssenk":7788,"yrau":7789,"Ġtnemelttes":7790,"Ġgninim":7791,"redefnoC":7792,"htym":7793,"ynapmoC":7794,"Ã§":7795,"Ġxim":7796,"RC":7797,"mal":7798,"elE":7799,"parehto":7800,"ĠecitsuJ":7801,"tnA":7802,"reerac":7803,"tew":7804,"emoR":7805,"nneK":7806,"Ġylivaeh":7807,"enod":7808,"Ġsecneuqesnoc":7809,"dnoceS":7810,"Ġdelttes":7811,"AI":7812,"Ġhtiaf":7813,"Ġytluciffid":7814,"nwoD":7815,"ĠsamtsirhC":7816,"niba":7817,"isyhp":7818,"itinI":7819,"Ġlacissalc":7820,"redeF":7821,"Ġkciuq":7822,"retiL":7823,"ĠsweN":7824,"Ġdnemmocer":7825,"modgniK":7826,"Ġdesahcrup":7827,"esiw":7828,"gnorw":7829,"ripser":7830,"suS":7831,"bmemer":7832,"onillI":7833,"Ġsrep":7834,"nutrofnU":7835,"Ġgnittuc":7836,"Ġrehtien":7837,"irepus":7838,"Ġwollef":7839,"nemoW":7840,"Ġyldneirf":7841,"Ġytrevop":7842,"Ġnegor":7843,"1791":7844,"Ġylwols":7845,"Ġsga":7846,"ĠekilnU":7847,"Ġdetubirtnoc":7848,"Ġdegagne":7849,"ĠnredoM":7850,"Ġretpahc":7851,"Ġyrarbil":7852,"Ã±":7853,"ffeJ":7854,"Ġyregrus":7855,"ĠrorepmE":7856,"LC":7857,"yes":7858,"Ġgniwor":7859,"nimon":7860,"Ġtsartnoc":7861,"Ġgniylrednu":7862,"erD":7863,"tops":7864,"Ġetov":7865,"manruot":7866,"redna":7867,"noitaicossA":7868,"Ġtneuqerf":7869,"pinam":7870,"Ġecnivorp":7871,"sseleht":7872,"Ġnoitingocer":7873,"Ġstneirtun":7874,"flesmih":7875,"Ġsdnif":7876,"molpid":7877,"bmuN":7878,"ywal":7879,"aG":7880,"Ġcito":7881,"Ġetag":7882,"Ġenilced":7883,"Ġtamrof":7884,"Ġstnemucod":7885,"Ġdeniatniam":7886,"Ġnossel":7887,"Ġdetrevnoc":7888,"oK":7889,"Ġsgnileef":7890,"Ġgnirevoc":7891,"Ġelggurts":7892,"cida":7893,"snecil":7894,"sserd":7895,"iranecs":7896,"kcihc":7897,"taehT":7898,"Ġlufmrah":7899,"sdrib":7900,"reseR":7901,"pocs":7902,"nsaw":7903,"ssergorp":7904,"Ġlate":7905,"Ġnaci":7906,"noitcele":7907,"Ġslia":7908,"tnevni":7909,"Ġecnednepedni":7910,"3791":7911,"yR":7912,"tiH":7913,"Ġgnikees":7914,"Ġselor":7915,"revoeroM":7916,"7791":7917,"Ġsisongaid":7918,"erutarepmet":7919,"Ġenecs":7920,"ĠcipmylO":7921,"Ġhcnual":7922,"mrahp":7923,"Ġstnuocca":7924,"ES":7925,"gnah":7926,"Ġdellatsni":7927,"ĠSI":7928,"nrut":7929,"Ġreciffo":7930,"Ġenifed":7931,"Ġsseldra":7932,"Ġsesruoc":7933,"citon":7934,"nK":7935,"Ġerised":7936,"toB":7937,"noissimmoc":7938,"narF":7939,"Ġlacigolohcysp":7940,"norb":7941,"Ġstnemtaert":7942,"Ġdenrae":7943,"Ġralucelom":7944,"Ġrotinom":7945,"Ġsllaf":7946,"Ġlairts":7947,"Ġnegordyh":7948,"Ġstseretni":7949,"iloP":7950,"Ġelbaredisnoc":7951,"Ġecnahne":7952,"Ġsserpxe":7953,"VT":7954,"raF":7955,"Ġsecirp":7956,"yrassecen":7957,"ĠeeL":7958,"snetni":7959,"Ġstsila":7960,"ĠpeeK":7961,"Ġ9102":7962,"uK":7963,"Ġecnavda":7964,"Ġsretrauq":7965,"Ġrotce":7966,"ĠrD":7967,"Ġkcip":7968,"yrd":7969,"noitarepo":7970,"Ġstnemevom":7971,"nomroh":7972,"Ġdlohesuoh":7973,"ssiM":7974,"cib":7975,"Ġsrel":7976,"kramer":7977,"cE":7978,"ĠretpahC":7979,"Ġhsiw":7980,"MI":7981,"Ġsessenisub":7982,"Ġspit":7983,"Ġekal":7984,"zA":7985,"reffiD":7986,"lid":7987,"dilav":7988,"sdneirf":7989,"Ġtalf":7990,"yteicoS":7991,"erbeH":7992,"dle":7993,"ĠrO":7994,"Ġhtoot":7995,"decerp":7996,"Ġdesiv":7997,"oep":7998,"tih":7999,"BSI":8000,"dommocca":8001,"egufer":8002,"Ġstnia":8003,"revog":8004,"Ġlanimirc":8005,"Ġderewop":8006,"sedaced":8007,"eurt":8008,"laudividni":8009,"munom":8010,"Ġdelba":8011,"mailrap":8012,"nedrag":8013,"tiuq":8014,"Ġgnilles":8015,"ĠetamilC":8016,"ĠgnoL":8017,"Ġtnemtraped":8018,"Ġyranoitulove":8019,"Ġetomer":8020,"Ġdets":8021,"sod":8022,"revir":8023,"vA":8024,"ĠASAN":8025,"Ġecnegilletni":8026,"Ġdaerpsediw":8027,"ĠdnalerI":8028,"suoicsnoc":8029,"eroeht":8030,"knab":8031,"hpla":8032,"sebo":8033,"aeS":8034,"Ġemeht":8035,"gua":8036,"udniH":8037,"Ġtis":8038,"thguoht":8039,"Ġpohs":8040,"45":8041,"epxe":8042,"snosaer":8043,"Ġsrotcod":8044,"ĠyraterceS":8045,"Ġdetacidni":8046,"Ġtfo":8047,"sdne":8048,"Ġsreciffo":8049,"Ġelbaton":8050,"Ġthguob":8051,"sitra":8052,"Ġsevaw":8053,"seuQ":8054,"nreB":8055,"Ġtubed":8056,"ĠcitarcomeD":8057,"Ġnoituloser":8058,"ppilihP":8059,"WW":8060,"Ġsegats":8061,"lewt":8062,"ekat":8063,"ĠsemiT":8064,"lesruo":8065,"noisiced":8066,"dliW":8067,"89":8068,"Ġsnoitacol":8069,"sitrevda":8070,"ĠnuS":8071,"Ġkcol":8072,"srekrow":8073,"esne":8074,"roporp":8075,"Ġsuounitnoc":8076,"Ġnoitpircsed":8077,"ssecca":8078,"Ġloop":8079,"taB":8080,"pal":8081,"stcejorp":8082,"ine":8083,"rtrop":8084,"redrum":8085,"sdohtem":8086,"Ġenoz":8087,"csaf":8088,"vraH":8089,"Ġgniniatniam":8090,"Ġsthguoht":8091,"Ġteerts":8092,"Ġsretaw":8093,"ĠknarF":8094,"Ġdetalu":8095,"ngocer":8096,"Ġnoisserped":8097,"hcnaM":8098,"noissimmoC":8099,"ĠdesaB":8100,"Ġdeto":8101,"nilC":8102,"Ġsuoit":8103,"Ġsmsinagro":8104,"hcaM":8105,"secxe":8106,"ĠtuohtiW":8107,"Ġyob":8108,"lep":8109,"Ġetercnoc":8110,"muart":8111,"Ġtabmoc":8112,"Ġmrif":8113,"raef":8114,"tnia":8115,"kroW":8116,"robaL":8117,"ĠttocS":8118,"Ġrevlis":8119,"iliffa":8120,"Ġgnisuoh":8121,"Ġselb":8122,"ralohcs":8123,"eton":8124,"ĠseoD":8125,"LP":8126,"retnE":8127,"urcer":8128,"Ġelbissopmi":8129,"pam":8130,"rotcerid":8131,"Ġscipot":8132,"Ġemarf":8133,"RM":8134,"noigiler":8135,"Ġetartsnomed":8136,"iser":8137,"ĠelbaT":8138,"eciffo":8139,"egamad":8140,"yoB":8141,"ĠNU":8142,"Ġniht":8143,"mon":8144,"Ġkaep":8145,"tuaeb":8146,"ĠhsikruT":8147,"Ġeldnah":8148,"Ġerihs":8149,"ĠepoP":8150,"Ġesnefed":8151,"ĠyvaN":8152,"esnes":8153,"uqni":8154,"timil":8155,"Ġsyob":8156,"nroC":8157,"tsiger":8158,"ĠstrA":8159,"ĠruoF":8160,"enots":8161,"35":8162,"gluB":8163,"ralucitrap":8164,"ĠgnivaH":8165,"Ġsuonegidni":8166,"hprom":8167,"senod":8168,"gnoL":8169,"8691":8170,"Ġlei":8171,"Ġsnot":8172,"Ġdesongaid":8173,"bolg":8174,"senodnI":8175,"iawaH":8176,"segid":8177,"Ġsnoitces":8178,"Ġdetarapes":8179,"Ġtnemugra":8180,"tsevrah":8181,"hcnerF":8182,"snaK":8183,"Ġecnanetniam":8184,"oiB":8185,"Ġselcsum":8186,"Ġecnatsissa":8187,"Ġsredrosid":8188,"oV":8189,"nehw":8190,"Ġtenretni":8191,"giN":8192,"egats":8193,"cnirP":8194,"Ġdeifidom":8195,"noisi":8196,"tnuocca":8197,"Ġswonk":8198,"ĠtnemailraP":8199,"Ġssarg":8200,"iratnO":8201,"cnoc":8202,"seicne":8203,"Ġelbissecca":8204,"ĠhsiloP":8205,"Ġssessa":8206,"un":8207,"Ġwerc":8208,"Ġtsurt":8209,"sah":8210,"sureJ":8211,"ytrap":8212,"yaH":8213,"ĠbeW":8214,"Ġsdnuf":8215,"tnempiuqe":8216,"eroF":8217,"hporp":8218,"ĠnoitadnuoF":8219,"Ġdeugra":8220,"ĠmoT":8221,"Ġtnanimod":8222,"Ġrevres":8223,"ĠhtebazilE":8224,"oda":8225,"zilitref":8226,"Ġraeb":8227,"eV":8228,"ripsni":8229,"wO":8230,"Ġsise":8231,"gnidaer":8232,"Ġerehpsomta":8233,"Ġdegamad":8234,"redael":8235,"porhtna":8236,"Ġymene":8237,"pmI":8238,"civnoc":8239,"Ġswor":8240,"Ġsevom":8241,"remE":8242,"Ġserutcip":8243,"dnaltocS":8244,"reD":8245,"dnaH":8246,"yalaM":8247,"tnegrA":8248,"Ġsg":8249,"tuoR":8250,"seloda":8251,"Ġoiduts":8252,"nneT":8253,"Ġruot":8254,"Ġesuba":8255,"Ġesroh":8256,"oidar":8257,"Ġlaicifeneb":8258,"arce":8259,"Ġkrowemarf":8260,"Ġthguac":8261,"noisserped":8262,"Ġsporc":8263,"snepmoc":8264,"GI":8265,"Ġdam":8266,"Ġetamitse":8267,"lliH":8268,"ĠÄ":8269,"Ġporc":8270,"Ġdeifissalc":8271,"Ġgnilliw":8272,"Ġylriaf":8273,"notnA":8274,"loM":8275,"hteet":8276,"ytivit":8277,"Ġnoitatnemelpmi":8278,"Ġtceted":8279,"Ġsgnirb":8280,"margorP":8281,"uqE":8282,"Ġgnillac":8283,"yE":8284,"Ġgniogno":8285,"Ġrevetahw":8286,"Ġmsinahcem":8287,"oT":8288,"ratiug":8289,"dnuor":8290,"saedi":8291,"isnoC":8292,"aj":8293,"retnec":8294,"ĠlliH":8295,"Ġylerar":8296,"Ġdeziretcarahc":8297,"inevnoc":8298,"elu":8299,"Ġgnili":8300,"Ġlatnemirepxe":8301,"gagne":8302,"Ġgniklaw":8303,"ĠevoL":8304,"95":8305,"Ġlarutcurts":8306,"tcerroc":8307,"ĠeD":8308,"tselaP":8309,"Ġoitar":8310,"cilper":8311,"Ġdereviled":8312,"Ġnoisnet":8313,"Ġsksat":8314,"ii":8315,"ĠnepO":8316,"Ġdrager":8317,"llaH":8318,"yreg":8319,"Ġdaeha":8320,"Ġsretupmoc":8321,"laid":8322,"Ġskco":8323,"ĠmargorP":8324,"Ġswollof":8325,"soB":8326,"arD":8327,"Ġerachtlaeh":8328,"Ġytla":8329,"Ġnoitisnart":8330,"slaog":8331,"hA":8332,"ĠerutaN":8333,"Ġsuoivbo":8334,"regnis":8335,"Ġlayor":8336,"Ġepacse":8337,"Ġretsis":8338,"edoc":8339,"htyhr":8340,"graM":8341,"Ġhcuot":8342,"evil":8343,"SP":8344,"Ġdetpmetta":8345,"ĠnacixeM":8346,"Ġyrevocer":8347,"sreh":8348,"sesoprup":8349,"tsisrep":8350,"Ġyrotarobal":8351,"Ġstserof":8352,"mahc":8353,"ĠertneC":8354,"lpmi":8355,"yrota":8356,"Ġsedu":8357,"etrev":8358,"Ġterces":8359,"Ġcim":8360,"VOC":8361,"Ġgnirutaef":8362,"Ġnoitatne":8363,"ĠteY":8364,"riahc":8365,"Ġderocs":8366,"miceps":8367,"Ġniets":8368,"raeb":8369,"ĠretaL":8370,"Ġsnossel":8371,"Ġerutcurtsarfni":8372,"Ġylerem":8373,"Ġyllaudarg":8374,"sorciM":8375,"Ġdemees":8376,"daoR":8377,"itnereffid":8378,"Ġssertca":8379,"Ġekorb":8380,"Ġima":8381,"tsacdaorb":8382,"Ġthgirb":8383,"7691":8384,"Ġsroloc":8385,"Ġevisserp":8386,"Ġamo":8387,"Ġsreb":8388,"Ġgnilb":8389,"uor":8390,"Ġala":8391,"reblA":8392,"ciloP":8393,"rtsnoc":8394,"noitces":8395,"dnI":8396,"ĠeniraM":8397,"Ġgniksa":8398,"Ġdetpada":8399,"Ġtnaig":8400,"dooh":8401,"ytne":8402,"Ġtnemirepxe":8403,"Ġyrub":8404,"96":8405,"Ġevitartsinimda":8406,"elacs":8407,"carcomed":8408,"Ġelim":8409,"rehS":8410,"darged":8411,"nerdlihC":8412,"llik":8413,"Ġskcart":8414,"tsina":8415,"Ġderiter":8416,"feirb":8417,"ĠpihsnoipmahC":8418,"llah":8419,"Ġeloh":8420,"Ġrepapswen":8421,"stluda":8422,"isrevinu":8423,"pmussa":8424,"slaudividni":8425,"dyS":8426,"srehcaet":8427,"Ġerutam":8428,"Ġocsi":8429,"Ġknu":8430,"ccA":8431,"ĠdnaL":8432,"Ġllib":8433,"VD":8434,"monotua":8435,"sevit":8436,"Ġtac":8437,"Ġdetrop":8438,"Ġgnitneserper":8439,"Ġmuidem":8440,"Ġlellarap":8441,"Ġdevol":8442,"naicitilop":8443,"Ġgnissim":8444,"Ġecneidua":8445,"seig":8446,"daeR":8447,"ĠrotceriD":8448,"ortnI":8449,"Ġmuesum":8450,"nwoT":8451,"Ġetacinummoc":8452,"upmoC":8453,"Ġslangis":8454,"niatnuom":8455,"neves":8456,"Ġdetaroprocni":8457,"Ġllor":8458,"Ġdesoppus":8459,"yromem":8460,"ezC":8461,"Ġdemrofni":8462,"Ġyraretil":8463,"Ġsrood":8464,"Ġsdrac":8465,"Ġini":8466,"metsysoce":8467,"Ġstimil":8468,"Ġgniso":8469,"Ġdoohdlihc":8470,"tliub":8471,"Ġdetsoh":8472,"repxE":8473,"ĠtseroF":8474,"rtaP":8475,"usne":8476,"mottO":8477,"arbA":8478,"Ġretsinim":8479,"nommoC":8480,"Ġsnoitcennoc":8481,"ĠyrtsiniM":8482,"Ġswolf":8483,"Ġgnideerb":8484,"Ġmutna":8485,"hserf":8486,"Ġrevocsid":8487,"raL":8488,"Ġnwonknu":8489,"daetsnI":8490,"ĠsrehcraeseR":8491,"Ġseirutnec":8492,"Ġyllaitnesse":8493,"Ġtsacdaorb":8494,"Ġrecudorp":8495,"Ġsehcni":8496,"Ġair":8497,"Ġsnoitcefni":8498,"Ġesimorp":8499,"Ġssenlli":8500,"nozirA":8501,"fO":8502,"alC":8503,"Ġgninrub":8504,"sweN":8505,"Ġytta":8506,"gnat":8507,"elddi":8508,"Ġ051":8509,"litu":8510,"secived":8511,"erihs":8512,"nips":8513,"Ġsretirw":8514,"ercer":8515,"Ġenimaxe":8516,"tatS":8517,"eid":8518,"Ġlaicar":8519,"ypareht":8520,"87":8521,"ĠoidaR":8522,"10":8523,"rid":8524,"Ġevren":8525,"rod":8526,"Ġstiurf":8527,"lbmessa":8528,"stset":8529,"Ġrennam":8530,"Ġregna":8531,"Ġskcolb":8532,"roirp":8533,"llopA":8534,"Ġnoga":8535,"Ġevivrus":8536,"ĠyadoT":8537,"swen":8538,"Ġgnitad":8539,"Ġlautriv":8540,"git":8541,"Ġsdnalsi":8542,"tneK":8543,"nuonorp":8544,"tut":8545,"trapa":8546,"Ġdnom":8547,"Ġtaefed":8548,"ap":8549,"Ġwodniw":8550,"HN":8551,"Ġgniylf":8552,"ugutroP":8553,"AA":8554,"Ġnob":8555,"Ġnosre":8556,"Ġenon":8557,"Ġselucelom":8558,"remmus":8559,"seY":8560,"Ġscir":8561,"seitic":8562,"Ġgnidneps":8563,"Ġseire":8564,"Ġdeppord":8565,"Ġdedulcnoc":8566,"dah":8567,"Ġyadyreve":8568,"Ġllabesab":8569,"Ġgnirts":8570,"eet":8571,"Ġemirc":8572,"Ġloco":8573,"ytreporp":8574,"smu":8575,"Ġsnik":8576,"nietorp":8577,"talP":8578,"psus":8579,"Ġesor":8580,"tseuqer":8581,"jaR":8582,"imerP":8583,"Ġdeltit":8584,"Ġdeinapmocca":8585,"Ġpohsib":8586,"Ġik":8587,"wons":8588,"ĠecnerefnoC":8589,"laK":8590,"eugaeL":8591,"Ġelbarenluv":8592,"Ġsecuder":8593,"gnirps":8594,"Ġdeppots":8595,"enoip":8596,"DG":8597,"laitne":8598,"Ġsessap":8599,"ressa":8600,"Ġtnemurtsni":8601,"Ġycnega":8602,"Ġeve":8603,"tlusnoc":8604,"TC":8605,"Ġgniredisnoc":8606,"Ġselas":8607,"RP":8608,"Ġetamit":8609,"evif":8610,"Ġsdnuorg":8611,"licnuoC":8612,"Ġdegaruocne":8613,"Ġlausunu":8614,"secalp":8615,"Ġsrete":8616,"Ġelbawener":8617,"purroc":8618,"lO":8619,"lesreh":8620,"ĠDC":8621,"Ġseitilib":8622,"Ġserudecorp":8623,"dua":8624,"Ġesuohneerg":8625,"Ġgnitniap":8626,"ĠruhtrA":8627,"lobatem":8628,"Ġaro":8629,"ĠlacoL":8630,"Ġsisirc":8631,"Ġytini":8632,"Ġssecxe":8633,"Ġyenruoj":8634,"Ġyllanoit":8635,"âĢ":8636,"ĠFO":8637,"ehttaM":8638,"llip":8639,"Ġliame":8640,"cnas":8641,"leber":8642,"Ġssele":8643,"Ġenizagam":8644,"Ġyrettab":8645,"reK":8646,"Ġetirovaf":8647,"ĠpoT":8648,"ĠaibmuloC":8649,"htab":8650,"Ġgnisiar":8651,"Ġmuiclac":8652,"Ġdray":8653,"Ġdesufer":8654,"Ġyhposolihp":8655,"Ġtcelloc":8656,"Ġnoitisoppo":8657,"LM":8658,"Ġyltnatsnoc":8659,"Ġstnemirepxe":8660,"Ġgninrecnoc":8661,"seggus":8662,"noitacol":8663,"ano":8664,"ludehcs":8665,"egnar":8666,"naici":8667,"Ġteop":8668,"noitacudE":8669,"50":8670,"mys":8671,"Ġecnesba":8672,"Ġylluferac":8673,"Ġgnignar":8674,"sme":8675,"Ġdenif":8676,"tnuoc":8677,"maD":8678,"Ġelbatrofmoc":8679,"Ġssenevit":8680,"elpmoC":8681,"Ġnoitnem":8682,"ecaF":8683,"Ġsenob":8684,"bira":8685,"reboR":8686,"Ġsknab":8687,"ĠtsaoC":8688,"Ġrewolf":8689,"ĠydutS":8690,"semoh":8691,"ides":8692,"cilpxe":8693,"))":8694,"5691":8695,"pircsu":8696,"Ġnoitneverp":8697,"Ġmulucirruc":8698,"ĠnotsoB":8699,"Ġtiucric":8700,"Ġrentrap":8701,"hce":8702,"etoN":8703,"efiL":8704,"eil":8705,"yob":8706,"Ġeeffoc":8707,"Ġlainoloc":8708,"uC":8709,"Ġgnirut":8710,"ĠsuhT":8711,"Ġecnarusni":8712,"ĠSM":8713,"TU":8714,"Ġesod":8715,"nobrac":8716,"snoitarepo":8717,"ylf":8718,"Ġnoitcaretni":8719,"erutaretil":8720,"tiP":8721,"Ġtnatsissa":8722,"Ġgnilaed":8723,"evol":8724,"Ġsesucof":8725,"cirtsiD":8726,"Ġgnits":8727,"issi":8728,"Ġtrepxe":8729,"Ġnoinipo":8730,"Ġyrotcaf":8731,"Ġrorre":8732,"Ġevitcejbo":8733,"troP":8734,"dluoc":8735,"air":8736,"Ġgnitneverp":8737,"rotom":8738,"elur":8739,"ihcrA":8740,"Ġlarot":8741,"icnA":8742,"av":8743,"Ġstnemurtsni":8744,"Ġ,)\"":8745,"mui":8746,"laog":8747,"rbiv":8748,"36":8749,"cco":8750,"Ġlooc":8751,"Ġseugaelloc":8752,"laD":8753,"taderp":8754,"elF":8755,"smsi":8756,"rederF":8757,"Ġyleti":8758,"vaeH":8759,"gnul":8760,"Ġselbategev":8761,"hguone":8762,"roL":8763,"ĠNBSI":8764,"Ġiks":8765,"xalag":8766,"eiD":8767,"Ġelbid":8768,"4691":8769,"orciM":8770,"Ġeslaf":8771,"Ġlairetcab":8772,"Ġreviled":8773,"Ġsdnuopmoc":8774,"moS":8775,"Ġdneped":8776,"Ġdednuf":8777,"yK":8778,"leu":8779,"teL":8780,"tsiD":8781,"rtsba":8782,"doolf":8783,"Ġepacsdnal":8784,"Ġecnerefnoc":8785,"saxeT":8786,"ĠnedloG":8787,"Ġtaob":8788,"Ġlaitnatsbus":8789,"enat":8790,"Ġdemaner":8791,"niagA":8792,"kcat":8793,"tcudorp":8794,"tnereffid":8795,"yrotsiH":8796,"Ġtnemhsilbatse":8797,"ĠlliW":8798,"Ġstsixe":8799,"3202":8800,"ĠmiJ":8801,"lamron":8802,"moib":8803,"sdradnats":8804,"pep":8805,"Ġgnisserp":8806,"htaf":8807,"AF":8808,"Ġetilletas":8809,"Ġsetamitse":8810,"ĠselegnA":8811,"Ġlebal":8812,"Ġsegatnavda":8813,"Ġtseuqer":8814,"Ġlacihpargo":8815,"edart":8816,"Ġsknaht":8817,"irev":8818,"Ġnoitisopmoc":8819,"6691":8820,"sessecorp":8821,"Ġeettimmoc":8822,"Ġnaib":8823,"ĠCBB":8824,"secrof":8825,"rhs":8826,"ĠQ":8827,"Ġ,%":8828,"Ġenrob":8829,"tuper":8830,"Ġgnillet":8831,"suseJ":8832,"Ġlavivrus":8833,"BG":8834,"Ġtiaw":8835,"Ġcihparg":8836,"Ġ57":8837,"drac":8838,"noitcerid":8839,"sredrosid":8840,"woc":8841,"Ġtnema":8842,"ussI":8843,"Ġkaew":8844,"divorP":8845,"Ġmar":8846,"loop":8847,"saP":8848,"ĠwerdnA":8849,"narreti":8850,"sdleif":8851,"ĠnoitutitsnoC":8852,"Ġesohc":8853,"Ġ63":8854,"Ġlag":8855,"Ġtnatsiser":8856,"siR":8857,"ĠylatI":8858,"Ġdevlove":8859,"Ġekatni":8860,"nosiop":8861,"edo":8862,"Ġdedaeh":8863,"ĠbarA":8864,"Ġdnarb":8865,"temoeg":8866,"olb":8867,"Ġelpmet":8868,"adirolF":8869,"Ġetabed":8870,"elif":8871,"sgnidliub":8872,"Ġnoitacilbup":8873,"Ġelbit":8874,"koT":8875,"ercnI":8876,"Ġelbailer":8877,"Ġskaerb":8878,"ĠboB":8879,"Ġ>":8880,"ecneref":8881,"NC":8882,"ĠrecnaC":8883,"Ġsdaeh":8884,"retla":8885,"Ġdetnalp":8886,"Ġefildliw":8887,"Ġ0202":8888,"ytraP":8889,"ĠelcitrA":8890,"elpoeP":8891,"Ġsdno":8892,"ĠnaV":8893,"ĠezirP":8894,"xaler":8895,"Ġaremac":8896,"ĠnihtiW":8897,"oz":8898,"Ġsees":8899,"ĠylbmessA":8900,"ej":8901,"Ġsehca":8902,"ĠmliF":8903,"Ġ7991":8904,"Ġsralohcs":8905,"por":8906,"yk":8907,"gamI":8908,"rella":8909,"Ġnoom":8910,"Ġgnitaert":8911,"Ġerohs":8912,"Ġtnemniat":8913,"tsurt":8914,"ĠkcehC":8915,"stifeneb":8916,"noitulos":8917,"stnemele":8918,"cejorP":8919,"ahc":8920,"legna":8921,"sai":8922,"Ġediwdlrow":8923,"Ġpmac":8924,"egami":8925,"Ġnosirapmoc":8926,"kcehc":8927,"Ġsuoro":8928,"ĠgnidliuB":8929,"tiwS":8930,"alp":8931,"Ġnaeb":8932,"ĠrepuS":8933,"ssaP":8934,"Ġdekcatta":8935,"sirpmoc":8936,"Ġsesne":8937,"Ġegatlov":8938,"Ġworran":8939,"Ġsdaor":8940,"dahs":8941,"Ġdetarbelec":8942,"Ġesabatad":8943,"Ġsnoissim":8944,"Ġnoitatropsnart":8945,"Ġenitna":8946,"rotca":8947,"Ġ56":8948,"ffats":8949,"ĠVIH":8950,"ttaB":8951,"tfarc":8952,"Ġsenilediug":8953,"doR":8954,"yA":8955,"Ġdef":8956,"Ġetaulave":8957,"nortcele":8958,"Ġedixoid":8959,"narretideM":8960,"Ġytilicaf":8961,"Ġsnopaew":8962,"Ġlacitamehtam":8963,"Ġpirt":8964,"Ġnoitirtun":8965,"iod":8966,"pla":8967,"Ġremusnoc":8968,"Ġnoitaroballoc":8969,"graL":8970,"Ġsuoici":8971,"ksalA":8972,"ĠnaitpygE":8973,"Ġegasu":8974,"Ġnoitcurtsed":8975,"bro":8976,"Ġgnihsif":8977,"san":8978,"loB":8979,"Ġtnemelpmi":8980,".'":8981,"smret":8982,"Ġseilppus":8983,"dnap":8984,"Ġdemussa":8985,"Ġ6991":8986,"Ġronoh":8987,"15":8988,"rettub":8989,"Ġhcni":8990,"noisu":8991,"erew":8992,"Ġezilaer":8993,"Ġsuovren":8994,"Ġfael":8995,"lohtaC":8996,"seman":8997,"Ġgnitsisnoc":8998,"meS":8999,"noitnetta":9000,"tenalp":9001,"haB":9002,"rh":9003,"paN":9004,"Ġgnitaeh":9005,"ubirt":9006,"niets":9007,"moD":9008,"goL":9009,"rdyhob":9010,"swollof":9011,"nevni":9012,"yletanutrofnU":9013,"DIA":9014,"Ġdelp":9015,"laicos":9016,"Ġfoorp":9017,"Ġnoitapicitrap":9018,"ĠepyT":9019,"Ġsredaer":9020,"Ġdedeeccus":9021,"ugnil":9022,"ĠniapS":9023,"Ġstuo":9024,"Ġdetalsnart":9025,"ĠegA":9026,"Ġerup":9027,"Ġsnoitautis":9028,"ruoT":9029,"niS":9030,"zlA":9031,"tsE":9032,"ĠocsicnarF":9033,"siruj":9034,"irD":9035,"Ġdeedni":9036,"maL":9037,"Ġdemia":9038,"soh":9039,"ĠaniloraC":9040,"ĠleinaD":9041,"yeno":9042,"lohcS":9043,"Ġais":9044,"Ġtno":9045,"Ġhctac":9046,"Ġtrapa":9047,"Ġok":9048,"ĠstsitneicS":9049,"orG":9050,"Ġlariv":9051,"ĠhsidewS":9052,"Ġlamreht":9053,"ilu":9054,"OL":9055,"citne":9056,"Ġdetomorp":9057,"ĠhcihW":9058,"daeL":9059,"Ġepocs":9060,"crofne":9061,"mm":9062,"oreh":9063,"noitnev":9064,"Ġstra":9065,"ĠVI":9066,"seulav":9067,"ruD":9068,"artxe":9069,"tihW":9070,"tirri":9071,"noppo":9072,"rtsehc":9073,"Ġruoloc":9074,"ruaL":9075,"sdroceR":9076,"Ġresopmoc":9077,"snoiger":9078,"lehw":9079,"ĠrehtehW":9080,"Ġslanoisseforp":9081,"Ġ006":9082,"trops":9083,"llE":9084,"ruobhgien":9085,"noci":9086,"tilim":9087,"25":9088,"gaporp":9089,"nnac":9090,"4491":9091,"nosni":9092,"Ġdetautis":9093,"Ġgnile":9094,"Ġnig":9095,"sedo":9096,"seinapmoc":9097,"ĠANR":9098,"ĠtneicnA":9099,"Ġnoitacifit":9100,"secitcarp":9101,"cudortnI":9102,"truoc":9103,"nuP":9104,"esnopser":9105,"Ġelbairav":9106,"teG":9107,"nurB":9108,"oi":9109,"niK":9110,"ĠnoitatS":9111,"evitca":9112,"Ġlautcelletni":9113,"Ġdeltitne":9114,"Ġyrogetac":9115,"Ġsmsinahcem":9116,"rammus":9117,"005":9118,"nimoD":9119,"eJ":9120,"saert":9121,"FE":9122,"Ġyortsed":9123,"hturt":9124,"ĠgnieB":9125,"Ġtneloiv":9126,"Ġlliks":9127,"Ġsen":9128,"tamma":9129,"itluM":9130,"Ġhtne":9131,"Ġtsen":9132,"Ġgniunitnoc":9133,"urB":9134,"Ġyendik":9135,"isrevortnoc":9136,"tog":9137,"ecnedive":9138,"ssentiw":9139,"dloh":9140,"dnaM":9141,"Ġstsa":9142,"Ġyd":9143,"yn":9144,"miH":9145,"ĠcimonocE":9146,"enatlumis":9147,"itnedI":9148,"sisab":9149,"Ġegassap":9150,"Ġ4991":9151,"Ġdnetxe":9152,"Ġgniretne":9153,"Ġsmia":9154,"Ġgnul":9155,"pmahc":9156,"Ġmrah":9157,"rat":9158,"Ġecnetnes":9159,"Ġsisahpme":9160,"senniM":9161,"taerc":9162,"ĠlatigiD":9163,"uossiM":9164,"ĠsecivreS":9165,"ada":9166,"egna":9167,"sv":9168,"lpmis":9169,"Ġ33":9170,"Ġgniwonk":9171,"mrone":9172,"deeps":9173,"ĠssenisuB":9174,"poT":9175,"Ġdnabsuh":9176,"Ġseicnega":9177,"ĠydaL":9178,"ĠdniF":9179,"timsnart":9180,"delwonkca":9181,"Ġgnima":9182,"elohw":9183,"miehzlA":9184,"3691":9185,"Ġtirips":9186,"seM":9187,"Ġrevird":9188,"sih":9189,"Ġerapmoc":9190,"Ġemirp":9191,"ĠDI":9192,"yaW":9193,"Ġdetiderc":9194,"Ġytilapicinum":9195,"noisrev":9196,"tic":9197,"dere":9198,"Ġliam":9199,"Ġlagelli":9200,"Ġhsinif":9201,"Ġecnedifnoc":9202,"Ġevitatneserper":9203,"cepsni":9204,"sutats":9205,"Ġknat":9206,"ĠRE":9207,"Ġdiov":9208,"ahxe":9209,"ytilaer":9210,"cepsus":9211,"051":9212,"lanoita":9213,"Ġdetalosi":9214,"Ġyratnem":9215,"ĠdrofxO":9216,"Ġselam":9217,"retaM":9218,"Ġskrowten":9219,"asI":9220,"tsetorP":9221,"Ġnoitaulave":9222,"tuF":9223,"Ġnoitalsigel":9224,"Ġsesnopser":9225,"Ġgninruter":9226,"erofereht":9227,"Ġsrotisiv":9228,"krap":9229,"Ġsnoitacidem":9230,"ĠnosnhoJ":9231,"Ġgnilp":9232,"Ġsnwot":9233,"paR":9234,"vlovni":9235,"Ġtnarg":9236,"enicidem":9237,"icnirP":9238,"aP":9239,"koo":9240,"nat":9241,"ĠizaN":9242,"Ġreggib":9243,"2691":9244,"poH":9245,"teS":9246,"airetcab":9247,"sdna":9248,"Ġdnapxe":9249,"ĠnacilbupeR":9250,"Ġsnoitcurtsni":9251,"Ġyria":9252,"dnecsed":9253,"Ġerutcetihcra":9254,"Ġnoitcnuj":9255,"Ġllabteksab":9256,"Ġtius":9257,"Ġraenil":9258,"Ġemussa":9259,"Ġevissecxe":9260,"Ġ0991":9261,"Ġgnittis":9262,"esicrexe":9263,"69":9264,"cifitrec":9265,"ruoloc":9266,"Ġdeknar":9267,"Ġerutlucirga":9268,"ĠniatpaC":9269,"erevo":9270,"Ġlasrevinu":9271,"uE":9272,"Ġtegdub":9273,"Ġtiart":9274,"htac":9275,"DIVOC":9276,"hcaeT":9277,"cesnoc":9278,"ecaep":9279,"muesuM":9280,"Ġ5991":9281,"Ġtolip":9282,"Ġesion":9283,"Ġdetar":9284,"hsiF":9285,"Ġcissalc":9286,"Ġsrekam":9287,"ĠegaugnaL":9288,"ĠPI":9289,"Ġnosirp":9290,"Ġtnemevorpmi":9291,"ydo":9292,"Ġetanimile":9293,"rK":9294,"ĠfluG":9295,"raes":9296,"ini":9297,"ississiM":9298,"roda":9299,"etutitsnI":9300,"Ġmus":9301,"tneserpeR":9302,"retsym":9303,"deriuqer":9304,"nrael":9305,"nuT":9306,"hcum":9307,"Ġklof":9308,"Ġgnidnopserroc":9309,"htE":9310,"yg":9311,"ĠeoJ":9312,"Ġnik":9313,"tnevda":9314,"Ġtnega":9315,"Ġnoitargim":9316,"stsoc":9317,"Ġytnelp":9318,"yrujni":9319,"Ġybereht":9320,"Ġseirujni":9321,"ytici":9322,"relc":9323,"tpygE":9324,"ĠnlocniL":9325,"Ġseipoc":9326,"xaS":9327,"Ġnatilopor":9328,"Ġegduj":9329,"yregrus":9330,"Ġij":9331,"osla":9332,"ĠretniW":9333,"dnalsi":9334,"esoprup":9335,"enicideM":9336,"MB":9337,"ĠthgiL":9338,"Ġsrewsna":9339,"dnelac":9340,"gnot":9341,"ĠmaeT":9342,"Ġsnos":9343,"seB":9344,"ĠeraC":9345,"itim":9346,"seidob":9347,"Ġliated":9348,"Ġeltsac":9349,"lehwrevo":9350,"sloot":9351,"sav":9352,"ednI":9353,"ĠssalC":9354,"ciR":9355,"Ġdetaeper":9356,"cnivnoc":9357,"Ġdetnemelpmi":9358,"hcuot":9359,"Ġgalf":9360,"tnemmoc":9361,"Ġsretem":9362,"snoitcnuf":9363,"noS":9364,"ĠevetS":9365,"Ġnevorp":9366,"ĠnoitcetorP":9367,"Ġsseldrager":9368,"moloC":9369,"Ġnoitubirtnoc":9370,"Ġseirt":9371,"Ġlaveidem":9372,"Ġnnam":9373,"Ġsmarg":9374,"matiV":9375,"Ġekilnu":9376,"Ġgniraew":9377,"tcid":9378,"Ġaet":9379,"Ġgniganam":9380,"norB":9381,"Ġpag":9382,"ĠenicideM":9383,"noitcetorp":9384,"Ġnoitalsnart":9385,"Ġwerd":9386,"Ġoidua":9387,"deid":9388,"Ġgnirrucco":9389,"ĠIA":9390,"Ġtsud":9391,"Ġdednuorrus":9392,"Ġgnimraw":9393,"ĠkcilC":9394,"latipsoh":9395,"Ġalli":9396,"Ġsehcru":9397,"siH":9398,"stcejbo":9399,"Ġseveileb":9400,"hcraM":9401,"ĠhcuM":9402,"tcejbus":9403,"Ġtneca":9404,"Ġpuc":9405,"seitreporp":9406,"flA":9407,"mixorp":9408,"ĠremmuS":9409,"ĠetaneS":9410,"rehtaew":9411,"Ġseiroeht":9412,"ĠspahreP":9413,"ĠekiM":9414,"9391":9415,"ĠnehpetS":9416,"lahp":9417,"seir":9418,"noitcurtsnoc":9419,"pircsunam":9420,"ĠeL":9421,"dohteM":9422,"nrub":9423,"Ġsuneg":9424,"rotciv":9425,"tsoC":9426,"Ġhtneet":9427,"ytefas":9428,"Ġtsli":9429,"enilno":9430,"Ġhsup":9431,"tsinimda":9432,"Ġykcu":9433,"nuB":9434,"OT":9435,"sylanA":9436,"67":9437,"Ġnoitatneserper":9438,"colla":9439,"ĠdlihC":9440,"2491":9441,"drawrof":9442,"ytiruces":9443,"toH":9444,"Ġgnirusaem":9445,"Ġnroc":9446,"Ġylevitca":9447,"Ġnoitnevretni":9448,"Ġyllauqe":9449,"ahw":9450,"yT":9451,"iaT":9452,"ediV":9453,"siseht":9454,"Ġlaever":9455,"deW":9456,"Ġstnemmoc":9457,"Ġsuoicsnoc":9458,"1691":9459,"EI":9460,"kcol":9461,"rehcaet":9462,"Ġesnetni":9463,"Ġsnoitaluger":9464,"Ġdezis":9465,"Ġderised":9466,"ĠkcoR":9467,"nehT":9468,"Ġstsil":9469,"yrbme":9470,"Ġsehcnarb":9471,"sarap":9472,"lliB":9473,"Ġerutxim":9474,"sepyt":9475,"Ġedom":9476,"Ġsreyal":9477,"Ġgnikci":9478,"ĠDNA":9479,"tcejbo":9480,"remun":9481,"Ġlavomer":9482,"duS":9483,"8491":9484,"Ġecneh":9485,"aira":9486,"Ġtsgno":9487,"grella":9488,"nrob":9489,"Ġtsewol":9490,"cratnA":9491,"Ġnoisnetxe":9492,"Ġneddih":9493,"Ġnoitcurtsni":9494,"lipup":9495,"Ġesuo":9496,"Ġ....":9497,"lleb":9498,"lavitse":9499,"60":9500,"nnahC":9501,"dniL":9502,"SD":9503,"namor":9504,"OP":9505,"ĠdrihT":9506,"Ġgniro":9507,"ĠdravraH":9508,"lopo":9509,"Ġroiretni":9510,"tsinahgfA":9511,"Ġnoisavni":9512,"Ġsmitciv":9513,"htoot":9514,"gniwollof":9515,"Ġeniw":9516,"tingam":9517,"68":9518,"Ġita":9519,"ĠnamottO":9520,"Ġyrotaripser":9521,"litref":9522,"ima":9523,"Ġssene":9524,"yD":9525,"Ġgnitomorp":9526,"Ġnoitaterpretni":9527,"Ġsw":9528,"erawtfos":9529,"lufsseccus":9530,"ymrA":9531,"ĠetoN":9532,"Ġdekca":9533,"llu":9534,"Ġsehcaer":9535,"VIH":9536,"ĠsicnarF":9537,"dees":9538,"tuhs":9539,"Ġdetani":9540,"Ġtsitneics":9541,"itapmoc":9542,"manteiV":9543,"seuqinhcet":9544,"biraC":9545,"Ġregnorts":9546,"Ġevitcepsrep":9547,"llit":9548,"yp":9549,"Ġetadidnac":9550,"ĠâĨ":9551,"Ġnoitacidem":9552,"Ġebyam":9553,"llaF":9554,"zilitu":9555,"Ġdevlos":9556,"Ġytilibi":9557,"Ġserots":9558,"1491":9559,"hk":9560,"irbyh":9561,"naecO":9562,"ĠkcaB":9563,"of":9564,"golb":9565,"gae":9566,"ĠsenoJ":9567,"RT":9568,"ainigriV":9569,"elpmis":9570,"ruoF":9571,"Ġrediw":9572,"ylkciuq":9573,"Ġgninraw":9574,"ĠnoitceS":9575,"norhC":9576,"raT":9577,"Ġkcabdeef":9578,"Ġslessev":9579,"nevo":9580,"epahs":9581,"tsiL":9582,"Ġ43":9583,"rome":9584,"sgurd":9585,"ylba":9586,"yhpo":9587,"Ġekops":9588,"Ġtrams":9589,"isbus":9590,"98":9591,"lob":9592,"Ġ2991":9593,"gneB":9594,"AD":9595,"Ġnoitanalpxe":9596,"ĠrevewoH":9597,"noitareneg":9598,"Ġstxet":9599,"ato":9600,"Ġsnoitcaer":9601,"neh":9602,"cisyhp":9603,"demrof":9604,"icremmoc":9605,"ĠretsaM":9606,"snaciremA":9607,"rutas":9608,"Ġcitsiretcarahc":9609,"trats":9610,"wei":9611,"rtcod":9612,"ĠteL":9613,"ĠtraeH":9614,"ropsnart":9615,"Ġpih":9616,"\"?":9617,"Ġgnillaf":9618,"Ġdetnem":9619,"Ġslortnoc":9620,"dedne":9621,"Ġman":9622,"gerG":9623,"Ġdir":9624,"troF":9625,"hsarc":9626,"Ġsenihcam":9627,"Ġsetutits":9628,"cexE":9629,"ĠgnoH":9630,"ĠaideM":9631,"47":9632,"CD":9633,"Ġlrig":9634,"Ġetuca":9635,"Ġgnitcetorp":9636,"pure":9637,"Ġdnas":9638,"Ġsremusnoc":9639,"Ġeugra":9640,"tammalfni":9641,"ĠairaM":9642,"ĠdnaltocS":9643,"rdyhobrac":9644,"Ġyreviled":9645,"eraw":9646,"Ġskci":9647,"ĠyrraH":9648,"ĠyadnuS":9649,"lleH":9650,"Ġevitcetorp":9651,"Ġcigetarts":9652,"gerO":9653,"modba":9654,"swal":9655,"rehp":9656,"nori":9657,"dedda":9658,"Ġsnoitavresbo":9659,"Ġdrawa":9660,"Ġtnerappa":9661,"Ġdetniap":9662,"ĠkrowteN":9663,"ĠtreblA":9664,"Ġdnetta":9665,"97":9666,"Ġdeit":9667,"Ġtrahc":9668,"tipsoh":9669,"Ġtnecajda":9670,"Ġytud":9671,"Ġdetapicitrap":9672,"naeco":9673,"Ġgnivas":9674,"htapo":9675,"rugifnoc":9676,"Ġsegalliv":9677,"Ġecudortni":9678,"Ġsdica":9679,"cidsiruj":9680,"Ġstac":9681,"laht":9682,"irret":9683,"Ġstcirtsid":9684,"Ġyltrap":9685,"Ġwons":9686,"tcirtsiD":9687,"reveN":9688,"reiP":9689,"ciD":9690,"Ġnaid":9691,"naT":9692,"raped":9693,"tamrof":9694,"Ġnoitammalfni":9695,"gileR":9696,"Ġ',":9697,"Ġmutnauq":9698,"tey":9699,"pecsus":9700,"Ġfeiler":9701,"tiurf":9702,"Ġdessim":9703,"ĠemoR":9704,"ĠytefaS":9705,"Ġhsac":9706,"Ġein":9707,"itaP":9708,"Ġderetsiger":9709,"Ġnoo":9710,"ewroN":9711,"AL":9712,"Ġnrow":9713,"ĠepaC":9714,"ĠtpygE":9715,"ogacihC":9716,"puorG":9717,"dooG":9718,"mrif":9719,"Ġnoci":9720,"naH":9721,"Ġgniyfitnedi":9722,"redrob":9723,"irtap":9724,"Ġsesoprup":9725,"Ġedaced":9726,"ecneloiv":9727,"Ġecnelav":9728,"Ġralucsavo":9729,"Ġrebif":9730,"Ġluferac":9731,"Ġdenetaerht":9732,"ĠsnaitsirhC":9733,"tcirtsid":9734,"Ġyltnerappa":9735,"Ġdesaerced":9736,"caS":9737,"motpm":9738,"nimula":9739,"hpelet":9740,"Ġdecudni":9741,"Ġseloh":9742,"Ġdetacilpmoc":9743,"Ġrotide":9744,"leK":9745,"Ġ84":9746,"htuA":9747,"strop":9748,"Ġdetsixe":9749,"Ġedici":9750,"Ġsngised":9751,"lbmeser":9752,"htnA":9753,"Ġgninioj":9754,"Ġstnega":9755,"Ġnotgni":9756,"Ġsemoctuo":9757,"OG":9758,"Ġnialp":9759,"Ġbal":9760,"ĠsserP":9761,"Ġscisyhp":9762,"Ġdetubirtta":9763,"elcyc":9764,"Ġdraug":9765,"Ġnretsaeht":9766,"Ġhcamots":9767,"iver":9768,"kcit":9769,"Ġcimota":9770,"0091":9771,"noitadnuoF":9772,"Ġnoitairav":9773,"Ġdengi":9774,"liB":9775,"Ġorez":9776,"mup":9777,"Ġsep":9778,"Ġthgis":9779,"Ġnoitagitsevni":9780,"SB":9781,"Ġnedoow":9782,"Ġredaer":9783,"Ġsnoitubirtnoc":9784,"Ġnoitaraperp":9785,"citsep":9786,"Ġretrauq":9787,"sU":9788,"dnaxelA":9789,"Ġcimanyd":9790,"gniw":9791,"puC":9792,"Ġnairotsih":9793,"sevael":9794,"live":9795,"Ġgnitiaw":9796,"ais":9797,"Ġame":9798,"sledom":9799,"groeG":9800,"Ġtsrow":9801,"livirp":9802,"cser":9803,"Ġnoitcif":9804,"ikiW":9805,"stf":9806,"Ġsmo":9807,"ylgni":9808,"stinu":9809,"Ġmad":9810,"Ġdenimaxe":9811,"ĠnwoT":9812,"ĠaigroeG":9813,"aeL":9814,"regnad":9815,"Ġetaredom":9816,"hse":9817,"dum":9818,"eruB":9819,"Ġserutluc":9820,"nivorP":9821,"Ġdera":9822,"pyrc":9823,"Ġseciohc":9824,"ĠsirhC":9825,"ok":9826,"woL":9827,"Ġesrevinu":9828,"Ġsniart":9829,"ĠoihO":9830,"ĠnatsikaP":9831,"giv":9832,"Ġnoitroporp":9833,"yrtsi":9834,"neddus":9835,"Å¡":9836,"rotsecna":9837,"Ġrepeed":9838,"Ġsrevir":9839,"ĠpU":9840,"ralimiS":9841,"Ġ73":9842,"Ġyrtna":9843,"irhtra":9844,"noeL":9845,"ĠseireS":9846,"ĠdaetsnI":9847,"rennam":9848,"lai":9849,"Ġecir":9850,"8591":9851,"Ġgnignellahc":9852,"siL":9853,"eneV":9854,"ĠtfosorciM":9855,"Ġgnihsilbatse":9856,"ltA":9857,"Ġdeifilauq":9858,"ecived":9859,"ĠsnaidnI":9860,"Ġyarra":9861,"70":9862,"Ġepyto":9863,"Ġ1991":9864,"Ġgnigreme":9865,"Ġderreferp":9866,"Ġyltrohs":9867,"Ġ\"!":9868,"Ġreferp":9869,"á¹":9870,"Ġriaper":9871,"rapsnart":9872,"Ġdelb":9873,"Ġrat":9874,"Ġgnisucof":9875,"ĠtnioP":9876,"Ġlatno":9877,"Ġegaw":9878,"Ġdessecorp":9879,"modnar":9880,"Ġdetic":9881,"lubacov":9882,"OF":9883,"ĠeseugutroP":9884,"ĠmadA":9885,"Ġdeviecrep":9886,"Ġelytsefil":9887,"feihc":9888,"Ġecnedneped":9889,"ĠlitnU":9890,"Ġcitamard":9891,"Ġgel":9892,"ĠZ":9893,"Ġsmoor":9894,"Ġemmargorp":9895,"ĠngiseD":9896,"arcecaps":9897,"Ġlacitrev":9898,"girO":9899,"dloc":9900,"oryht":9901,"ĠraloS":9902,"Ġlacigoloce":9903,"Ġniamod":9904,"Ġgninil":9905,"Ġebut":9906,"Ġetatse":9907,"________":9908,"ffub":9909,"Ġgnikoms":9910,"nigirO":9911,"Ġgolb":9912,"desa":9913,"dner":9914,"Ġsdaer":9915,"ĠeniL":9916,"Ġnmuloc":9917,"Ġknar":9918,"ASAN":9919,"ĠsraM":9920,"eltit":9921,"Ġgge":9922,"Ġevreserp":9923,"Ġtrofmoc":9924,"Ġyttaf":9925,"yaR":9926,"ĠngieroF":9927,"rohtuA":9928,"Ġselamef":9929,"3491":9930,"tseg":9931,"driht":9932,"curtsed":9933,"Ġelbuort":9934,"Ġduolc":9935,"selu":9936,"Ġsnoitcaretni":9937,"Ġevresbo":9938,"itaps":9939,"migeR":9940,"Ġyrasrev":9941,"tsanyd":9942,"Ġnosni":9943,"Ġworht":9944,"ĠesaesiD":9945,"balA":9946,"ĠnoitavresnoC":9947,"enO":9948,"eiL":9949,"tiv":9950,"deerF":9951,"Ġsnoitce":9952,"irtuN":9953,"Ġskcor":9954,"liK":9955,"ĠediuG":9956,"oH":9957,"Ġhtrof":9958,"rtsid":9959,"Ġesoculg":9960,"senneT":9961,"Ġ3991":9962,"tsof":9963,"dlof":9964,"Ġgnitceffa":9965,"Ġdeyojne":9966,"Ġxedni":9967,"yev":9968,"aeroK":9969,"Ġyranoit":9970,"noisivid":9971,"Ġsnruter":9972,"Ġregnad":9973,"Ġgnitnirp":9974,"Ġlive":9975,"kool":9976,"len":9977,"Ġin":9978,"natsikaP":9979,"touq":9980,"gniti":9981,"Ġnoitatneserp":9982,"Ġsremotsuc":9983,"Ġyllacitamotua":9984,"txetnoc":9985,"ĠpetS":9986,"Ġlicnuoc":9987,"potsirhC":9988,"9591":9989,"aet":9990,"nih":9991,"Ġdeci":9992,"Ġnod":9993,"Ġtnangerp":9994,"Ġlarenim":9995,"noitacinummoc":9996,"Ġocca":9997,"Ġhctiws":9998,"Ġgnivomer":9999,"ruN":10000,"Ġaka":10001,"sopsid":10002,"Ġedulc":10003,"Ġgnithgil":10004,"7491":10005,"nworB":10006,"rednA":10007,"Ġesarhp":10008,"Ġtnemerusaem":10009,"stuo":10010,"Ġslairt":10011,"rotS":10012,"Ġdegreme":10013,"enihcam":10014,"cerof":10015,"Ġgnitnuh":10016,"Ġdeppiuqe":10017,"weiveR":10018,"7591":10019,"Ġtbuod":10020,"Ġsnosaes":10021,"Ġhsid":10022,"aedi":10023,"Ġled":10024,"baS":10025,"Ġevitne":10026,"hsilbup":10027,"Ġdetsisnoc":10028,"Ġab":10029,"Ġyrateid":10030,"Ġreka":10031,"ahW":10032,"daetsni":10033,"Ġdenodnaba":10034,"78":10035,"picitna":10036,"zyB":10037,"Ġruoivaheb":10038,"Ġecnadiug":10039,"Ġmodnar":10040,"sitatS":10041,"hctip":10042,"serutcurts":10043,"pagniS":10044,"Ġliar":10045,"wonK":10046,"ĠnoitnevnoC":10047,"dohtrO":10048,"naht":10049,"Ġmc":10050,"Ġdlim":10051,"efinam":10052,"luohs":10053,"oediv":10054,"Ġgniyap":10055,"lohciN":10056,"cnuonna":10057,"Ġrovaf":10058,"ecneg":10059,"hG":10060,"ito":10061,"vaC":10062,"kciht":10063,"nimef":10064,"smra":10065,"somorhc":10066,"reztiwS":10067,"nau":10068,"sesa":10069,"Ġevitavonni":10070,"ycneg":10071,"Ġ83":10072,"rew":10073,"ĠASU":10074,"Ġevals":10075,"ĠoG":10076,"Ġsworg":10077,"nredom":10078,"raeY":10079,"Ġnoitaluger":10080,"Ġnaicisyhp":10081,"Ġgnitsal":10082,"Ġetaicossa":10083,"Ġud":10084,"htrow":10085,"Ġnna":10086,"Ġytidi":10087,"ĠsdroceR":10088,"coc":10089,"klim":10090,"naira":10091,"maJ":10092,"taK":10093,"Ġtsgnoma":10094,"ĠpohsiB":10095,"droJ":10096,"Ġgniraeb":10097,"suriv":10098,"ink":10099,"Ġdehs":10100,"muj":10101,"foor":10102,"Ġelbanosaer":10103,"yloP":10104,"Ġecnacifingis":10105,"Ġgnimraf":10106,"pav":10107,"Ġstcesni":10108,"mert":10109,"Ġreenigne":10110,"Ġsteehs":10111,"Ġsso":10112,"ĠweiveR":10113,"sda":10114,"selet":10115,"Ġelcric":10116,"DH":10117,"tsaved":10118,"sreb":10119,"Ġevitarepo":10120,"lisso":10121,"Ġsrentrap":10122,"muesum":10123,"Ġsrettam":10124,"Ġytisnetni":10125,"Ġq":10126,"Ġgnicneirepxe":10127,"suhtne":10128,"Ġnetsil":10129,"tsaerb":10130,"retsam":10131,"80":10132,"ybab":10133,"diR":10134,"ecruoS":10135,"Ġstiart":10136,"pihc":10137,"etihW":10138,"ĠniatnuoM":10139,"roe":10140,"Ġgnitf":10141,"8191":10142,"ĠneviG":10143,"dega":10144,"Ġelbme":10145,"nas":10146,"gnine":10147,"Ġdetceted":10148,"Ġsdnamed":10149,"tinu":10150,"mahC":10151,"Ġdetnevni":10152,"esaeler":10153,"Ġssenevitceffe":10154,"raeP":10155,"llI":10156,"elS":10157,"ilppa":10158,"ĠeviL":10159,"kcirc":10160,"nuR":10161,"usrep":10162,"aef":10163,"Ġpihsrentrap":10164,"deednI":10165,"Ġegarevoc":10166,"uF":10167,"kcots":10168,"goga":10169,"idats":10170,"Ġsnoitacif":10171,"Ġgnivlos":10172,"Ġyrtsimehc":10173,"Ġspeek":10174,"Ġnoitarts":10175,"Ġweivretni":10176,"Ġgnidnuof":10177,"raluger":10178,"Ġmeop":10179,"itaf":10180,"Ġsrepap":10181,"ĠegatireH":10182,"lles":10183,"Ġsecnatsbus":10184,"cav":10185,"ekam":10186,"ĠyrT":10187,"Ġevlewt":10188,"Ġdetcirtser":10189,"ĠeviF":10190,"gergga":10191,"Ġly":10192,"Ġdetib":10193,"noroc":10194,"6591":10195,"reilrae":10196,"gile":10197,"rbetrev":10198,"Ġkciht":10199,"Ġsdnab":10200,"Ġyrotammalfni":10201,"Ġhcra":10202,"llaB":10203,"Ġdezilaiceps":10204,"Ġanu":10205,"hcrem":10206,"Ġlait":10207,"maj":10208,"Ġslau":10209,"Ġemusnoc":10210,"ĠsemaG":10211,"Ġeo":10212,"Ġlenap":10213,"draC":10214,"Ġreit":10215,"Ġetsat":10216,"regiN":10217,"hcA":10218,"Ġresal":10219,"luJ":10220,"Ġdevreserp":10221,"Ġwob":10222,"ytisrev":10223,"Ġdegnarra":10224,"Ġsegassem":10225,"Ġlacihte":10226,"Ġlaroivaheb":10227,"Ġnugeb":10228,"tnedicca":10229,"gnikniht":10230,"sretcarahc":10231,"yevrus":10232,"Ġemocrevo":10233,"Ġenacirru":10234,"tnaf":10235,"Ġ.]":10236,"dixoitna":10237,"Ġ.%":10238,"Ġaw":10239,"Ġdetanimod":10240,"Ġgnitcennoc":10241,"luS":10242,"Ġekorts":10243,"Ġname":10244,"Ġselbane":10245,"Ġlaitrap":10246,"Ġetaidem":10247,"Ġspam":10248,"ĠweiV":10249,"Ġgnitekram":10250,"Ġdetegrat":10251,"ĠnimatiV":10252,"Ġyllanoisacco":10253,"daR":10254,"ĠDA":10255,"Ġevititepmoc":10256,"ĠsproC":10257,"snocsiW":10258,"Ġgnisse":10259,"ĠlacisyhP":10260,"003":10261,"6491":10262,"Ġlaitnediser":10263,"Ġrob":10264,"Ġyekcoh":10265,"Ġeriw":10266,"ĠlatipsoH":10267,"aso":10268,"Ġ,]":10269,"tsbo":10270,"ilE":10271,"Ġzza":10272,"Ġkcen":10273,"lan":10274,"Ġyllautriv":10275,"ĠTI":10276,"Ġpihsrenwo":10277,"arp":10278,"aets":10279,"Ġtew":10280,"rohT":10281,"selur":10282,"nifni":10283,"Ġain":10284,"toT":10285,"Ġnosir":10286,"ĠdiD":10287,"Ġdetserra":10288,"Ġroirepus":10289,"Ġdetivni":10290,"tenep":10291,"Ġsseler":10292,"stu":10293,"uano":10294,"Ġetulosba":10295,"ĠodaroloC":10296,"itaorC":10297,"seitila":10298,"ngiapmac":10299,"ĠegnahC":10300,"colev":10301,"Ġlacigolonhcet":10302,"Ġrenroc":10303,"Ġenia":10304,"esaB":10305,"buc":10306,"Ġetaroproc":10307,"Ġekirts":10308,"Ġteews":10309,"Ġnoitceted":10310,"hpos":10311,"ĠtropeR":10312,"Ġnoitanimaxe":10313,"Ġevitcelloc":10314,"loT":10315,"snec":10316,"Ġylevi":10317,"thgis":10318,"ĠCI":10319,"Ġroda":10320,"idutS":10321,"Ġdetacude":10322,"snoitautis":10323,"bulC":10324,"Ġstekram":10325,"lar":10326,"ED":10327,"Ġnaga":10328,"etamilc":10329,"dnuora":10330,"egrahc":10331,"Ġsfeileb":10332,"vaJ":10333,"Ġscitilop":10334,"telhta":10335,"dnaR":10336,"erehpsomta":10337,"ssergnoC":10338,"golaid":10339,"pmahC":10340,"serutaef":10341,"lgnaB":10342,"seirots":10343,"Ġgnicalp":10344,"tneduts":10345,"ĠeriF":10346,"Ġdetnemucod":10347,"Ġore":10348,"pmiS":10349,"Ġelas":10350,"ĠycnegA":10351,"nezitic":10352,"ane":10353,"Ġdog":10354,"Ġllup":10355,"Ġgnitisiv":10356,"Ġslaever":10357,"Ġerutsiom":10358,"sedalgnaB":10359,"ĠtnalP":10360,"thgirb":10361,"CM":10362,"hceeps":10363,"Ġnoitanimircsid":10364,"llews":10365,"ĠstropS":10366,"yhtlaeh":10367,"tsuA":10368,"gnadne":10369,"limaH":10370,"Ġnairati":10371,"ĠlraE":10372,"solihP":10373,"Ġpili":10374,"Ġsnoitacilpmi":10375,"Ġtcaretni":10376,"narG":10377,"alo":10378,"Ġotohp":10379,"Ġgninaelc":10380,"ĠNI":10381,"nopseR":10382,"ĠnopU":10383,"Ġis":10384,"nacirfA":10385,"aniloraC":10386,"90":10387,"Ġnoitacifitnedi":10388,"ĠselaW":10389,"Ġtbed":10390,"Ġserocs":10391,"vacxe":10392,"ilpmoc":10393,"Ġsecaps":10394,"Ġstnemerusaem":10395,"geled":10396,"40":10397,"Ġronrevog":10398,"baG":10399,"Ġenom":10400,"Ġsgnin":10401,"segami":10402,"Ġgnitu":10403,"Ġgnihtaerb":10404,"goT":10405,"Ġtnemecalper":10406,"Ġhparg":10407,"node":10408,"ĠlacirotsiH":10409,"Ġdecnalab":10410,"resu":10411,"16":10412,"48":10413,"urD":10414,"ĠdleiF":10415,"ĠdradnatS":10416,"Ġgniriuqer":10417,"Ġkcits":10418,"Ġtolp":10419,"Ġsleef":10420,"girri":10421,"Ġytuaeb":10422,"Ġelca":10423,"Ġekoms":10424,"Ġtnemtimmoc":10425,"goy":10426,"Ġsnoitadnemmocer":10427,"Ġgnineercs":10428,"htna":10429,"Ġciloba":10430,"Ġycnangerp":10431,"ĠleumaS":10432,"26":10433,"ilg":10434,"ĠssorC":10435,"Ġnegortin":10436,"ytnewt":10437,"dnob":10438,"Ġsenots":10439,"xi":10440,"Ġelos":10441,"Ġfoor":10442,"tnemirepxe":10443,"dnac":10444,"Ġytilatrom":10445,"ĠnoitazinagrO":10446,"remo":10447,"retu":10448,"Ġllih":10449,"Ġsuou":10450,"Ġ008":10451,"Î±":10452,"Ġsgel":10453,"ĠwerbeH":10454,"nyL":10455,"9491":10456,"Ġsupmac":10457,"Ġevitcaretni":10458,"CS":10459,"Ġysa":10460,"elihwnaeM":10461,"Ġtciderp":10462,"snoitcefni":10463,"nats":10464,"Ġenigami":10465,"Ġdetcelfer":10466,"naciremA":10467,"Ġcigol":10468,"Ġ9891":10469,"ĠGNI":10470,"Ġlanips":10471,"Ġderoloc":10472,"hsib":10473,"evitcepsrep":10474,"narc":10475,"yz":10476,"ĠetuoR":10477,"sena":10478,"reih":10479,"dew":10480,"draH":10481,"Ġygoloib":10482,"ĠUE":10483,"sea":10484,"strops":10485,"eruliaf":10486,"knil":10487,"redle":10488,"Ġloretselohc":10489,"ĠlairomeM":10490,"rosse":10491,"gnuoy":10492,"paehc":10493,"igleB":10494,"Ġecnassi":10495,"ĠdloG":10496,"Ġyllacisyhp":10497,"lanruoj":10498,"leN":10499,"nepO":10500,"dla":10501,"Ġtp":10502,"flesruoy":10503,"Ġanne":10504,"orF":10505,"enalp":10506,"Ĥ¬":10507,"taS":10508,"dnalaeZ":10509,"Ġdnuopmoc":10510,"Ġytnewt":10511,"5591":10512,"liame":10513,"Ġtnemevlovni":10514,"Ġyer":10515,"lehca":10516,"leks":10517,"Ġnoitp":10518,"netfo":10519,"nilyc":10520,"Ġgnihctaw":10521,"rfni":10522,"Ġpma":10523,"galf":10524,"kce":10525,"semoc":10526,"Ġyllaitrap":10527,"Ġylbmessa":10528,"Ġreppoc":10529,"Ġsusrev":10530,"Ġratiug":10531,"pircS":10532,"Ġetarbelec":10533,"egareva":10534,"Ġyrreb":10535,"Ġgnigami":10536,"Ġ0001":10537,"lausiv":10538,"Ġgnitroper":10539,"Ġseiteirav":10540,"eriter":10541,"Ġdleiy":10542,"Ġyllaretil":10543,"ĠdoolB":10544,"ĠreppU":10545,"Ġyletinifed":10546,"ĠsdnalsI":10547,"sicnarF":10548,"rebmetpeS":10549,"eug":10550,"Ġgninimreted":10551,"locohc":10552,"rW":10553,"Ġdiar":10554,"refeR":10555,"etu":10556,"Ġtsoob":10557,"Ġmurtceps":10558,"nretlA":10559,"Ġrol":10560,"Ġniarg":10561,"Ġonima":10562,"ĠnooM":10563,"8391":10564,"EP":10565,"dal":10566,"Ġesrow":10567,"ĠselpmaxE":10568,"Ġtop":10569,"Ġsretnec":10570,"fniar":10571,"ruQ":10572,"Ġlanoitutitsnoc":10573,"tsissA":10574,"ĠyratiliM":10575,"Ġsegrahc":10576,"OH":10577,"Ġgninetsil":10578,"Ġsniatnuom":10579,"Ġnoihsaf":10580,"romemmoc":10581,"secaf":10582,"ĠnÃ³":10583,"Ġyllanoitidart":10584,"Ġderif":10585,"GA":10586,"Ġaj":10587,"yru":10588,"Ġkcurts":10589,"Ġylbaton":10590,"eseht":10591,"Ġetagitsevni":10592,"Ġsrotca":10593,"soi":10594,"ĠsasnaK":10595,"ilf":10596,"yzne":10597,"sseL":10598,"ibma":10599,"Ġlanoisnemid":10600,"30":10601,"Ġhtxis":10602,"tirreT":10603,"romem":10604,"4591":10605,"Ġdesserdda":10606,"Ġytiralupop":10607,"yhP":10608,"ĠmanteiV":10609,"elbi":10610,"vap":10611,"ĠeciloP":10612,"bahni":10613,"rgarap":10614,"Ġgnibircsed":10615,"ĠpilihP":10616,"Ġhsirap":10617,"Ġralullec":10618,"niard":10619,"ĠkeerC":10620,"elbuod":10621,"ilpma":10622,"ĠsmilsuM":10623,"Ġprahs":10624,"napsiH":10625,"ĠnaecO":10626,"Ġcinego":10627,"Ġstegrat":10628,"fi":10629,"Ġstlu":10630,"Ġdegrem":10631,"hcus":10632,"ssassa":10633,"YN":10634,"Ġdnert":10635,"yW":10636,"ĠleboN":10637,"Ġlacitnedi":10638,"gnoM":10639,"Ġ'.":10640,"Ġsevlesruo":10641,"hpele":10642,"selbategev":10643,"Ġetaler":10644,"yehT":10645,"enuJ":10646,"Ġylkeew":10647,"Ġerotser":10648,"lguoD":10649,"Ġsebirt":10650,"ruolf":10651,"ĠaihpledalihP":10652,"Ġrewot":10653,"myno":10654,"cua":10655,"Ġderehtag":10656,"Ġetatilicaf":10657,"Ġdetadpu":10658,"ĠssiwS":10659,"ĠretlaW":10660,"lliW":10661,"yeK":10662,"dulcxe":10663,"liP":10664,"uqA":10665,"ĠsecneicS":10666,"llet":10667,"Ġselyts":10668,"Ġseirav":10669,"trof":10670,"letnI":10671,"ecno":10672,"Ġgnirusne":10673,"emiT":10674,"Ġsedarg":10675,"ĠgnireenignE":10676,"ĠytaerT":10677,"Ġgnilooc":10678,"ĠnagihciM":10679,"tL":10680,"Ġgnipe":10681,"ĠwehttaM":10682,"noitaN":10683,"drawA":10684,"lanoit":10685,"ĠthgiR":10686,"Ġtibihxe":10687,"Ġaya":10688,"ĠtnemtaerT":10689,"ĠairotciV":10690,"Ġgniyrav":10691,"purretni":10692,"Ġsehctam":10693,"Ġgnidnes":10694,"Ġroodtuo":10695,"sessalc":10696,"Ġsesse":10697,"Ġnoil":10698,"49":10699,"Ġgnidnal":10700,"taem":10701,"lipmoc":10702,"revid":10703,"ĠnoitartsinimdA":10704,"ĠainavlysnneP":10705,"enerp":10706,"FC":10707,"Ġenituor":10708,"tcu":10709,"ĠecaeP":10710,"lesnuoc":10711,"alkO":10712,"Ġnilusni":10713,"stnemeriuqer":10714,"sresu":10715,"17":10716,"Ġdesimorp":10717,"ĠtroP":10718,"ĠdaeH":10719,"Ġstnemetats":10720,"mmarg":10721,"erevos":10722,"3591":10723,"yteixna":10724,"ĠcirotsiH":10725,"Ġnoisulcnoc":10726,"ĠnaigewroN":10727,"ĠaeroK":10728,"ĠyeK":10729,"ĠollopA":10730,"Ġnonemonehp":10731,"Ġecnartne":10732,"retaL":10733,"noisses":10734,"rcomeD":10735,"selc":10736,"Ġxu":10737,"Ġdeciton":10738,"ruovaf":10739,"Ġlacigrus":10740,"ĠnaenarretideM":10741,"ezi":10742,"rood":10743,"setar":10744,"ĠemaG":10745,"rwaL":10746,"Ġpop":10747,"roolf":10748,"icita":10749,"Ġdeyalpsid":10750,"riaF":10751,"Ġsecnahc":10752,"rapmoC":10753,"Ġytironim":10754,"erets":10755,"Ġmodgnik":10756,"Ġlacir":10757,"egalliv":10758,"rov":10759,"snoitazinagro":10760,"myzne":10761,"awa":10762,"iz":10763,"Ġart":10764,"esuac":10765,"etso":10766,"Ġgniylppa":10767,"ĠlanoigeR":10768,"caR":10769,"Ġstnatibahni":10770,"retrauq":10771,"Ġylpeed":10772,"Ġserca":10773,"mehtaM":10774,"Ġlapicinum":10775,"39":10776,"llehs":10777,"Ġyletu":10778,"ĠCA":10779,"Ġstnemevorpmi":10780,"lissof":10781,"dividnI":10782,"ymra":10783,"Ġsyek":10784,"Ġdetcejer":10785,"itpaB":10786,"etse":10787,"Ġdevas":10788,"Ġsuoena":10789,"elborP":10790,"Ġytilibaborp":10791,"Ġyrg":10792,"Ġgnitaler":10793,"Ġlacitpo":10794,"Ġsehcruhc":10795,"Ġnoitpecxe":10796,"Ġgnillortnoc":10797,"Ġnoiton":10798,"noisserpxe":10799,"ĠsiweL":10800,"ediwdlrow":10801,"Ġmeti":10802,"ĠtseT":10803,"Ġsyar":10804,"deirF":10805,"Ġ.)\"":10806,"pyr":10807,"kooc":10808,"thguo":10809,"dnetta":10810,"Ġscitsitats":10811,"tserw":10812,"Ġdella":10813,"veni":10814,"Ġnoitargetni":10815,"ksat":10816,"srM":10817,"etorw":10818,"Ġlacilb":10819,"Ġenima":10820,"aime":10821,"hsinapS":10822,"motpmyS":10823,"sdik":10824,"Ġlocotorp":10825,"Ġgnicar":10826,"Ġerehwyna":10827,"mohalkO":10828,"Ġsrallod":10829,"Ġetamitlu":10830,"lamina":10831,"cnivorp":10832,"esroh":10833,"Ġgnikooc":10834,"Ġsgnik":10835,"Ġsnoisses":10836,"girB":10837,"seton":10838,"ĠcitcrA":10839,"ĠnilreB":10840,"trA":10841,"Ġgnizama":10842,"Ġdercas":10843,"enohp":10844,"Ġruf":10845,"Ġtegrof":10846,"Ġrellabtoof":10847,"raep":10848,"hsid":10849,"Ġsuomrone":10850,"tsevil":10851,"Ġlarde":10852,"Ġsredloh":10853,"Ġseviecer":10854,"Ġnoissimrep":10855,"sreht":10856,"golana":10857,"koorB":10858,"mc":10859,"gic":10860,"Ġlaitneulfni":10861,"Ġ0891":10862,"Ġdesucca":10863,"Ġdevivrus":10864,"rebiled":10865,"27":10866,"Ġesrever":10867,"uolc":10868,"Ġtrevnoc":10869,"meF":10870,"Ġsdda":10871,"Ġsnoitome":10872,"ĠrewoL":10873,"Ġdettimsnart":10874,"ĠtsiL":10875,"Ġsetirw":10876,"Ġyradnuob":10877,"naisiuoL":10878,"Ġseirogetac":10879,"ĠdlanoD":10880,"hctik":10881,"ĠtxeN":10882,"Ġgnigagne":10883,"citcennoC":10884,"ĠnoskcaJ":10885,"ecitsuj":10886,"tiW":10887,"Ġdeificeps":10888,"ragraM":10889,"ĠniaM":10890,"EM":10891,"Ġdetaluclac":10892,"ĠgnikroW":10893,"Ġemordnys":10894,"Ġgnidart":10895,"reni":10896,"Ġdetnuom":10897,"Ġniarts":10898,"Ġcitsitra":10899,"Ġdnuorgrednu":10900,"Ġnehtgne":10901,"ruoivaheb":10902,"ssab":10903,"Ġ8891":10904,"Ġytilibaliava":10905,"evitceffe":10906,"Ġtibro":10907,"Ġalumrof":10908,"ĠtsurT":10909,"Ġsesicrexe":10910,"Ġhgrub":10911,"llat":10912,"ĠelpmeT":10913,"Ġgnipp":10914,"Ġsdnet":10915,"Ġlaem":10916,"Ġsecnatsmucric":10917,"Ġevisavni":10918,"ĠelppA":10919,"ĠefildliW":10920,"tluciffid":10921,"Ġac":10922,"ĠnairtsuA":10923,"ffuB":10924,"Ġseibab":10925,"ripsa":10926,"ecivreS":10927,"Ġelbis":10928,"rettacs":10929,"snoitalupop":10930,"Ġtniap":10931,"Ġppa":10932,"ĠllamS":10933,"ylralimiS":10934,"gnellahC":10935,"rewoP":10936,"Ġgnie":10937,"Ġserif":10938,"ĠlairepmI":10939,"Ġretrohs":10940,"iecnoc":10941,"Ġytlucaf":10942,"ĠkooL":10943,"dnuorgkcab":10944,"DS":10945,"laF":10946,"noitacilppa":10947,"negyxo":10948,"esua":10949,"Ġdellor":10950,"ĠkroW":10951,"Ġairetirc":10952,"Ġemoctuo":10953,"Ġflesreh":10954,"tnediserp":10955,"Ġenomroh":10956,"noititcarp":10957,"ĠnalP":10958,"Ġllat":10959,"mrA":10960,"yrts":10961,"sroti":10962,"Ġstneidergni":10963,"nosirpmi":10964,"ĠedarT":10965,"kciw":10966,"caep":10967,"Ġnorda":10968,"Ġytivita":10969,"Ġ;\"":10970,"Ġseitluciffid":10971,"Ġsedosipe":10972,"Ġralucsavoidrac":10973,"Ä±":10974,"Ġelibo":10975,"saeM":10976,"ĠreimerP":10977,"nimid":10978,"sselehtreveN":10979,"Ġevitcepser":10980,"Ġseirrac":10981,"ndluow":10982,"Ġ93":10983,"ssorC":10984,"rovid":10985,"ĠretupmoC":10986,"ebo":10987,"Ġ55":10988,"Ġyrevals":10989,"Ġhcet":10990,"Ġwoc":10991,"ĠtuO":10992,"pargotohp":10993,"iram":10994,"Ġsnoitcele":10995,"Ġecim":10996,"Ġlavitsef":10997,"kniht":10998,"ĠilearsI":10999,"Ġsreenigne":11000,"arf":11001,"Ġgnicalper":11002,"hsurb":11003,"gnitset":11004,"ĠaerA":11005,"MP":11006,"Ġluos":11007,"egrus":11008,"Ġdedaol":11009,"epikiW":11010,"Ġgnihtolc":11011,"Ġgnissorc":11012,"lS":11013,"sesi":11014,"Ġnaf":11015,"lleB":11016,"seitilicaf":11017,"aD":11018,"locotorp":11019,"repsorp":11020,"Ġerawdrah":11021,"Ġetepmoc":11022,"Ġ46":11023,"Ã£":11024,"Ġsevals":11025,"ĠgnidaeR":11026,"Ġdeludehcs":11027,"hctam":11028,"Ġgnitubirtnoc":11029,"ynA":11030,"Ġelbac":11031,"ĠyawliaR":11032,"elddim":11033,"muen":11034,"ĠlavitseF":11035,"wolley":11036,"rtsA":11037,"Ġselpoep":11038,"Ġlavirra":11039,"rewsna":11040,"Ġnoitavresbo":11041,"yf":11042,"Ġehca":11043,"noillib":11044,"remmoC":11045,"Ġlauxe":11046,"teprep":11047,"cifircas":11048,"Ġdirg":11049,"Ġregnessap":11050,"Ġdehsiugnitsid":11051,"sehca":11052,"Ġybgur":11053,"Ġretlif":11054,"ij":11055,"doi":11056,"ruobleM":11057,"lod":11058,"narB":11059,"Ġeludehcs":11060,"ciffO":11061,"dor":11062,"snrettap":11063,"sgge":11064,"Ġyhp":11065,"Ġelcitrap":11066,"gat":11067,"Ġswodniw":11068,"yekruT":11069,"ĠÂ°":11070,"Ġnrae":11071,"Ġelbakramer":11072,"eciohc":11073,"noR":11074,"ĠtnemdnemA":11075,"DL":11076,"yluJ":11077,"noitalu":11078,"Ġaru":11079,"2591":11080,"rethguad":11081,"nS":11082,"ĠAI":11083,"Ġgnoleb":11084,"Ġanna":11085,"sneeuQ":11086,"Ġlanitsetni":11087,"troffe":11088,"ivaheB":11089,"Ġserahs":11090,"droG":11091,"Ġsroivaheb":11092,"tpecca":11093,"Ġreffid":11094,"cilppA":11095,"erutlucirga":11096,"Ġgninoitcnuf":11097,"raN":11098,"Ġevisu":11099,"uN":11100,"wah":11101,"ertne":11102,"ĠtsoP":11103,"hguorhT":11104,"htoG":11105,"Ġnortcele":11106,"Ġdezilaer":11107,"allA":11108,"ssele":11109,"Ġsteem":11110,"devlovni":11111,"daeH":11112,"roG":11113,"Ġsin":11114,"siti":11115,"parehT":11116,"Ġdetide":11117,"ohP":11118,"semiT":11119,"Ġ,).":11120,"Ġsecnerefer":11121,"ykoT":11122,"taeb":11123,"rotces":11124,"ĠwohS":11125,"ĠtsihdduB":11126,"20":11127,"Ġsmota":11128,"noos":11129,"goD":11130,"ĠkcirederF":11131,"Ġelttac":11132,"lopa":11133,"kcaB":11134,"Ġnoitatnem":11135,"Ġsnoitairav":11136,"Ġsrerutcafunam":11137,"gnihtemos":11138,"Ġdetcartta":11139,"Ġdu":11140,"miJ":11141,"ytitnedi":11142,"Ġlennosrep":11143,"rehtruf":11144,"Ġmela":11145,"Ġgnitani":11146,"tsuS":11147,"Ġnoisrevnoc":11148,"Ġgnitnalp":11149,"ĠyrtnuoC":11150,"ĠAB":11151,"Ġredrah":11152,"ho":11153,"woh":11154,"Ġgnitrop":11155,"Ġycaretil":11156,"libats":11157,"Ġllit":11158,"Ġehc":11159,"Ġgnilaeh":11160,"kaM":11161,"ĠegdirB":11162,"Ġxa":11163,"tsol":11164,"Ġtnedicni":11165,"Ġdetaudarg":11166,"darB":11167,"Ġleehw":11168,"noituloveR":11169,"elopaN":11170,"srats":11171,"Ġytpme":11172,"ĠertaehT":11173,"illihP":11174,"lucit":11175,"ĠudniH":11176,"Ġdetavele":11177,"rotide":11178,"sthgi":11179,"Ġdeyats":11180,"adna":11181,"Ġtcurtsnoc":11182,"Ġxif":11183,"ĠsttesuhcassaM":11184,"Ġhtdiw":11185,"Ġeliforp":11186,"Ġseltit":11187,"Ġcitarcomed":11188,"dues":11189,"ĠnosliW":11190,"ecnatsiser":11191,"etenin":11192,"maK":11193,"noititepmoc":11194,"Ġrenniw":11195,"ĠwoL":11196,"lgen":11197,"Ġpit":11198,"itrepxe":11199,"Ġedutingam":11200,"rebotcO":11201,"cef":11202,"bar":11203,"atU":11204,"kaT":11205,"4191":11206,"Ġdeme":11207,"tosi":11208,"veN":11209,"nooM":11210,"lirpA":11211,"Ġsnoitareneg":11212,"Ġstessa":11213,"zzup":11214,"Ġsnoitartnecnoc":11215,"Ġmarg":11216,"CN":11217,"rene":11218,"Ġderih":11219,"Ġcitue":11220,"ĠsmailliW":11221,"ysae":11222,"nablA":11223,"desi":11224,"Ġnoitpecrep":11225,"Ġsesuriv":11226,"iliser":11227,"ronim":11228,"emordnys":11229,"ĠdnuorA":11230,"Ġtnemecalp":11231,"Ġliaf":11232,"itciv":11233,"hcatta":11234,"Ġila":11235,"Ġytira":11236,"Ġtnanetu":11237,"Ġlaitnediserp":11238,"Ġgnillif":11239,"Ġylfeirb":11240,"snaem":11241,"tsigolo":11242,"Ġseirtsudni":11243,"Ġsesroh":11244,"Ġsessol":11245,"Ġ24":11246,"ĠSO":11247,"Ġriahc":11248,"Ġslarenim":11249,"Ġstaerht":11250,"Ġnaicisum":11251,"ssessA":11252,"Ġsdraob":11253,"Ġdammah":11254,"stca":11255,"Ġsnoitidart":11256,"esrevinu":11257,"ĠrehtruF":11258,"ivit":11259,"ĠnaisreP":11260,"erots":11261,"Ġlanoitirtun":11262,"Ġtoo":11263,"Ġdnuf":11264,"Ġdnefed":11265,"Ġycarucca":11266,"scitilop":11267,"Ġsol":11268,"Ġreggirt":11269,"sesuoh":11270,"ĠroirP":11271,"kaD":11272,"Ġgnildnah":11273,"Ġtnatsid":11274,"Ġretsasid":11275,"29":11276,"ndluoc":11277,"Ġedir":11278,"suoc":11279,"9191":11280,"Ġtsisnoc":11281,"selb":11282,"uoB":11283,"Ġnoitarotser":11284,"ette":11285,"Ġytitnauq":11286,"Ġesicerp":11287,"Ġdepp":11288,"pyh":11289,"neme":11290,"Ġlaitaps":11291,"Ġezylana":11292,"edaced":11293,"6391":11294,"gab":11295,"Ġsnoitacinummoc":11296,"surP":11297,"seigolonhcet":11298,"Ġgnilba":11299,"Ġgniraperp":11300,"Ġyratnemele":11301,"Ġecafretni":11302,"gninrom":11303,"volS":11304,"tcilfnoc":11305,"Ġebirc":11306,"saesiD":11307,"duH":11308,"ĠyesreJ":11309,"ala":11310,"Ġyruc":11311,"ĠnairB":11312,"ĠtsinummoC":11313,"yeB":11314,"niP":11315,"Ġspohs":11316,"sgod":11317,"Ġdetsop":11318,"Ġllehs":11319,"gnidulcni":11320,"Ġyhtrow":11321,"etsaw":11322,"ĠlA":11323,"snoitutitsni":11324,"Ġsoediv":11325,"otrac":11326,"ĠCD":11327,"Ġsteerts":11328,"skcatta":11329,"daerb":11330,"Ġstnemnorivne":11331,"Ġlufrednow":11332,"cipot":11333,"Ġnoitasrevnoc":11334,"Ġlaciteroeht":11335,"Ġssab":11336,"ĠnomiS":11337,"worran":11338,"snoitan":11339,"Ġgnirrefer":11340,"snezitic":11341,"ĠnoD":11342,"37":11343,"ronoh":11344,"Ġniv":11345,"ĠynoT":11346,"Ġylidaer":11347,"tibra":11348,"Ġrehcraeser":11349,"Ġsrenosirp":11350,"Ġstim":11351,"Ġegaruoc":11352,"droffa":11353,"az":11354,"Ġsepahs":11355,"ĠegdirbmaC":11356,"Ġevissergga":11357,"Ġredrum":11358,"7191":11359,"ĠgnitirW":11360,"Ġotre":11361,"sekahS":11362,"Ġynoloc":11363,"tnemhsi":11364,"Ġ6891":11365,"noisiviD":11366,"Ġretem":11367,"citsihpos":11368,"Ġamard":11369,"vorP":11370,"saeS":11371,"baH":11372,"Ġ9791":11373,"ylloH":11374,"leve":11375,"ĠennA":11376,"name":11377,"noom":11378,"ĠnalA":11379,"Ġpihsrow":11380,"ĠirS":11381,"eussit":11382,"egairram":11383,"dellik":11384,"Ġsrehtorb":11385,"riffa":11386,"lehS":11387,"Ġegdel":11388,"snoitpo":11389,"dnopser":11390,"ĠroinuJ":11391,"Ġgnineve":11392,"Ġnoitomorp":11393,"nomerec":11394,"bub":11395,"Ġneddus":11396,"ĠyramirP":11397,"ekats":11398,"nol":11399,"cebeuQ":11400,"segap":11401,"Ġstuc":11402,"orueN":11403,"Ġgnitseggus":11404,"giT":11405,"Ġtsilanruoj":11406,"Ġhtaeneb":11407,"Ġseitira":11408,"icitamehtam":11409,"Ġulf":11410,"cesorp":11411,"ĠSE":11412,"Ġedut":11413,"Î¼":11414,"Ġladi":11415,"sdnalsI":11416,"truoC":11417,"1591":11418,"7391":11419,"9291":11420,"htom":11421,"cime":11422,"stcaf":11423,"Ġsnagro":11424,"detaeper":11425,"Ġlacitsitats":11426,"Ġmrofer":11427,"Ġesned":11428,"ĠgnolA":11429,"Ġdaolnwod":11430,"ĠnaJ":11431,"Ġtfard":11432,"Ġsraeb":11433,"PH":11434,"virP":11435,"revE":11436,"Ġsetarepo":11437,"CF":11438,"Ġseilf":11439,"Ġgniyub":11440,"CR":11441,"Ġlavan":11442,"Ġevitarran":11443,"Ġngier":11444,"wehc":11445,"poiht":11446,"Ġgnidnib":11447,"Ġroiret":11448,"thgif":11449,"ainavlysnneP":11450,"ĠevitucexE":11451,"traP":11452,"wej":11453,"htyP":11454,"Ġdetsal":11455,"Ġgnisoohc":11456,"llif":11457,"Ġretemaid":11458,"Ġerem":11459,"pmaH":11460,"moB":11461,"Ġsrets":11462,"tihcrA":11463,"Ġerusolc":11464,"teews":11465,"Ġyllatot":11466,"mmah":11467,"sg":11468,"rorre":11469,"Ġsgnitniap":11470,"ĠthgiN":11471,"Ġdemusnoc":11472,"ĠenilnO":11473,"ĠsecruoseR":11474,"Ġnoitcnitsid":11475,"Ġecnedicni":11476,"Ġsotohp":11477,"Ġesrevda":11478,"iva":11479,"Ġrez":11480,"Ġseussit":11481,"Ġgniraeppa":11482,"woT":11483,"ĠtoH":11484,"Ġselbairav":11485,"Ġlaeppa":11486,"Ġstibah":11487,"cnad":11488,"nilreB":11489,"Ġalu":11490,"hcae":11491,"Ġtsei":11492,"ylb":11493,"Ġzi":11494,"Ġdeweiver":11495,"gaN":11496,"zagaM":11497,"Ġderujni":11498,"ĠdiovA":11499,"rotta":11500,"gniga":11501,"saJ":11502,"Ġnoitarud":11503,"diova":11504,"Ġytilanosrep":11505,"Ġsretne":11506,"ĠmalsI":11507,"Ġgnivivrus":11508,"nnam":11509,"ecnegil":11510,"nkcin":11511,"thgit":11512,"irtam":11513,"Ġscitamehtam":11514,"Ġregni":11515,"selim":11516,"Ġylneddus":11517,"eciov":11518,"krad":11519,"liart":11520,"Ġhsiugnitsid":11521,"ĠnailizarB":11522,"ĠetaL":11523,"noitanretni":11524,"sart":11525,"lgnA":11526,"ĠnoituloveR":11527,"Ġdoolf":11528,"Ġlleb":11529,"Ġarre":11530,"stnenopmoc":11531,"Ġsdray":11532,"ĠnaeJ":11533,"Ġgnilur":11534,"ĠsuonegidnI":11535,"erec":11536,"moced":11537,"pihsrow":11538,"ehC":11539,"cuS":11540,"niahc":11541,"ĠrehpotsirhC":11542,"ĠdloC":11543,"etov":11544,"Ġsenohp":11545,"SR":11546,"ygre":11547,"Ġenarbmem":11548,"noitpmusnoc":11549,"Ġseri":11550,"3391":11551,"AH":11552,"ĠecalP":11553,"htiL":11554,"Ġsenecs":11555,"Ġdesnecil":11556,"sedis":11557,"larutan":11558,"urC":11559,"Ġnoitaredisnoc":11560,"ĠgnidnatsrednU":11561,"eunev":11562,"poihtE":11563,"nwonknu":11564,"lcycnE":11565,"pmocne":11566,"nevah":11567,"Ġrednammoc":11568,"Ġraer":11569,"Ġdlof":11570,"Ġsdnuop":11571,"Ġdekcip":11572,"spihsnoitaler":11573,"pmet":11574,"tcerid":11575,"Ġtsiv":11576,"Ġsdnoces":11577,"siuqca":11578,"mucoD":11579,"Ġseilppa":11580,"srac":11581,"regnol":11582,"Ġolos":11583,"Ġgnitacidni":11584,"Ġsenigne":11585,"rebmevoN":11586,"iK":11587,"ecnaraeppa":11588,"robale":11589,"rgetnI":11590,"redneg":11591,"ĠgnikaM":11592,"ĠyliaD":11593,"Ġsecafrus":11594,"Ġnoitibihxe":11595,"Ġlev":11596,"5391":11597,"Ġsrevird":11598,"sllaw":11599,"ucav":11600,"krA":11601,"ĠtuohguorhT":11602,"Ġteelf":11603,"citamehtaM":11604,"Ġdeirav":11605,"tnulov":11606,"piT":11607,"hsalf":11608,"OB":11609,"latem":11610,"depoleved":11611,"ylppus":11612,"Ġko":11613,"Ġ007":11614,"tsirA":11615,"Ġseiradnuob":11616,"nosre":11617,"trohS":11618,"nitraM":11619,"Ġtsehc":11620,"snoitats":11621,"Ġ7891":11622,"carP":11623,"Ġseitisrevinu":11624,"Ġdetoved":11625,"eco":11626,"Ġdetneiro":11627,"selegnA":11628,"Ġ052":11629,"Ġyltcerroc":11630,"Ġdeilp":11631,"ĠnainemrA":11632,"Ġkcolc":11633,"Ġecin":11634,"ĠgniniarT":11635,"Ġretnuoc":11636,"ĠcifitneicS":11637,"tnevE":11638,"egelloc":11639,"itnemed":11640,"Ġaime":11641,"Ġlavorppa":11642,"coler":11643,"lloP":11644,"puJ":11645,"Ġenibmoc":11646,"usU":11647,"mraF":11648,"rbed":11649,"knaB":11650,"ecnalab":11651,"ipicer":11652,"âĤ¬":11653,"sendeW":11654,"Ġnwa":11655,"degnahc":11656,"Ġnoitatpada":11657,"Ġedutitta":11658,"Ġseeb":11659,"Ġsnigiro":11660,"selif":11661,"ĠsrehtO":11662,"rehgih":11663,"rebmem":11664,"ĠrehtaF":11665,"secnatsmucric":11666,"keeW":11667,"ibo":11668,"Ġ4891":11669,"snoissime":11670,"Ġgnitti":11671,"Ġrednow":11672,"vivrus":11673,"ĠssiM":11674,"drazah":11675,"AE":11676,"sotohp":11677,"Ġsngi":11678,"ĠotreuP":11679,"Ġyadiloh":11680,"Ġdelbane":11681,"tcepser":11682,"snoitisop":11683,"rtsehcro":11684,"Ġsaes":11685,"Ġmaets":11686,"ycnangerp":11687,"bmeM":11688,"snoisiced":11689,"Ġtslihw":11690,"-.":11691,"loF":11692,"peR":11693,"ĠmaharbA":11694,"Ġlacidar":11695,"Ġetaci":11696,"tnaw":11697,"sooR":11698,"eltta":11699,"ÅĤ":11700,"Ġstisiv":11701,"hB":11702,"Ġderotser":11703,"Ġlaud":11704,"sserpmoc":11705,"srood":11706,"ĠxodohtrO":11707,"foS":11708,"ilac":11709,"Ġelbatpecca":11710,"daB":11711,"sweJ":11712,"Ġseirolac":11713,"ppaH":11714,"18":11715,"Ġyolp":11716,"Ġdnarg":11717,"Ġmuidos":11718,"rised":11719,"htae":11720,"rubus":11721,"Ġdetanigiro":11722,"Ġcitehtnys":11723,"dalb":11724,"ĠcibarA":11725,"Ġnehtgnerts":11726,"gnaR":11727,"uag":11728,"ĠrebmuN":11729,"enoz":11730,"trams":11731,"ĠeM":11732,"peN":11733,"ĠyawhgiH":11734,"Ġlatnempoleved":11735,"Ġsnaf":11736,"Ġevreser":11737,"ĠrebmeM":11738,"Ġspoleved":11739,"sicerp":11740,"Ġtnemeriuqer":11741,"Ġyawhgih":11742,"llewd":11743,"Ġj":11744,"seite":11745,"Ġdesirp":11746,"sisirc":11747,"Ġtcartta":11748,"Ġdebrosba":11749,"ehca":11750,"Ġamhtsa":11751,"Ġgnitar":11752,"Ġstcelfer":11753,"secneicS":11754,"psoG":11755,"noitullop":11756,"irter":11757,"gnireenigne":11758,"2291":11759,"ekorts":11760,"ĠksA":11761,"tseR":11762,"hcranom":11763,"ygolonhceT":11764,"edarg":11765,"ĠtnerruC":11766,"Ġyloh":11767,"Ġyrasrevinna":11768,"dauq":11769,"ĠnoitcA":11770,"duR":11771,"Ġniater":11772,"yrB":11773,"Ġelbixelf":11774,"Ġgnidnapxe":11775,"Ġgnimialc":11776,"Ġhtooms":11777,"Ġnoitutitsni":11778,"Ġseinoloc":11779,"enerpertne":11780,"hka":11781,"Ġgnirolpxe":11782,"Ġler":11783,"elbiB":11784,"Ġyellav":11785,"Ġgnitcelloc":11786,"nimoderp":11787,"ĠlanoitiddA":11788,"rellabtoof":11789,"recnoC":11790,"mednoc":11791,"ĠyendyS":11792,"Ġub":11793,"reganam":11794,"Ġredi":11795,"Ġsksa":11796,"ĠCP":11797,"Ġlanoitarepo":11798,"gelloc":11799,"renwo":11800,"ilorp":11801,"dop":11802,"Ġsniw":11803,"nifeD":11804,"niatsuS":11805,"fael":11806,"Ġemehcs":11807,"ĠregoR":11808,"Ġnote":11809,"Ġyllamrof":11810,"igyh":11811,"liahT":11812,"tropmI":11813,"Ġtfig":11814,"ĠsloohcS":11815,"Ġgnignis":11816,"ĠnoitarepO":11817,"Ġerca":11818,"dnilb":11819,"klaw":11820,"Ġdenrub":11821,"ĠhcezC":11822,"Ġrehtag":11823,"yrotirret":11824,"Ġgniticxe":11825,"Ġstnemugra":11826,"Ġesuom":11827,"ĠtratS":11828,"ueN":11829,"ĠlraC":11830,"ruG":11831,"rettel":11832,"Ġsrecudorp":11833,"Ġdeniater":11834,"cirbaf":11835,"Ġsepoh":11836,"Ġtsev":11837,"kciD":11838,"zamA":11839,"noitom":11840,"1291":11841,"rÃ¼":11842,"Ġstruoc":11843,"Ġtnemtnioppa":11844,"Ġlessev":11845,"Ġsretrauqdaeh":11846,"ĠsnamreG":11847,"Ġsecar":11848,"Ġlaicnivorp":11849,"sez":11850,"temmys":11851,"Ġpihsnoipmahc":11852,"aigroeG":11853,"Ġseca":11854,"woI":11855,"38":11856,"gnoS":11857,"Ġyrotaluger":11858,"AND":11859,"ele":11860,"mroF":11861,"ĠhsinaD":11862,"Ġ5891":11863,"taihcysp":11864,"sdrocer":11865,"arP":11866,"dnetni":11867,"ĠretsehcnaM":11868,"ĠhtaeD":11869,"sruhT":11870,"Ġthgisni":11871,"refni":11872,"hcnarf":11873,"MS":11874,"Ã¸":11875,"ĠyciloP":11876,"Ġtcetihcra":11877,"tiM":11878,"Ġruobal":11879,"Ġnoitarepooc":11880,"Ġdehsup":11881,"ĠrobaL":11882,"ĠHp":11883,"noisseforP":11884,"Ġdettimda":11885,"talf":11886,"remac":11887,"Ġseitilauq":11888,"Ġgnineppah":11889,"Ġecif":11890,"2391":11891,"Ġsera":11892,"Ġsrorre":11893,"cnavda":11894,"vired":11895,"yticapac":11896,"gnikam":11897,"Ġdetciderp":11898,"sretupmoc":11899,"leehw":11900,"Ġnoitatuper":11901,"kcen":11902,"orter":11903,"Ġeit":11904,"gnib":11905,"Ġredivorp":11906,"mitlaB":11907,"inim":11908,"Ġsweiver":11909,"ruaM":11910,"gohtap":11911,"Ġmarga":11912,"Ġcirehpsomta":11913,"luF":11914,"smlif":11915,"Ġremotsuc":11916,"deB":11917,"Ġgniveihca":11918,"soC":11919,"ĠxoF":11920,"Ġgnitupmoc":11921,"Ġnoitutitsnoc":11922,"enoyreve":11923,"ytisrevid":11924,"dnaloP":11925,"Ġgnitcudnoc":11926,"Ġdecnahne":11927,"19":11928,"ipe":11929,"Ġyparehto":11930,"eraf":11931,"robA":11932,"iC":11933,"stnemnorivne":11934,"fae":11935,"Ġenot":11936,"ĠledoM":11937,"denia":11938,"Ġegatireh":11939,"HG":11940,"was":11941,"Ġsrehtom":11942,"Å«":11943,"neherpmoc":11944,"Ġlamitpo":11945,"tcapmi":11946,"ĠlaminA":11947,"Ġsdeec":11948,"gaE":11949,"tnilC":11950,"ame":11951,"ĠlizarB":11952,"srever":11953,"Ġevitaitini":11954,"recudorp":11955,"Ġseciffo":11956,"dnabsuh":11957,"ddog":11958,"yub":11959,"Ġdenoissimmoc":11960,"Ġderetsinimda":11961,"kcop":11962,"levesooR":11963,"Ġetaluger":11964,"004":11965,"arkU":11966,"Ġtseug":11967,"Ġpmup":11968,"Ġsnoitani":11969,"Ġgnikni":11970,"Ġeusrup":11971,"Ġgnisolc":11972,"Ġ021":11973,"orroc":11974,"Ġsgnieb":11975,"Ġslenap":11976,"hgual":11977,"vaR":11978,"cepsorp":11979,"cifed":11980,"sdnalrehteN":11981,"tfarcria":11982,"sli":11983,"cefrep":11984,"Ġseugra":11985,"ĠdluohS":11986,"eniv":11987,"haS":11988,"Ġyriad":11989,"ver":11990,"orteD":11991,"Ġtaoc":11992,"onretfa":11993,"5291":11994,"Ġtneilc":11995,"murd":11996,"hcrareih":11997,"Ġsetadidnac":11998,"4391":11999,"Ġytaert":12000,"eek":12001,"Ġekauqhtrae":12002,"Ġsri":12003,"niE":12004,"rbif":12005,"Ġevitcudorper":12006,"cidartnoc":12007,"ĠrolyaT":12008,"retsi":12009,"rever":12010,"Ġoccabot":12011,"Ġob":12012,"Ġmotsuc":12013,"ragic":12014,"ĠtnedutS":12015,"Ġdnob":12016,"Ġylekilnu":12017,"reteh":12018,"Ġcimoc":12019,"Ġtpoda":12020,"28":12021,"eceerG":12022,"ĠenaJ":12023,"ĠsionillI":12024,"Ġtnev":12025,"Ġgnitapicitrap":12026,"Ġgninetaerht":12027,"Ġstops":12028,"Ġroodni":12029,"ĠytinaitsirhC":12030,"Ġecart":12031,"Ġstnargimmi":12032,"ĠlarutluC":12033,"LL":12034,"Ġrevenehw":12035,"Ġkaerbtuo":12036,"suac":12037,"ylreporp":12038,"Ġevitati":12039,"edixo":12040,"detaerc":12041,"Ġslai":12042,"ĠddA":12043,"noitar":12044,"Ġetaluclac":12045,"Ġali":12046,"Ġstenalp":12047,"suH":12048,"mary":12049,"ĠnroB":12050,"Ġgnisserdda":12051,"feneB":12052,"etag":12053,"xu":12054,"Ġstsoh":12055,"ecneidua":12056,"amo":12057,"Ġdetartnecnoc":12058,"ĠuaeruB":12059,"zza":12060,"marg":12061,"Ġytivarg":12062,"Ġyltnetsisnoc":12063,"Ġevisnefed":12064,"sdees":12065,"ĠtnemnorivnE":12066,"seaC":12067,"modeerf":12068,"rraid":12069,"Ġdesopmi":12070,"Ġtneirtun":12071,"nosnhoJ":12072,"ĠnorI":12073,"1391":12074,"nibac":12075,"noK":12076,"tsen":12077,"ngila":12078,"thgiarts":12079,"kiN":12080,"ĠlennahC":12081,"lovE":12082,"Ġsdnert":12083,"yellaV":12084,"pocsorcim":12085,"debme":12086,"ytrevop":12087,"Ġlarutcetihcra":12088,"ĠOT":12089,"tnu":12090,"Ġgnitov":12091,"Ġsnoisserp":12092,"rebmeceD":12093,"oba":12094,"itno":12095,"sseM":12096,"refsnart":12097,"8291":12098,"Ġnioc":12099,"kcotS":12100,"Ġnedlog":12101,"Ġ44":12102,"ĠlaniF":12103,"Ġsdlohesuoh":12104,"effa":12105,"Ġsnepo":12106,"Ġtaehw":12107,"tenretnI":12108,"ĠsdiK":12109,"noitcelloc":12110,"Ġnaol":12111,"tsalb":12112,"ngiseD":12113,"Ġdediug":12114,"Ġstneverp":12115,"ĠxiS":12116,"0191":12117,"gniyas":12118,"Ġyllacisab":12119,"weivretni":12120,"enob":12121,"à¥":12122,"loiV":12123,"Ġdetarutas":12124,"ota":12125,"ciht":12126,"Ġnoititep":12127,"noskcaJ":12128,"ĠemuloV":12129,"irraw":12130,"Ġnoitapucco":12131,"Ġylevisulcxe":12132,"tcejorP":12133,"AT":12134,"aeW":12135,"edut":12136,"levelC":12137,"Ġnaini":12138,"GN":12139,"Ġladem":12140,"Ġsnel":12141,"ppississiM":12142,"Ġsiti":12143,"dnefed":12144,"Ġeraflew":12145,"PP":12146,"edI":12147,"Ġenivid":12148,"Ġselca":12149,"Ġegnaro":12150,"rohc":12151,"serht":12152,"emoH":12153,"Ġcitats":12154,"wardhtiw":12155,"Ġetam":12156,"Ġeznorb":12157,"ĠknihT":12158,"boB":12159,"kcis":12160,"Ġsut":12161,"Ġlaisrevortnoc":12162,"Ġciht":12163,"Ġtnemyap":12164,"Ġsnoitu":12165,"secneirepxe":12166,"Ġgnimmiws":12167,"aneR":12168,"Ġtsegnol":12169,"ĠyreV":12170,"elcuN":12171,"Ġrekrow":12172,"ĠruobaL":12173,"majneB":12174,"ĠesnefeD":12175,"elttes":12176,"liH":12177,"veK":12178,"Ġdneg":12179,"Ġgnimusnoc":12180,"Ġgnisimorp":12181,"Ġnoitavonni":12182,"nialp":12183,"Ġyrrow":12184,"iwt":12185,"Ġske":12186,"modgnik":12187,"Ġnoitarapes":12188,"noitirtun":12189,"vok":12190,"kcirt":12191,"selcihev":12192,"Ġgnihca":12193,"sar":12194,"Ġyfit":12195,"Ġdroc":12196,"Ġgningis":12197,"2191":12198,"Ġspma":12199,"sey":12200,"ĠdrawoH":12201,"noitav":12202,"OITA":12203,"nohp":12204,"stroffe":12205,"ĠqarI":12206,"Ġlasoporp":12207,"Ġytilibats":12208,"Ġsecneulfni":12209,"Ġelcy":12210,"Ġetaroprocni":12211,"Ġdetanimon":12212,"Ġlaunam":12213,"veleT":12214,"Ġslobmys":12215,"sgnos":12216,"Ġytilitu":12217,"Ġsetalp":12218,"yw":12219,"ĠneB":12220,"erahs":12221,"Ġytisebo":12222,"Ġgnitareneg":12223,"ĠdroF":12224,"Ġnoitaiv":12225,"yltneuqes":12226,"etelpmoc":12227,"vresbO":12228,"ĠcirE":12229,"Ġderetla":12230,"Ġyletulosba":12231,"ganeet":12232,"srewolf":12233,"nees":12234,"Ġyratnemucod":12235,"Ġ5491":12236,"Ġdebircserp":12237,"ĠhctaW":12238,"Ġkcis":12239,"ĠtnereffiD":12240,"021":12241,"Ġdetucexe":12242,"xedni":12243,"Ġ59":12244,"Ġsnortcele":12245,"Ġ6791":12246,"hsilbuP":12247,"htuoy":12248,"tsira":12249,"Ġcigrella":12250,"htob":12251,"Ġsetuor":12252,"hctaw":12253,"erutcetihcra":12254,"Ġgnitpmetta":12255,"Ġevitcnitsid":12256,"nog":12257,"lanif":12258,"Ġtnu":12259,"Ġthgirypoc":12260,"neL":12261,"ewS":12262,"worC":12263,"xetnoc":12264,"nm":12265,"titla":12266,"Ġytivitisnes":12267,"aW":12268,"Ġseigolo":12269,"zt":12270,"Ġnevo":12271,"mottob":12272,"Ġdemeed":12273,"devomer":12274,"ĠedoC":12275,"lsigeL":12276,"gorP":12277,"Ġecnediser":12278,"Ġycneicifed":12279,"Ġevitsegid":12280,"tnemetats":12281,"Ġeziminim":12282,"Ġegnarts":12283,"ynam":12284,"Ġeig":12285,"Ġgnilevart":12286,"woC":12287,"Ġsrekaeps":12288,"ĠdroW":12289,"rotce":12290,"Ġyllagel":12291,"tnioj":12292,"sporc":12293,"seuT":12294,"Ġretti":12295,"ĠRC":12296,"Ġyrteop":12297,"snaici":12298,"yesreJ":12299,"Ġsevitatneserper":12300,"carf":12301,"Ġhcaeb":12302,"Ġtug":12303,"kcub":12304,"ĠsmotpmyS":12305,"Ġsemo":12306,"Ġlaruen":12307,"7291":12308,"Ġmitciv":12309,"noitartsinimda":12310,"ĠME":12311,"airtsuA":12312,"aibmuloC":12313,"spets":12314,"Ġnoitacifissalc":12315,"sliated":12316,"stserof":12317,"levaw":12318,"Ġ2891":12319,"Ġelbategev":12320,"ĠlacitiloP":12321,"olgnA":12322,"Ġsemeht":12323,"Ġtfarcecaps":12324,"llys":12325,"Ġtnemecrofne":12326,"ĠetaredefnoC":12327,"Ġretniap":12328,"Ġevissergorp":12329,"Ġllah":12330,"sboj":12331,"Ġdelevart":12332,"Ġdoom":12333,"Ġromut":12334,"ĠnoitneverP":12335,"Ġecnelaverp":12336,"Ġlaretal":12337,"ĠredisnoC":12338,"Ġdetartsulli":12339,"itnev":12340,"leuf":12341,"ĠyaW":12342,"Ġyerp":12343,"ĠnimajneB":12344,"deP":12345,"Ġsecnavda":12346,"ilpmis":12347,"Ġ1202":12348,"SH":12349,"Ãº":12350,"roS":12351,"cilbuP":12352,"issatop":12353,"Ġsriap":12354,"Ġyni":12355,"cum":12356,"Ġsregnessap":12357,"Ġytiroirp":12358,"hpmyl":12359,"lekreB":12360,"dniM":12361,"Ġylsuoires":12362,"gor":12363,"nah":12364,"gnittes":12365,"Ġege":12366,"Ġgniret":12367,"Ġgnillor":12368,"gav":12369,"iralc":12370,"Ġcitametsys":12371,"Ġycnerruc":12372,"lrig":12373,"ropa":12374,"Ġevitavresnoc":12375,"Ġdeerb":12376,"hsit":12377,"pyrcne":12378,"ertnec":12379,"Ġnellaf":12380,"eraC":12381,"Ġeriuqca":12382,"eahcrA":12383,"lybaB":12384,"Ġgnirocs":12385,"Ġhsaw":12386,"Ġdeterpretni":12387,"olB":12388,"Ġsesag":12389,"ĠhsuB":12390,"Ġonaip":12391,"Ġsbulc":12392,"Ġshpargotohp":12393,"lots":12394,"Ġ0791":12395,"Ġlatnoziroh":12396,"ĠneM":12397,"sksat":12398,"detcepxe":12399,"ueca":12400,"yov":12401,"tluS":12402,"Ġralop":12403,"lairt":12404,"raew":12405,"Ġslav":12406,"esuba":12407,"niaR":12408,"dradnats":12409,"Ġnworht":12410,"guani":12411,"Ġdettimrep":12412,"Ġdettimbus":12413,"lrevo":12414,"Ġdeird":12415,"Ġsegnar":12416,"ydaer":12417,"evoL":12418,"cet":12419,"Ġmetsysoce":12420,"yticirtcele":12421,"voL":12422,"Ġevisnetni":12423,"Ġsertem":12424,"Ġtrof":12425,"ĠAP":12426,"irporp":12427,"Ġmrifnoc":12428,"desolc":12429,"llih":12430,"itrA":12431,"zies":12432,"Ġslatem":12433,"Ġsreetnulov":12434,"sredael":12435,"hsur":12436,"Ġcilobatem":12437,"Ġgnitniop":12438,"ĠsivaD":12439,"nuG":12440,"Ġtnemmoc":12441,"Ġ2791":12442,"ĠippississiM":12443,"roeht":12444,"sthgil":12445,"eerged":12446,"ylatac":12447,"regna":12448,"Ġlainne":12449,"mur":12450,"Ġstaes":12451,"gnirpS":12452,"icnu":12453,"Ġlor":12454,"Ġstnec":12455,"Ġsnoitcirtser":12456,"Ġtuhs":12457,"Ġderosnops":12458,"Ġlaicaf":12459,"tniat":12460,"nruf":12461,"smoor":12462,"sesne":12463,"ecnereffid":12464,"Ġsmraf":12465,"bocaJ":12466,"pih":12467,"6291":12468,"ģĦ":12469,"dec":12470,"dez":12471,"Ġyroti":12472,"Ġdekco":12473,"ĠlairtsudnI":12474,"gibma":12475,"ĠgnirpS":12476,"Ġnetae":12477,"ĠtroppuS":12478,"4291":12479,"Ġlartuen":12480,"voner":12481,"mov":12482,"Ġyllaiceps":12483,"Ġedicius":12484,"Ġtpada":12485,"Ġgnicrof":12486,"Ġdoohrobhgien":12487,"Ġsredivorp":12488,"Ġyret":12489,"hporP":12490,"gI":12491,"Ġsexat":12492,"dnema":12493,"Ġnettog":12494,"ĠOC":12495,"Ġgnimo":12496,"stcejbus":12497,"Ġgnigaruocne":12498,"nedewS":12499,"Ġnoitarolpxe":12500,"tegdub":12501,"rewol":12502,"lats":12503,"ĠenotS":12504,"snietorp":12505,"Ġemyzne":12506,"Ġnoisivorp":12507,"Ġdelliks":12508,"Ġelbitpecsus":12509,"ytS":12510,"Ġdednah":12511,"ĠAPE":12512,"Ġycnednet":12513,"Ġdezilitu":12514,"Ġano":12515,"ĠanozirA":12516,"Ġtnedicca":12517,"Ġdemrofsnart":12518,"Ġnon":12519,"Ġlaminim":12520,"tsaoC":12521,"ĠnetfO":12522,"droL":12523,"Ġsreg":12524,"Ġmrofinu":12525,"ĠnairagnuH":12526,"Ġyranoitulover":12527,"Ġlatnenitnoc":12528,"luP":12529,"Ġrevocer":12530,"nigeB":12531,"muenp":12532,"reffo":12533,"Ġtpircs":12534,"Ġgnignoleb":12535,"cudeR":12536,"rogetac":12537,"Ġretnuocne":12538,"Ġuae":12539,"ovreser":12540,"gergnoc":12541,"Ġtnemanruot":12542,"muidem":12543,"Ġdnu":12544,"ĠevreseR":12545,"ĠegaP":12546,"ĠlacinilC":12547,"itnewt":12548,"Ġevitucesnoc":12549,"dehsilbatse":12550,"QS":12551,"bat":12552,"Ġemoneg":12553,"ocS":12554,"ooL":12555,"dnaB":12556,"llaD":12557,"noisnet":12558,"Ġdessorc":12559,"slrig":12560,"Ġdenilced":12561,"noG":12562,"latS":12563,"Ġdetciped":12564,"rdnA":12565,"smailliW":12566,"rtsurf":12567,"spa":12568,"Ġevitcartta":12569,"erutcip":12570,"Ġnoitulover":12571,"Ġamsalp":12572,"Ġdilav":12573,"Ġralucric":12574,"tef":12575,"etnaraug":12576,"Ġdeined":12577,"xiS":12578,"muid":12579,"snosaes":12580,"ĠnaebbiraC":12581,"edom":12582,"noitaerc":12583,"kcaj":12584,"itcarP":12585,"Ġdlom":12586,"ats":12587,"hpsime":12588,"Ġtfil":12589,"reviL":12590,"noitutitsnoC":12591,"AW":12592,"Ġyaled":12593,"Ġdim":12594,"yltnecer":12595,"CU":12596,"Ġredaorb":12597,"ilA":12598,"Ġdesufnoc":12599,"ygoloib":12600,"bI":12601,"Ġllatsni":12602,"lloR":12603,"eo":12604,"Ġsretsa":12605,"Ġsrem":12606,"ilekil":12607,"elhtA":12608,"tet":12609,"Ġgnitoohs":12610,"Ġtsilaiceps":12611,"0981":12612,"nyl":12613,"tneitap":12614,"Ġdetavitca":12615,"ĠnabrU":12616,"ryt":12617,"Ġgnitsac":12618,"Ġnoitategev":12619,"Ġsllik":12620,"MG":12621,"dnopserroc":12622,"tinruf":12623,"ĠsknahT":12624,"roireted":12625,"remmi":12626,"Ġderegnadne":12627,"zaH":12628,"redi":12629,"Ġnoitelpmoc":12630,"ehR":12631,"tsuC":12632,"rihs":12633,"Ġdelif":12634,"Ġenorp":12635,"ĠnilknarF":12636,"Ġretaeht":12637,"Ġmrofni":12638,"Ġnoitidepxe":12639,"yrarbiL":12640,"Ġcitamotua":12641,"ĠkoobecaF":12642,"Ġtseirp":12643,"lehciM":12644,"Ġstnempoleved":12645,"emocni":12646,"oicos":12647,"sraM":12648,"Ġ5791":12649,"Ġyrosnes":12650,"Ġseitud":12651,"Ġsredrob":12652,"drib":12653,"Ġylelos":12654,"Ġsenifed":12655,"ĠSDIA":12656,"ĠneveS":12657,"cnaL":12658,"ĠenitnazyB":12659,"sdnoces":12660,"rojam":12661,"Ġlanimret":12662,"Ġstsop":12663,"ecnetsixe":12664,"Ġdeilppus":12665,"Ġecnadrocca":12666,"3291":12667,"HM":12668,"sarg":12669,"teme":12670,"ĠruoT":12671,"tnacifingis":12672,"wsnA":12673,"gart":12674,"Ġenohpelet":12675,"orez":12676,"Ġslipup":12677,"Ġeson":12678,"Ġdetirehni":12679,"srettel":12680,"Ġylhtnom":12681,"Ġsklat":12682,"stekram":12683,"nagihciM":12684,"noihsaf":12685,"ĠkcirtaP":12686,"rehC":12687,"tullop":12688,"5191":12689,"naeJ":12690,"arK":12691,"Ġynomerec":12692,"Ġig":12693,"Ġcsid":12694,"Ġevarg":12695,"Ġesirprus":12696,"ralohcS":12697,"tnema":12698,"ĠscipmylO":12699,"ĠynohtnA":12700,"Ġyalc":12701,"ĠyrotS":12702,"smaet":12703,"Ġdesirprus":12704,"tto":12705,"hpu":12706,"Ġdetinu":12707,"gnairt":12708,"suoca":12709,"Ġsserd":12710,"ralceD":12711,"Ġtcesni":12712,"ĠlleB":12713,"Ġsessa":12714,"Ġylereves":12715,"seicilop":12716,"ihcra":12717,"Ġcigolo":12718,"Ġsdniw":12719,"ĠyrutneC":12720,"Ġcituepareht":12721,"Ġlanosaes":12722,"redlo":12723,"sreyalp":12724,"Ġyllacirotsih":12725,"ĠsesoM":12726,"ĠhtlaewnommoC":12727,"Ġtresed":12728,"ale":12729,"edne":12730,"ĠxaM":12731,"Ġsnet":12732,"divaD":12733,"brof":12734,"Ġ1891":12735,"ĠeceerG":12736,"pihsnoitaler":12737,"seitrap":12738,"nruter":12739,"lacs":12740,"noitide":12741,"ĠhsleW":12742,"ĠLFN":12743,"Ġtrecnoc":12744,"Ġmaerd":12745,"nevuj":12746,"lraC":12747,"yrub":12748,"nutroF":12749,"Ġyltcefrep":12750,"yde":12751,"Ġsepo":12752,"vog":12753,"sroloc":12754,"Ġrueta":12755,"ĠsmetsyS":12756,"reveb":12757,"duL":12758,"Ġeko":12759,"Ġylefas":12760,"tolrahC":12761,"dduB":12762,"setad":12763,"utni":12764,"Ġgnidiova":12765,"smeti":12766,"seL":12767,"Ġsnoitazi":12768,"rotceriD":12769,"Ġ3791":12770,"eciton":12771,"Ġssim":12772,"neitap":12773,"ĠteragraM":12774,"ras":12775,"Ġlufgninaem":12776,"Ġtesno":12777,"vral":12778,"riuqni":12779,"Ġ58":12780,"Ġbrosba":12781,"Ġdaerb":12782,"Ġgnidaerps":12783,"pse":12784,"Ġlacigoloeahcra":12785,"ĠkraD":12786,"RB":12787,"liot":12788,"Ġevac":12789,"suoH":12790,"rtibra":12791,"Ġeeb":12792,"revef":12793,"ĠderflA":12794,"Ġelbigile":12795,"idradnats":12796,"nidE":12797,"girobA":12798,"dnegel":12799,"ĠgnihcaeT":12800,"laoc":12801,"gnikrow":12802,"tsih":12803,"Ġstih":12804,"thgiL":12805,"Ġdetaitini":12806,"kcoc":12807,"cisuM":12808,"esrow":12809,"ĠssecnirP":12810,"Ġdellup":12811,"ĠmiK":12812,"skrowten":12813,"dart":12814,"Ġsesserdda":12815,"Ġ8691":12816,"soP":12817,"retsmA":12818,"notsoB":12819,"lbuD":12820,"stsitneics":12821,"lusnineP":12822,"fleS":12823,"Ġgnilcycer":12824,"snik":12825,"Ġdeniatsus":12826,"AB":12827,"pmohT":12828,"gar":12829,"ĠpleH":12830,"Ġderutcafunam":12831,"serutarepmet":12832,"ĠdecnavdA":12833,"Ð°":12834,"Ġdesae":12835,"ffeni":12836,"ĠdammahuM":12837,"ercS":12838,"snalp":12839,"ĠdnE":12840,"ĠnedraG":12841,"Ġylcilbup":12842,"Ġnoitila":12843,"Ġ,)%":12844,"Ġkcap":12845,"llitS":12846,"Ġyz":12847,"ĠllaC":12848,"aeca":12849,"Ġmug":12850,"Ġertaeht":12851,"ĠeunevA":12852,"Ġnoitauqe":12853,"0081":12854,"Ġ3891":12855,"Ġmodsiw":12856,"ber":12857,"ssim":12858,"knaL":12859,"Ġawa":12860,"tneiro":12861,"Ġtnemeveihca":12862,"Ġdeifitrec":12863,"Ġeruc":12864,"ragred":12865,"curtS":12866,"ytisrevinu":12867,"lih":12868,"ruH":12869,"Ġenireht":12870,"noitcaer":12871,"Ġdetanimatnoc":12872,"llitra":12873,"cnuF":12874,"dI":12875,"selcitra":12876,"tebaiD":12877,"Ġaht":12878,"lomed":12879,"ilb":12880,"Ġsnoitacilpmoc":12881,"Ġ8791":12882,"Ġsdnetxe":12883,"citnehtua":12884,"Ġylti":12885,"ĠsisylanA":12886,"stcesni":12887,"Ġ4791":12888,"Ġlufniap":12889,"Ġserutaerc":12890,"3191":12891,"Ġdetneverp":12892,"Ġgniniag":12893,"desaeler":12894,"ylia":12895,"tsitra":12896,"teks":12897,"irfer":12898,"ytirohtua":12899,"niatnuoM":12900,"Ġdezylana":12901,"Ġlamronba":12902,"Ġranul":12903,"Ġrorepme":12904,"ĠteS":12905,"Ġeucser":12906,"nroc":12907,"Ġari":12908,"Ġyralubacov":12909,"ĠgnidnepeD":12910,"Ġnoitasinagro":12911,"skooB":12912,"Ġsretemarap":12913,"taeB":12914,"Ġ25":12915,"ramS":12916,"Ġsnoissucsid":12917,"neC":12918,"Ġreniatnoc":12919,"Ġ1791":12920,"Ġyletarucca":12921,"yrtsimehc":12922,"Ġnaiv":12923,"Ġtnemegnarra":12924,"Ġtab":12925,"ylrae":12926,"crexE":12927,"rotsid":12928,"thgilf":12929,"reA":12930,"Ġreirrab":12931,"ĠgnoS":12932,"cesrep":12933,"Ġtnemegagne":12934,"tibro":12935,"traH":12936,"Ġsetelhta":12937,"Ġlanoitar":12938,"Ġ.).":12939,"taefed":12940,"''":12941,"Ġrelle":12942,"segnellahc":12943,"Ġytixelpmoc":12944,"ĠbocaJ":12945,"stseretni":12946,"nosir":12947,"Ġetaf":12948,"Ġevirra":12949,"ĠreveN":12950,"ssE":12951,"Ġepip":12952,"ĠtinU":12953,"Ġnamriahc":12954,"ordyH":12955,"6191":12956,"knat":12957,"Ġtsesolc":12958,"nrA":12959,"ecnivorp":12960,"ĠgnoK":12961,"zaK":12962,"ĠegraL":12963,"Ġdeyolped":12964,"dnamed":12965,"Ġsetaler":12966,"zarg":12967,"Ġnottub":12968,"ĠeussI":12969,"ĠmiT":12970,"ĠdnaloP":12971,"regirfer":12972,"ĠgurD":12973,"Ġtnemges":12974,"Ãī":12975,"leP":12976,"ĠmelasureJ":12977,"ĠneT":12978,"ĠtneceR":12979,"Ġgnitnuocca":12980,"Ġnedrub":12981,"Ġnip":12982,"ĠwoleB":12983,"iverP":12984,"Ġcina":12985,"Ġsgnittes":12986,"lbatsE":12987,"notgni":12988,"getartS":12989,"ĠroineS":12990,"Ġoreh":12991,"Ġwa":12992,"IA":12993,"ĠÎ":12994,"Ġner":12995,"ĠhtuoY":12996,"Ġgnideec":12997,"bbaR":12998,"PN":12999,"alP":13000,"naK":13001,"Ġsetov":13002,"ĠecurB":13003,"tneves":13004,"Ġsnairotsih":13005,"irtS":13006,"Ġsnoitrop":13007,"Ġecnatsni":13008,"ĠgniviL":13009,"tarcs":13010,"nez":13011,"Ġ4691":13012,"Ġnoitnetni":13013,"Ġnottoc":13014,"scitsiretcarahc":13015,"doehT":13016,"Ġ14":13017,"ecnednepedni":13018,"senoJ":13019,"ĠeltsaC":13020,"Ġ7691":13021,"Ġdelf":13022,"ĠerutlucirgA":13023,"tre":13024,"saep":13025,"das":13026,"Ġ34":13027,"Ġthguord":13028,"Ġsyen":13029,"klof":13030,"ffuts":13031,"Ġdezirohtua":13032,"0881":13033,"mrots":13034,"Ġ^":13035,"Ġeag":13036,"ucave":13037,"sttesuhcassaM":13038,"Ġ74":13039,"dnarB":13040,"dneH":13041,"ergA":13042,"ĠhsiF":13043,"Ġlargetni":13044,"ugne":13045,"nabeL":13046,"smsinagro":13047,"roetem":13048,"Ġtnadnuba":13049,"ĠegamI":13050,"Ġekaw":13051,"Ġsisehtopyh":13052,"Ġsseleriw":13053,"Ġksid":13054,"rtlif":13055,"mirepxE":13056,"Ġhcterts":13057,"Ġllim":13058,"ngaM":13059,"Ġgnitepmoc":13060,"âģĦ":13061,"ehta":13062,"egla":13063,"Ġpihsrebmem":13064,"otua":13065,"nesnoc":13066,"nitaL":13067,"EE":13068,"TT":13069,"ĠlaeR":13070,"itam":13071,"Ġrim":13072,"ĠtnatsetorP":13073,"sipE":13074,"riapmi":13075,"Ġmuidats":13076,"selpmaxe":13077,"irup":13078,"zeneV":13079,"Ġysub":13080,"snoitulos":13081,"Ġsusnec":13082,"Ġgnihsinif":13083,"Ġnoitpoda":13084,"Ġgniwolf":13085,"latot":13086,"ruE":13087,"Ġhpa":13088,"Ġsgniteem":13089,"ĠsdnalrehteN":13090,"ĠedarG":13091,"ĠlatneM":13092,"RS":13093,"loR":13094,"Ġylesicerp":13095,"Ġsecneuqes":13096,"serutluc":13097,"Ġreyarp":13098,"yolpmE":13099,"Ġsezis":13100,"raA":13101,"dol":13102,"enizagam":13103,"ĠoediV":13104,"ĠilA":13105,"ĠsalguoD":13106,"Ġenip":13107,"Ġeunever":13108,"ĠoiratnO":13109,"Ġgnitnemelpmi":13110,"Ġnoila":13111,"ĠnoitaroproC":13112,"ĠecI":13113,"negor":13114,"ĠrebmemeR":13115,"ĠrotcoD":13116,"Ġedivid":13117,"Ġlarebil":13118,"Ġcihp":13119,"ĠcisaB":13120,"Ġnoitcelfer":13121,"Ġyllacigolo":13122,"seerged":13123,"caB":13124,"Ġlacihposolihp":13125,"Ġcitsongaid":13126,"Ġevruc":13127,"Ġtnetap":13128,"hpatem":13129,"ĠyekcoH":13130,"htooms":13131,"Ġter":13132,"Ġllafniar":13133,"Ġgnitats":13134,"Ġhsurb":13135,"Ġgnisitrevda":13136,"lusnoc":13137,"Ġgningised":13138,"Ġsevitcejbo":13139,"Ġtsellams":13140,"ĠnamroN":13141,"oihO":13142,"Ġemiger":13143,"naps":13144,"Ġtnedive":13145,"ĠnairotciV":13146,"Ġsedoc":13147,"Ġyhta":13148,"ĠDH":13149,"rabraB":13150,"scisyhp":13151,"Ġsehcaet":13152,"Ġtropria":13153,"muserp":13154,"DU":13155,"nihcam":13156,"coloH":13157,"yalpsid":13158,"eivom":13159,"ĠretaerG":13160,"ĠeÃ©":13161,"htlaew":13162,"Ġstnetnoc":13163,"Ġthgilhgih":13164,"Ġnoitprosba":13165,"TN":13166,"orcam":13167,"tiB":13168,"elrO":13169,"ertnoM":13170,"rehda":13171,"txen":13172,"Ġtcartxe":13173,"nevig":13174,"Ġreed":13175,"tiforp":13176,"Ġsnoitcelloc":13177,"Ġrehposolihp":13178,"ĠyevruS":13179,"ciL":13180,"Ġhtneves":13181,"rutluc":13182,"Ġsrosnes":13183,"esenihC":13184,"Ġdoohilekil":13185,"noser":13186,"cse":13187,"gnidnatsrednu":13188,"Ġcitam":13189,"MC":13190,"sdaor":13191,"ureP":13192,"nacs":13193,"ella":13194,"tseirp":13195,"ĠsnamoR":13196,"Ġtcartsba":13197,"niC":13198,"regnif":13199,"Ġmrofsnart":13200,"Ġogra":13201,"ĠoÃ£":13202,"Ġselit":13203,"foorp":13204,"sdrac":13205,"Ġdennab":13206,"Ġnworc":13207,"ati":13208,"yhw":13209,"Ġsehtolc":13210,"Ġnaps":13211,"ĠlenoloC":13212,"Ġnoitanidro":13213,"ciffe":13214,"wov":13215,"ĠnnA":13216,"icsor":13217,"semoctuo":13218,"Ġsnug":13219,"daL":13220,"odnI":13221,"seireS":13222,"Ġdecnuonorp":13223,"taidep":13224,"sretaw":13225,"Ġeutats":13226,"seirujni":13227,"omoc":13228,"namuH":13229,"Ġgnihsaw":13230,"stnia":13231,"Ġlatnemnrevog":13232,"Ġau":13233,"naL":13234,"Ġsecnaraeppa":13235,"cal":13236,"Ġnoitcaf":13237,"Ġedisa":13238,"loD":13239,"tnerap":13240,"Ġthgit":13241,"Ġsetam":13242,"Ġraluc":13243,"yhposolihp":13244,"Ġseititnauq":13245,"yraunaJ":13246,"trofmoc":13247,"Ġdednet":13248,"ylp":13249,"nir":13250,"lebal":13251,"tebiT":13252,"Ġrecco":13253,"Ġnoitaz":13254,"diuG":13255,"Ġtnafni":13256,"ĠyrotarobaL":13257,"Ġderutcurts":13258,"fiF":13259,"rote":13260,"rak":13261,"Ġseivom":13262,"saerT":13263,"sehtnys":13264,"ĠecnerwaL":13265,"Ġsnoisivorp":13266,"brutsid":13267,"Ġdnale":13268,"limE":13269,"sgel":13270,"ĠRS":13271,"Ġyrets":13272,"valso":13273,"Ġsrenrael":13274,"Ġebirt":13275,"Ġdetaluger":13276,"Ġ7791":13277,"kooB":13278,"ĠdliW":13279,"ĠniveK":13280,"malc":13281,"Ġnoitallatsni":13282,"ĠyensiD":13283,"senob":13284,"Ġmaertsniam":13285,"Ġmhtirogla":13286,"greB":13287,"eneG":13288,"Ġytniat":13289,"sot":13290,"Ġsemirc":13291,"noW":13292,"Ġao":13293,"irtaP":13294,"urhs":13295,"Ġtsujda":13296,"biG":13297,"Ġgnipeels":13298,"ĠerutuF":13299,"Ġsnoitnevretni":13300,"Ġsgniw":13301,"manro":13302,"motana":13303,"Ġycarcomed":13304,"Ġmsicitirc":13305,"ĠlaicnaniF":13306,"tnatsnoC":13307,"icalg":13308,"Ġve":13309,"Ġgnihsilbup":13310,"Ġsreirrab":13311,"Ġgnidnetxe":13312,"Ġgnippohs":13313,"Ġflaheb":13314,"ylevita":13315,"FDP":13316,"tseretnI":13317,"ĠydenneK":13318,"salG":13319,"Ġdekil":13320,"1191":13321,"aihpledalihP":13322,"Ġevisulcxe":13323,"Ġskcab":13324,"Ġsrelttes":13325,"ssertca":13326,"Ġcihpargoeg":13327,"Ġcitsilaer":13328,"Ġydemoc":13329,"Ġgnilbane":13330,"Ġssessop":13331,"esahp":13332,"sib":13333,"bahpla":13334,"pmup":13335,"Ġyranilpicsid":13336,"Ġnoitcnujnoc":13337,"rcs":13338,"Ġpool":13339,"Ġdnilb":13340,"Ġsdog":13341,"Ġsgnoleb":13342,"sise":13343,"ublA":13344,"mutua":13345,"Ġsrotacude":13346,"trapeD":13347,"picinuM":13348,"sw":13349,"Ġreywal":13350,"Ġsur":13351,"sttiP":13352,"gnip":13353,"Ġlairtser":13354,"dedulcni":13355,"Ġdetti":13356,"Ġelbitapmoc":13357,"Ġsyalpsid":13358,"Ġsuta":13359,"ĠleveL":13360,"secaps":13361,"Ġretla":13362,"uoC":13363,"revres":13364,"simerp":13365,"Ġtropxe":13366,"Ġ9691":13367,"ipme":13368,"yraurbeF":13369,"Ġytniatrec":13370,"ciS":13371,"Ġevila":13372,"Ġevloser":13373,"Ġsru":13374,"lacit":13375,"deerb":13376,"Ġevisneffo":13377,"noitpo":13378,"Ġiro":13379,"senile":13380,"Ġadne":13381,"tnemadnuf":13382,"miK":13383,"008":13384,"hsub":13385,"Ġytin":13386,"llits":13387,"ĠnarI":13388,"ĠlluF":13389,"\"!":13390,"RD":13391,"Ġdetsissa":13392,"gnaL":13393,"ĠnoitaredeF":13394,"erudecorp":13395,"Ġsneet":13396,"enecs":13397,"ĠliO":13398,"sdnalsi":13399,"Ġesnecil":13400,"Ġgnilggurts":13401,"Ġswa":13402,"ruteR":13403,"meH":13404,"curt":13405,"uneg":13406,"decudorp":13407,"Ġtiu":13408,"Ġstcennoc":13409,"ĠtsaehtuoS":13410,"dilosnoc":13411,"Ġdirbyh":13412,"ĠtnematseT":13413,"Ġralo":13414,"Ġgnikirts":13415,"Ġgnitelpmoc":13416,"Ġaino":13417,"Ġgniyd":13418,"Ġbrev":13419,"tlua":13420,"Ġdetcepsus":13421,"ĠyaR":13422,"ĠtcatnoC":13423,"ecnatsid":13424,"Ġseniccav":13425,"Ġdroffa":13426,"hsraM":13427,"gnivil":13428,"deru":13429,"tneverp":13430,"repmi":13431,"Ġ0691":13432,"Ġmot":13433,"ĠyekruT":13434,"Ġgnah":13435,"ital":13436,"conni":13437,"Ġstcilfnoc":13438,"Ġdaorliar":13439,"Ġtsevrah":13440,"Ġscitoibitna":13441,"Ġsref":13442,"Ġseiteicos":13443,"ĠtsomlA":13444,"ĠmaS":13445,"itiC":13446,"kcaP":13447,"idemer":13448,"ĠogeiD":13449,"Ġstaob":13450,"Ġsrevres":13451,"seirogetac":13452,"Ġselc":13453,"reporP":13454,"Ġtnediser":13455,"Ġgab":13456,"Ġeenk":13457,"naV":13458,"rolpxE":13459,"lupmi":13460,"noitnem":13461,"egA":13462,"Ġsthgisni":13463,"Ġlabrev":13464,"ĠnoitcudortnI":13465,"Ġrebmahc":13466,"ĠatosenniM":13467,"nlocniL":13468,"ulB":13469,"tnemurtsni":13470,"Ġecneuqesnoc":13471,"Ġgnitnuoc":13472,"hposolihP":13473,"Ġdetacitsihpos":13474,"tohs":13475,"Ġsgnitirw":13476,"semaG":13477,"toR":13478,"Ġsnez":13479,"Ġnoitnevni":13480,"Ġsnoitatcepxe":13481,"stroper":13482,"Ġtimrep":13483,"wohS":13484,"Ġsetomorp":13485,"serusaem":13486,"Ġdeddebme":13487,"Ġderolpxe":13488,"Ġsuoitcefni":13489,"Ġevitalsigel":13490,"ycneiciffe":13491,"stnemevom":13492,"Ġsnoisivid":13493,"Ġtas":13494,"Ġweivrevo":13495,"Ġtaeper":13496,"noitaidar":13497,"totsirA":13498,"ĠdnuoS":13499,"tsaP":13500,"Ġlacov":13501,"docne":13502,"Ġgnidnetta":13503,"lufesu":13504,"Ġnoitaripsni":13505,"Ġete":13506,"llaC":13507,"looT":13508,"ĠyadirF":13509,"skco":13510,"sreidlos":13511,"rbeN":13512,"Ġsgnideec":13513,"valS":13514,"Ġdesingocer":13515,"Ġezinagro":13516,"Ġnega":13517,"Ġgnidaol":13518,"Ġyhtlaew":13519,"XX":13520,"pes":13521,"ĠnauJ":13522,"yaP":13523,"ĠgnikaT":13524,"serF":13525,"Ġnaj":13526,"idraC":13527,"Ġcibo":13528,"Ġnoitcarf":13529,"sisongaid":13530,"evird":13531,"egdirbmaC":13532,"ĠmodeerF":13533,"Ġytilauqe":13534,"ĠharaS":13535,"epolcycnE":13536,"Ġnoitalucric":13537,"Ġsretemolik":13538,"Ġdegella":13539,"Ġesool":13540,"nutrofnu":13541,"ĠskooB":13542,"Ġspots":13543,"gnuf":13544,"noitubirtsid":13545,"nniF":13546,"tius":13547,"ĠIV":13548,"Ġtsiruot":13549,"iteppa":13550,"ĠsediseB":13551,"Ġelle":13552,"Ġeseco":13553,"ĠMF":13554,"eriF":13555,"Ġsnimativ":13556,"illirb":13557,"Ġsixa":13558,"Ġmaeb":13559,"NO":13560,"yasse":13561,"Ġstisoped":13562,"slacimehc":13563,"oiratnO":13564,"Ġgnikcart":13565,"Ġ5691":13566,"ĠnainarI":13567,"Ġpmuj":13568,"Ġhp":13569,"Ġeniv":13570,"Ġecnanif":13571,"sgnittes":13572,"ksarbeN":13573,"selcsum":13574,"daP":13575,"Ġarepo":13576,".%":13577,"Ġgnirapmoc":13578,"leg":13579,"liam":13580,"dnarG":13581,"ĠDE":13582,"Ġscitirc":13583,"Ġgnicudortni":13584,"Ġslennahc":13585,"detrats":13586,"tolp":13587,"Ġyllacitamard":13588,"picitraP":13589,"Ġlareta":13590,"Ġyldrah":13591,"libaher":13592,"Ġas":13593,"Ġnep":13594,"Ġthgilnus":13595,"tsum":13596,"mitni":13597,"ĠsecroF":13598,"kiM":13599,"mim":13600,"ĠsseccA":13601,"Ġlanim":13602,"submoc":13603,"sevnI":13604,"revil":13605,"Ġetamitigel":13606,"Ġ..":13607,"isoP":13608,"Ġespalloc":13609,"Ġnezitic":13610,"dnemert":13611,"ĠannA":13612,"reven":13613,"Ġstsir":13614,"Ġsecnetnes":13615,"Ġtsewhtron":13616,"jie":13617,"Ġtcaer":13618,"ssenkaew":13619,"dit":13620,"rebif":13621,"Ġyllaunna":13622,"Ġ2202":13623,"Ġmsitua":13624,"ĠnaD":13625,"irbaG":13626,"terces":13627,"sionillI":13628,"idisbus":13629,"Ġsdnim":13630,"ĠamabO":13631,"Ġreti":13632,"Ġyllacol":13633,"Ġderuces":13634,"gerges":13635,"leuzeneV":13636,"kaO":13637,"stsitra":13638,"lausac":13639,"ĠDVD":13640,"gninnalp":13641,"Ġyranidroartxe":13642,"xua":13643,"Ġdehca":13644,"mela":13645,"emil":13646,"Ġlautum":13647,"alle":13648,"Ġdioryht":13649,"iaF":13650,"sserpxe":13651,"Ġsnoinipo":13652,"cis":13653,"eniL":13654,"srehcraeser":13655,"Ġtsaehtron":13656,"Äį":13657,"Ġytireves":13658,"Ġecnadnuba":13659,"Ġsnaira":13660,"hgrub":13661,"Ġredwop":13662,"Ġslaem":13663,"Ġgnirehtag":13664,"dene":13665,"ĠAF":13666,"Ġenilpicsid":13667,"Ġgnihcraes":13668,"Ġsknird":13669,"nretni":13670,"Ġdeew":13671,"ĠrehtoM":13672,"Ġesitrepxe":13673,"Ġssensuoicsnoc":13674,"sdica":13675,"rezA":13676,"Ġslaed":13677,"egassem":13678,"Ġeeyolpme":13679,"yenoh":13680,"LU":13681,"nÃ¡":13682,"Ġpirts":13683,"Ġylsuounitnoc":13684,"scitamehtam":13685,"xaM":13686,"ĠrelliM":13687,"Ġegakcap":13688,"Ġsesaeler":13689,"Ġdegnoleb":13690,"detaert":13691,"Ġdethgil":13692,"Ġstneilc":13693,"Ġdecnivnoc":13694,"Ġstnuoc":13695,"sengam":13696,"lareneG":13697,"Ġylroop":13698,"Ġytili":13699,"Ġsnoitatum":13700,"011":13701,"ĠsraeY":13702,"egnellahc":13703,"sdoog":13704,"Ð¾":13705,"Ġseegufer":13706,"Ġrallod":13707,"kops":13708,"ttah":13709,"uoR":13710,"Ġerehwemos":13711,"ĠrM":13712,"ygetarts":13713,"naf":13714,"erua":13715,"Ġale":13716,"ĠraelcuN":13717,"nel":13718,"ĠtnarG":13719,"worrob":13720,"noinipo":13721,"sirpretne":13722,"elet":13723,"ĠksiR":13724,"Ġgnirrats":13725,"Ġdednopser":13726,"maiD":13727,"ĠhcaeB":13728,"Ġseirotirret":13729,"swohs":13730,"Ġdednepsus":13731,"Ġlanac":13732,"Ġhguor":13733,"erusopxe":13734,"Ġ64":13735,"snos":13736,"Ġyrammus":13737,"Ġgnikcab":13738,"Ġderevocer":13739,"riahC":13740,"poci":13741,"cnaV":13742,"Ġmaxe":13743,"bmuht":13744,"Ġstnarg":13745,"eeL":13746,"Ġesira":13747,"reteV":13748,"MM":13749,"Ġyranim":13750,"Ġderetnec":13751,"gnihtyna":13752,"Ġey":13753,"Ġsevird":13754,"rawetS":13755,"Ġsegaruocne":13756,"buH":13757,"Ġelttes":13758,"Ġlanoitcif":13759,"Ġreif":13760,"Ġyticolev":13761,"Ġsevorpmi":13762,"Ġrekaeps":13763,"drofxO":13764,"Ġyldetaeper":13765,"Ġsdooh":13766,"ymo":13767,"elcihev":13768,"seigetarts":13769,"evom":13770,"hteM":13771,"Ġerutnev":13772,"cniz":13773,"tsisni":13774,"Ġkcohs":13775,"Ġlairepmi":13776,"Ġevisserpmi":13777,"nega":13778,"idercni":13779,"ĠklaT":13780,"nifer":13781,"SG":13782,"Ġsnaeb":13783,"seceip":13784,"Ġeniru":13785,"ĠeerT":13786,"Ġseirettab":13787,"Ġyhc":13788,"Ġnaw":13789,"Ġeetnaraug":13790,"IV":13791,"gnig":13792,"scir":13793,"camrahp":13794,"Ġnoipmahc":13795,"Ġcitauqa":13796,"Ġeludom":13797,"bmob":13798,"Ġreep":13799,"Ġrelur":13800,"RN":13801,"Ġterpretni":13802,"uocnaV":13803,"Ġado":13804,"Ġstnemelppus":13805,"gnolorp":13806,"ĠanaidnI":13807,"moloS":13808,"Ġsreganam":13809,"niarkU":13810,"nauhtiL":13811,"eroc":13812,"ĠetaerC":13813,"ĠllaW":13814,"utcu":13815,"Ġgol":13816,"gnihcaet":13817,"etal":13818,"Ġnoitamrofsnart":13819,"itilim":13820,"Ġrevef":13821,"Ġsmaerts":13822,"duesp":13823,"cederp":13824,"srevir":13825,"ĠCF":13826,"Ġderetnuocne":13827,"catceps":13828,"ĠnosreffeJ":13829,"Ġecap":13830,"Ġsfe":13831,"Ġdetamina":13832,"hsaK":13833,"HP":13834,"naY":13835,"sivrepus":13836,"nesra":13837,"guY":13838,"talsi":13839,"neeuQ":13840,"ĠdeillA":13841,"ercsid":13842,"Ġskees":13843,"stce":13844,"iab":13845,"Ġreidlos":13846,"ytnuoc":13847,"Ġstcetorp":13848,"yletaidemmi":13849,"Ġrosnes":13850,"etni":13851,"ĠlacimehC":13852,"Ġsdrawa":13853,"sdoirep":13854,"hsram":13855,"ĠtiripS":13856,"Ġsnoruen":13857,"htaP":13858,"Ġemoclew":13859,"lecI":13860,"Ġwollahs":13861,"teeb":13862,"ĠotnoroT":13863,"snoitacol":13864,"srodne":13865,"edistuo":13866,"laitnetop":13867,"Ġlacihpargoeg":13868,"Ġtnesnoc":13869,"Ġ45":13870,"noisser":13871,"ĠeviG":13872,"ecnegilletni":13873,"Ġtnemeriter":13874,"Ġ4491":13875,"rettu":13876,"Ġdekcab":13877,"Ġetaicerppa":13878,"Ġdehsilpmocca":13879,"Ġhguorob":13880,"dnohco":13881,"ips":13882,"Ġretirwgnos":13883,"cerru":13884,"Ġdezicitirc":13885,"Ġnoitanima":13886,"gnissecorp":13887,"sob":13888,"Ġregnif":13889,"emirc":13890,"ruasonid":13891,"Ġsraw":13892,"Ġola":13893,"Ġyranib":13894,"Ġylsuoenatlumis":13895,"Ġkcotsevil":13896,"Ġap":13897,"nepsus":13898,"Ġeripme":13899,"Ġnoy":13900,"srepsid":13901,"Ġmsiruot":13902,"hpesoJ":13903,"ĠlraK":13904,"serudecorp":13905,"Ġsusnesnoc":13906,"napmoC":13907,"Ġazne":13908,"ĠAD":13909,"Ġredloh":13910,"noil":13911,"Ġnoilli":13912,"Ġsnoitatimil":13913,"Ġdetius":13914,"Ġytliug":13915,"dnalreztiwS":13916,"Ġnailivic":13917,"Ġgnissucsid":13918,"Ġgnitimil":13919,"ĠsalohciN":13920,"Ġelbarapmoc":13921,"ĠsuoiraV":13922,"LS":13923,"Ġ15":13924,"Ġsetubirtnoc":13925,"hcraes":13926,"harB":13927,"irE":13928,"dia":13929,"sirC":13930,"ohcys":13931,"ortsag":13932,"tlas":13933,"Ġffe":13934,"Ġnis":13935,"sua":13936,"Ġyenoh":13937,"ĠsrehcaeT":13938,"yawroN":13939,"yma":13940,"Ġnim":13941,"Ġetadommocca":13942,"vaB":13943,"ĠesoR":13944,"Ġnoissessop":13945,"enia":13946,"tibihni":13947,"Ġgninialpxe":13948,"Ġsedutitta":13949,"Ġzzaj":13950,"Ġodra":13951,"nuL":13952,"Ġnoitarbelec":13953,"Ġ0491":13954,"Ġskniht":13955,"ysa":13956,"ĠnozamA":13957,"llievrus":13958,"Ġika":13959,"Ġ35":13960,"Ġdevlossid":13961,"Ġys":13962,"Ġdednal":13963,"kcik":13964,"ĠnellA":13965,"Ġssehc":13966,"zaG":13967,"ĠtnednepednI":13968,"woR":13969,"Ġsthgin":13970,"Ġgnidnatstuo":13971,"Ġgnino":13972,"Ġgninibmoc":13973,"maG":13974,"ĠnigriV":13975,"Ġgninifed":13976,"cerw":13977,"ytivita":13978,"ĠST":13979,"Ġseitilibapac":13980,"ĠnogerO":13981,"gelivirp":13982,"Ġdum":13983,"Ġmuira":13984,"daerps":13985,"Ġsmroftalp":13986,"Ġseirreb":13987,"Ġsehsa":13988,"idda":13989,"tnempoleveD":13990,"tsopa":13991,"Ġetutitsbus":13992,"tte":13993,"Ġdegnellahc":13994,"Ġgnikram":13995,"Ġralulle":13996,"Ġ94":13997,"evisnepxe":13998,"Ġetaidemretni":13999,"Ġ#":14000,"llib":14001,"Ġyltnednepedni":14002,"yratilim":14003,"tsopA":14004,"Ġdeyartrop":14005,"Ġdettif":14006,"kiS":14007,"Ġecifircas":14008,"Ġdetepmoc":14009,"Ġevlav":14010,"ĠkralC":14011,"ĠstneitaP":14012,"cnirp":14013,"Ġkcirb":14014,"repyH":14015,"enego":14016,"Ġtnemelppus":14017,"ĠtnemssessA":14018,"ĠyadrutaS":14019,"Ġdetcere":14020,"LB":14021,"Ġydaets":14022,"Ġcinaclov":14023,"Ġsetisbew":14024,"noisivelet":14025,"ylle":14026,"Ġetati":14027,"Ġetanretla":14028,"Ġdetaeh":14029,"Ġrotcev":14030,"gk":14031,"Ġeria":14032,"naN":14033,"Ġcirbaf":14034,"seirtsudni":14035,"Ġsdnob":14036,"Ġdesiver":14037,"Ġgnitib":14038,"cso":14039,"syob":14040,"yrC":14041,"snrecnoc":14042,"luca":14043,"yrarbil":14044,"gilletnI":14045,"vel":14046,"srewop":14047,"etalp":14048,"Ġroinuj":14049,"iga":14050,"Ġedih":14051,"mixaM":14052,"ĠhcraeS":14053,"Ġsegde":14054,"Ġdiarfa":14055,"Ä«":14056,"Ġnuo":14057,"ubed":14058,"irbili":14059,"Ġsthgilhgih":14060,"Ġsmets":14061,"Ġyaced":14062,"feL":14063,"ĠsiseneG":14064,"monortsA":14065,"Ġtnom":14066,"ttahnaM":14067,"otohp":14068,"dnep":14069,"Ġtlusnoc":14070,"ĠwonK":14071,"nemnrevog":14072,"Ġezilitu":14073,"iduaS":14074,"Ġseota":14075,"stra":14076,"worG":14077,"0781":14078,"ĠyllanigirO":14079,"Ġthgils":14080,"Ġtluafed":14081,"melasureJ":14082,"litnev":14083,"ĠnoissiM":14084,"Ġres":14085,"ĠsgnihT":14086,"Ġsrotsecna":14087,"neT":14088,"ĠnahK":14089,"ĠerauqS":14090,"ecroF":14091,"Ġsseleht":14092,"ĠarreiS":14093,"muN":14094,"Ġlatnemurtsni":14095,"stiurf":14096,"reif":14097,"tnep":14098,"Ġytriht":14099,"Ġegrahcsid":14100,"Ġytisrevidoib":14101,"hcirne":14102,"omS":14103,"leV":14104,"darG":14105,"Ġklub":14106,"stnemucod":14107,"Ġgnitanicsaf":14108,")\"":14109,"tfos":14110,"US":14111,"Ġsgnivas":14112,"ĠLA":14113,"Ġrebbur":14114,"redef":14115,"itnecni":14116,"Ġnoissimmoc":14117,"xul":14118,"naz":14119,"Ġskaeps":14120,"Ġsinnet":14121,"Ġeek":14122,"htam":14123,"Ġnoitargimmi":14124,"ĠDM":14125,"Ġnezod":14126,"Ġetalocohc":14127,"Ġ65":14128,"Ġylevisnetxe":14129,"anne":14130,"Ġamuart":14131,"sapmoc":14132,"yhc":14133,"Ġsrepoleved":14134,"gralne":14135,"Ġtobor":14136,"ĠlasrevinU":14137,"Ġletoh":14138,"Ġgnisrun":14139,"Ġretsiger":14140,"edosipe":14141,"gniod":14142,"Ġgk":14143,"namrofreP":14144,"erutcurtsarfni":14145,"ĠaksalA":14146,"elamef":14147,"Ġgnisirprus":14148,"Ġsenalp":14149,"Ġsenimreted":14150,"ĠralimiS":14151,"wtfoS":14152,"tnemyolpme":14153,"retsop":14154,"Ġgnitalu":14155,"lacol":14156,"Ġnah":14157,"Ġ6691":14158,"aino":14159,"ecirp":14160,"secneuqesnoc":14161,"naR":14162,"Ġdessessa":14163,"Ġdetaulave":14164,"ircs":14165,"Ġ2491":14166,"Ġsekal":14167,"hgiF":14168,"!!":14169,"boT":14170,"Ġ66":14171,"snoitacidem":14172,"gnirts":14173,"vonnI":14174,"Ġresi":14175,"sucof":14176,"ĠcirtcelE":14177,"Ġllacer":14178,"kaS":14179,"Ġstatibah":14180,"tniaS":14181,"ssarah":14182,"slacov":14183,"euqinhcet":14184,"niD":14185,"Ġkra":14186,"Ġtej":14187,"Ġyleerf":14188,"noinu":14189,"teY":14190,"Ġflesym":14191,"Ġrengised":14192,"nodecaM":14193,"omocol":14194,"utculf":14195,"syl":14196,"Ġgnirobhgien":14197,"Ġyag":14198,"divE":14199,"**":14200,"VE":14201,"ocsicnarF":14202,"Ġlaroc":14203,"alB":14204,"ortsatac":14205,"eceip":14206,"Ġsetartsnomed":14207,"Ġsciryl":14208,"egde":14209,"rik":14210,"sthguoht":14211,"yab":14212,"dnaG":14213,"ilas":14214,"rehps":14215,"Ġygolohcysp":14216,"nahceM":14217,"ĠnworC":14218,"Ġsknat":14219,"ĠrevliS":14220,"Ġslevart":14221,"8091":14222,"nh":14223,"Ġsleuf":14224,"brut":14225,"ĠsnommoC":14226,"erar":14227,"Ġtserra":14228,"Ġylgnimees":14229,"ĠreltiH":14230,"sui":14231,"ĠiruossiM":14232,"Ġsio":14233,"dnahC":14234,"detelpmoc":14235,"trahc":14236,"loG":14237,"deyortsed":14238,"Ġsenoz":14239,"noitammalfni":14240,"Ġliart":14241,"secivreS":14242,"wodniw":14243,"ĠthgilF":14244,"Ġnoisulcni":14245,"Ġepat":14246,"Ġytsanyd":14247,"langis":14248,"Ġstnafni":14249,"Ġyreteme":14250,"tuptuo":14251,"052":14252,"xiM":14253,"ĠetirW":14254,"Ġylbaredisnoc":14255,"voC":14256,"ĠyadnoM":14257,"Ġtruh":14258,"meg":14259,"Ġtekcor":14260,"egatnavda":14261,"serutcip":14262,"Ġelucelom":14263,"BM":14264,"ĠlanoitacudE":14265,"Ġele":14266,"scipmylO":14267,"seeyolpme":14268,"MTH":14269,"Ġseli":14270,"RG":14271,"Ġelita":14272,"Ġihc":14273,"itiaH":14274,"Ġ8491":14275,"nosliW":14276,"Ġsesylana":14277,"mog":14278,"cot":14279,"egarots":14280,"ĠllabesaB":14281,"noceR":14282,"tnemnrevoG":14283,"Ġlennut":14284,"nworb":14285,"tahW":14286,"llatem":14287,"Ġdesinagro":14288,"ĠsdrawA":14289,"eettimmoC":14290,"gm":14291,"seneg":14292,"low":14293,"Ġspu":14294,"cilohtaC":14295,"Ġseilpmi":14296,"rebut":14297,"Ġlata":14298,"krowteN":14299,"Ġniatpac":14300,"ĠoiR":14301,"enile":14302,"esolc":14303,"luos":14304,"Ġysrev":14305,"teehs":14306,"ffirG":14307,"Ġgniknar":14308,"Ġlabirt":14309,"uanortsa":14310,"hO":14311,"laem":14312,"baR":14313,"cnep":14314,"erugif":14315,"ĠnaelC":14316,"Ġram":14317,"ĠsyawlA":14318,"Ġcitamuart":14319,"ecnivorP":14320,"Ġseitnuoc":14321,"Ġrekam":14322,"Ġcaidrac":14323,"miD":14324,"stnemurtsni":14325,"061":14326,"Ġdecitcarp":14327,"ĠesaC":14328,"ĠiduaS":14329,"rorep":14330,"ĠtnuoC":14331,"Ġyruj":14332,"Ġbmob":14333,"scipot":14334,"lognoM":14335,"tsehc":14336,"Ġytilibaniatsus":14337,"BGL":14338,"titnauq":14339,"Ġsepyto":14340,"teerts":14341,"citsalp":14342,"Ġlatineg":14343,"ĠsdradnatS":14344,"Ġsrotce":14345,"ĠnaI":14346,"Ġylredle":14347,"ĠstneraP":14348,"ĠnwoD":14349,"Ġycagel":14350,"uqcaJ":14351,"eson":14352,"htrof":14353,"Ġnoitavele":14354,"Ġralohcs":14355,"obmaC":14356,"Ġytilau":14357,"sserped":14358,"gnimriB":14359,"sredro":14360,"xip":14361,"Ġerow":14362,"edici":14363,"tcatnoc":14364,"rimdA":14365,"ropave":14366,"baC":14367,"ĠtropriA":14368,"Ġgniyllub":14369,"esir":14370,"ÅŁ":14371,"ĠÃŃ":14372,"Ġelop":14373,"Ġnekcihc":14374,"racni":14375,"ĠevaD":14376,"dluohs":14377,"llecna":14378,"ĠlanigirobA":14379,"sartlu":14380,"879":14381,"ĠlacinhceT":14382,"gnikaeps":14383,"amaJ":14384,"nimulli":14385,"rawd":14386,"ilof":14387,"uoT":14388,"Ġsenim":14389,"Ġselcyc":14390,"Ġtnetsisrep":14391,"Ġnezorf":14392,"Ġeveiler":14393,"Ġtun":14394,"tnediserP":14395,"Ġ3691":14396,"ĠnatiloporteM":14397,"Ġhsrah":14398,"nummI":14399,"Ġmuina":14400,"Ġtoohs":14401,"nevaeh":14402,"Ġeciuj":14403,"Ġsrevo":14404,"Ġretsof":14405,"nuon":14406,
[...]
